#version: 0.2
Ġ t
h e
i n
Ġ a
e r
o n
Ġt he
r e
a n
o r
e n
a t
e d
Ġ o
s t
a l
Ġ w
a r
i t
Ġo f
n d
Ġ s
Ġ in
Ġ f
e s
i s
Ġ c
Ġ b
i c
Ġ p
in g
Ġa nd
a s
r o
i on
l e
Ġ S
Ġt o
Ġ m
Ġ C
Ġ d
o u
Ġ A
i l
Ġ 1
Ġ T
Ġ h
en t
a m
Ġ M
e l
o l
o m
Ġ (
Ġ re
Ġ B
a c
Ġ l
a d
Ġ P
u r
e t
e c
er s
Ġ H
i v
Ġ n
at ion
Ġ 2
Ġw as
i g
Ġ I
i r
o t
Ġ e
i d
Ġ R
Ġt h
u s
a y
Ġ1 9
l y
Ġf or
Ġ on
Ġ D
Ġ L
i m
c h
i st
u t
Ġ F
Ġ g
Ġ is
e m
o w
Ġ G
Ġa s
u n
Ġ N
Ġ W
ĠT he
it h
t h
t er
0 0
Ġ st
an d
â Ģ
he r
c t
u l
a g
c e
Ġ J
Ġw ith
Ġ E
Ġb y
Ġa l
u m
o s
r a
ro m
' s
Ġb e
v er
o p
Ġa t
âĢ ĵ
r i
Ġ O
Ġw h
Ġa n
o c
Ġc on
Ġf rom
Ġ he
al l
i an
a in
Ġ v
Ġ K
o d
Ġ "
i a
e st
i es
a v
Ġth at
t s
it y
a b
Ġ U
b er
re s
e w
Ġc om
il l
at e
i f
u p
Ġp ro
ar d
ĠS t
1 9
Ġp l
ar t
u d
Ġ it
Ġd e
u b
Ġ Ċ
ig h
i p
a k
a p
Ġh is
e ar
o re
a st
Ġ2 00
Ġ r
ic h
or t
Ġ or
o v
c es
l d
at ed
is h
T he
q u
Ġ2 0
ar y
ĠI n
m er
ĠC h
u g
on g
Ġa re
ou r
m ent
Ġ V
iv e
ou n
k s
o g
Ġc h
s e
en d
g e
i al
e p
f er
an t
el l
in e
Ġe x
u nd
u st
or d
Ġs e
am e
er e
r an
u c
s o
i re
) ,
Ġ |
u re
o st
ec t
u e
Ġ le
ac k
ic al
Ġw ere
Ġs p
as s
ion s
Ġ âĢĵ
Ġpl ay
ĠH e
es s
Ġal so
Ġwh ich
i e
ĠU n
Ġs h
t her
a re
ig n
Ġ y
f f
Ġc l
Ġcom p
Ġ20 1
r y
r ic
r it
ag e
p p
Ġ k
Ġ| |
igh t
c l
ir st
m an
ou s
Ġ un
Ġ1 8
l and
Ġ 3
Ġ Y
ow n
or k
id e
on d
er v
Ġa r
he d
ter n
i z
oun t
or y
em ber
ic an
Ġh ad
ation s
o k
ation al
or n
p er
an g
Ġn ot
Ġh as
Ġ19 9
av e
ic e
Ġf irst
am p
f ter
ĠI t
o ol
Ġ ro
e y
Ġw he
fer en
ac h
at er
om e
Ġre s
Ġcon t
ac t
Ġin t
w o
I n
ĠT h
ĠA l
Ġ us
i b
p h
Ġt e
ou t
it ed
u ct
it ion
R e
at es
en s
Ġa d
re e
re n
im e
Ġit s
e e
Ġthe ir
ul t
le ct
ĠA r
a w
Ġ j
2 0
mer ican
Ġwh o
ou nd
at h
ch ool
ac e
) .
Ġa b
i k
Ġb ut
feren ces
b all
ar k
il m
Ġ -
p ort
ub l
it e
l es
Ġy ear
e op
Ġon e
l ow
ug h
Ġa pp
il d
or s
cl ud
in al
is s
Ġ her
iv ers
Ġp art
Ġa c
ĠN ew
w n
Ġre c
n g
o ver
Re ferences
Ġm an
e g
i le
p l
o ot
Ġ 4
p t
eop le
Ġa g
ent s
i o
u al
h n
Ġ19 8
ou ld
res s
f or
ad e
ur ing
o y
ĠM ar
Ġh ave
Ġp er
Ġt wo
Ġs c
ol d
h ip
t on
Ġb ec
Ġin clud
Ġth is
er n
o b
as ed
on s
en ce
t e
w ard
o in
a il
ur n
Ġ en
as e
i ed
v el
g h
ing s
s s
in d
ĠC om
Ġbe en
Ġo ther
e b
t ed
Ġcom m
Ġd es
Ġa fter
Ġ19 7
Ġ 5
Ġl in
Ġd is
2 00
u ch
ou th
w e
re d
Ġa ct
o od
is hed
ur y
ic s
w ay
el y
Ġ up
f t
ĠL e
ab le
r al
Ġf ilm
Ġof f
Ġ im
ĠA merican
or ld
Ġo ut
an ce
E x
on t
Ġo ver
Â ł
Ġn ew
p e
g an
Ġs erv
am es
is ion
on e
Ġp r
Ġint o
Ġthe y
a h
ou gh
ivers ity
e x
an s
r am
1 8
oc k
tern al
or th
oot ball
Ġt r
as on
Ġ19 6
al s
ĠS h
ĠC ol
Ġ und
ic k
c ent
Ġe v
Ġg ro
ĠA n
ĠUn ited
al e
Ġal l
Ġl oc
ic t
Ġc ol
an n
ro ugh
Ġat t
ol og
c he
Ġ Ġ
Ġp re
ran s
ak e
Ġlin ks
ĠS p
ri b
Ġt ime
d uc
ist s
l l
Ġs he
i el
Ġplay ers
Ġw ork
il y
os e
Ex ternal
Ġs ec
in s
i x
Ġp eople
Ġ 6
a z
Ġk n
Ġh im
in n
u ary
e v
Ġb u
i ous
at t
e ver
er al
ces s
ĠJ o
re at
it ies
b um
Ġc an
in ce
Ġwhe n
Ġund er
Ġb et
for m
ĠO n
Ġc o
Ġcon s
Ġte am
ĠI nd
Ġre g
Ġ Z
if e
Ã ©
Ġp ol
oc i
a j
Ġp ubl
ĠUn iversity
e at
Ġre t
ol low
Ġe st
ot h
Ġc ent
ĠP ro
us ic
Ġyear s
Ġas s
we en
st r
d er
ab l
ire ct
Ġin d
us e
i er
Ġb o
Ġag ain
Ġs ub
en n
Ġon ly
ul ar
ĠC l
id ent
Ġm ore
Ġ19 4
ion al
Ġ 7
em b
Ġw ould
Ġfor m
Ġst ud
ĠE ng
le y
ĠS c
ag ue
Ġs chool
er ies
Ġd uring
Ġwhe re
ro und
an y
a ir
Ġsp ec
ĠSt ates
Ġ19 5
ra ph
Ġal bum
Ġm ost
p r
o ber
Ġf ound
in a
ou se
ist ory
Ġs up
Ġbet ween
d uct
res ent
Ġe ar
em ent
Ġab out
Ġs y
Ġ qu
Ġre le
at ive
as h
Ġre l
f ore
Ġth ree
Ġg en
Ġd ec
Ġ end
Ġth rough
iel d
ĠW ar
he n
Ġf ootball
i am
c ed
Ġin ter
Ġre m
Ġ ed
Ġd ist
s h
over n
c c
ĠB r
Ġse ason
19 9
Ġs ing
Ġus ed
Ġl ater
Ġar t
p or
Ġcl ass
Ġ 8
iv er
Ġrec ord
s on
Ġf ollow
if ic
ep t
er man
t en
ĠC ount
Ġthe n
Ġ ra
Ġn um
Ġt ra
ĠS chool
Ġm ov
os s
ĠTh is
an k
er m
Ġthe m
Ġ1 7
p en
Ġthe re
= "
ers on
Ġp op
Ġw rit
Ġs o
Ġb ir
Ġsec ond
at ing
ĠC ar
Ġm ade
Ġm e
Ġf am
ĠI s
" .
a x
ĠJo hn
og raph
un e
Ġkn own
Ġt rans
ĠW orld
Ġe lect
ar g
it t
ĠA ust
er t
" ,
Ġ 9
ĠB l
it s
Ġest abl
ĠF ran
âĢ Ķ
Ġpro v
iv ing
in es
m p
et t
. "
Ġde f
Ġbec ame
ric t
vel op
Ġ1 0
u res
Ġth an
Ġs uch
Ġ &
le v
Ġ ent
ĠP h
Ġd irect
Ġs ong
Ġf l
iv ed
th s
Ġ Q
us s
Ġin v
ow er
ĠCom m
Ġa m
ĠS he
ĠC on
v e
Ġbe ing
Ġs ome
ĠC an
ik e
t il
Ġb l
Ġex p
i ew
ur ch
ment s
Ġc all
le t
Ġf our
r on
ot her
is m
ĠY ork
ĠN ational
u ro
ay s
ut e
in ist
. .
Ġw ell
ĠM ay
Ġ19 3
st it
Ġm on
Ġst r
ĠB rit
is e
Ġ1 5
ar s
Ġp h
Ġ1 6
ul l
Ġg r
ĠA s
Ġs eries
Ġm ed
ur al
b y
e f
ĠJ an
Ġch ar
ĠCount y
Ġd o
tern ational
a i
ian s
ĠA t
Ġgro up
c om
Ġb ro
ĠW est
ĠO r
c y
Ġinclud ing
et s
Ġle ad
Ġh igh
am ed
ver y
el s
Ġbe fore
Ġg o
Ġo per
n e
st em
ĠF or
ĠP l
m y
1 0
er ed
ic ip
Ġagain st
ire d
at her
ĠP r
ow ever
ĠA d
ĠS outh
are er
2 1
amp ions
00 0
Ġor ig
Ġun til
Ġde ath
ĠJ u
Ġb ack
b orn
k e
Ġs ign
iv es
Ġwh ile
Ġs ur
Ġad d
Ġman y
Ġn ame
19 8
ar ri
Ġplay ed
t y
u es
Ġc re
el f
r ist
ĠG erman
Ġo wn
| -
Ġg u
Ġc ount
ug ust
Ġsh ow
Ġin c
ut ion
l ish
et h
Ġfor mer
Ġn o
Ġm ay
Ġm ain
ot t
y s
g ram
i um
Ġ1 2
en g
ic a
Ġoff ic
1 7
ĠAust ral
Ġm usic
er y
Ġde velop
Ġb oth
le ge
ept ember
j ect
Ġc ap
Ġm od
Ġ200 7
ĠLe ague
Ġnum ber
ir d
ĠP ol
Ġare a
s p
Ġp ar
ĠN ov
ut h
olog y
Ġbu ild
a e
emb ers
a id
ĠC ent
ro ss
aj or
Ġre ce
ĠD ec
ĠA ugust
Ġse ver
Ġr un
ĠW h
iz ed
y l
ĠC ity
ĠP ar
ĠM an
Ġ200 6
Ġs m
im es
S t
i ent
om en
ul ation
Ġd r
ĠG e
is c
om an
duc ed
f ess
ct ober
Ġre p
ĠS eptember
Ġe m
i or
Ġo pen
ĠB ro
Ġrele ased
a u
ual ly
C h
Ġf eat
Ġfam ily
l ed
pr il
iss ion
ov e
ĠN orth
overn ment
are d
ĠB ar
ĠJ une
ain ed
Ġg ame
v ed
ĠC al
ro p
ĠMar ch
ĠG u
Ġw on
Ġex t
he s
S ee
ag es
Ġl ong
Ġd if
i et
str uct
A merican
ĠC o
Ġdes ign
ĠBrit ish
ĠE d
ĠJu ly
Ġpol it
Ġv ar
e ed
os ed
r id
ĠB o
ward s
19 7
v en
Ġ1 4
Ġa ir
h am
ĠJan uary
re t
Ġret urn
ĠA ss
ist or
ĠAl l
ĠCan ad
ĠO ctober
r is
an c
cent ury
Ġ1 3
ampions hip
ĠD e
Ġcl ub
it al
an ge
Ġor gan
ĠI I
ar m
1 2
Ġde p
il t
on y
Ġst ate
ĠA pril
n er
a use
Ġsy stem
1 6
ap an
1 5
p le
ograph y
ĠG r
ĠK ing
in c
Ġto wn
Ġ '
Ġsever al
Ġan n
Ġcall ed
lev ision
Ġac c
am b
v ent
ĠE uro
Ġc areer
eb r
re en
Ġst ation
Ġ .
Ġl ife
ĠB e
a f
Ġorig inal
Ġs ame
on om
Ġcont in
Ġbir ths
Ġs uc
Ġm at
as k
Ġf inal
es e
Ġn ear
ren t
r ing
Ġo b
Ġfollow ing
ak ing
ĠSt ate
ĠW ill
f ul
st er
Ġpubl ic
Ġpro gram
Ġf in
il ity
ĠA m
y n
Ġear ly
Ġst art
al ity
ĠR ep
an ts
ain s
t he
l ing
oin t
Ġ âĢĶ
ĠDec ember
ib le
un g
Ġcomm un
ure d
ĠNov ember
Ġhe ad
O n
ial ly
Ġw ill
ĠU S
Ġb and
il it
ĠH igh
Ġp ass
e al
ĠThe y
Ġc ur
Ġm en
b o
Ġm in
an e
il le
Ġb el
ĠF l
or m
al es
Ġch ild
al ly
id ed
u ed
or ks
at s
b le
Ġn amed
at or
ĠR eg
Ġdis c
Ġthe se
ĠH ar
ĠA f
or ts
Ġs ince
ebr uary
Ġfilm s
f l
ĠR o
Ġt it
1 3
Ġp res
1 4
uc k
c k
Ġdes c
ĠT r
Ã ¡
Ġg ames
Ġestabl ished
Ġ19 2
Ġapp ear
Ġl ist
Ġm embers
Ġl and
ic es
Ġal ong
ac ed
ce pt
end ed
ac ks
ang u
is ed
ĠEng lish
i ence
Ġcomp le
ec hn
Ġan y
f ord
ĠCh rist
a ugh
Ġb ased
ĠM c
Ġsm all
iv al
et er
Ġc ity
ĠR ec
Ġ200 8
in o
ĠA fter
ĠE x
ect ion
ec ts
ĠEuro pe
Ġloc ated
Ġus e
Ġbe gan
ĠS w
ical ly
t o
Ġres p
ĠGe or
Ġo cc
Ġv ill
19 6
ĠJ apan
ren ch
Ġman ag
ore d
ord s
ff ic
ĠH is
ro w
u k
ĠA ir
ur g
in ess
ĠA nd
Ġs im
Ġv ers
Ġp rom
y le
Ġen g
ĠF ebruary
duct ion
ĠE ast
ard s
H e
ot e
igh ts
Ġd id
oun c
av ing
iv ision
m e
Ġb us
er g
od e
ain t
un icip
ĠCol lege
Ġsup port
Ġm ajor
re w
ec h
Ġe ach
our n
oun g
Ġcomp et
1 1
at a
ad em
Ġm ember
Ġspec ies
Ġh ome
Ġcent ury
ĠS e
a ul
Ġpl ace
Ġm et
ly mp
Ġl aw
ar n
Ġ200 5
ar ge
oci ation
Ġs et
l in
ĠG en
ĠC up
ond on
qu e
Ġpop ulation
Ġim p
s ide
ĠE l
r act
Ġsing le
Ġserv ed
it ions
ing ton
v iew
Ġd own
ĠP ark
our t
Ġn ational
id es
et y
Ġl ine
ac es
T h
Ġsuc cess
at ic
Ġn ow
os ition
che s
ĠCom p
Ġ201 0
Ġcomp any
Ġp erson
an a
Ġg overnment
Ġloc al
ubl ic
ear ch
Ġt erm
ĠA b
2 2
y p
Ġp o
Ġbu ilt
re et
Ġe ff
Ġhe ld
Ġ1 1
ĠR e
ad io
i en
A l
Ġ200 9
Ġl ast
ĠN o
Ġplay er
Ġpubl ished
Ġte levision
Ġ19 0
c o
ĠP art
Ġa round
Ġw orld
id d
ro l
Ġto ok
ĠM ed
m ed
ĠWill iam
Ġw e
Ġle g
Ġhe l
t t
âĢ Ļ
Ġ200 4
Ġc ould
ĠCh ar
ĠL ondon
Ġn orth
ĠH owever
at ure
Ġj oin
ra ft
Ġle ft
uth or
Ġc ar
ĠD av
in t
Ġo ld
Ġpro fess
v ers
ĠAf ric
ĠA ng
p ed
at ely
ĠE n
ĠĠ ĠĠ
ak es
Ġd ue
ilit ary
Ġ X
ĠD ist
ar a
o ks
Ġc r
th ough
ĠS y
ie f
Ġgen eral
ĠT e
Ġsh ort
Ġb orn
is on
ĠIt al
u f
ill ion
19 5
p s
Ġre st
ent ly
a us
Ġe p
Ġh istory
ac ter
l er
s c
Ġs ix
ĠS up
if orn
ĠH ouse
Ġed uc
un ct
Ġ201 1
om in
ric k
if ied
Ġev ent
ĠCh ampionship
ĠF rench
i od
al k
ide o
Ġc amp
um n
H istory
a im
Ġl arge
iforn ia
ĠR uss
ĠPh il
ĠC or
ex t
Ġd ied
d ay
ĠS ec
on es
c ast
Ġf ive
Ġp resent
t al
o x
ord ing
um mer
iv en
att le
art ment
Ġde b
ĠH er
Ġ200 0
Ġt ri
ect ed
um b
ĠS an
Ġinclud e
in k
r ation
iz ation
Ġs l
in ed
ounc il
19 4
Ġf r
v an
arri ed
Ġd ay
Ġw omen
c ol
Ġdif fer
ĠR iver
inn ing
Ġ ,
Ġbec ause
Ġ2 5
ĠEng land
ĠL a
s k
Ġ18 9
re g
od y
Ġor der
ĠD r
Ġdesc rib
Ġ3 0
ĠG l
Ġrece ived
ĠCal ifornia
angu age
op h
Ġinclud ed
Ġapp ro
Ġd et
er ing
Ġs outh
Ġre f
al d
Ġwith in
ur s
Ġcons id
ĠInd ian
z e
le g
Ġa v
U n
om b
Ġre qu
Ġs k
um ent
ee k
ur ther
ri end
. ,
Ġth ird
l ine
Ġs on
ĠM ich
Ġm ark
Ġp ower
t ain
ĠM e
ĠR es
Ġ200 3
en e
Ġl o
her n
it ar
ĠAustral ia
land s
Ġal low
iv ely
Ġvill age
Ġst and
Ġj ust
Ġre pl
Ġbuild ing
Ġl arg
it er
Ġbo ok
st e
et her
Ġw ar
l o
Ã ³
ĠThe re
Ġdist rict
v ious
Ġres ult
al t
Ġe ast
v es
Ġw ater
ĠIn ternational
Ġto p
ĠAr t
Ġl a
Ġan other
n a
Ġcur rent
ĠA c
Ġs aid
os p
Ġ201 2
ĠO lymp
Ġst ill
Ġm ale
f ield
Ġ200 2
Ã ¼
Ġw est
Ġchild ren
Ġf ore
o on
Ġper form
op s
2 3
feren ce
Ġpro t
our s
al th
Ġserv ice
he m
Ã Ń
Ġadd ition
Ġ200 1
Ġ $
ĠD ep
Ġst at
ort hern
ĠA ct
as es
ĠS ch
Ġd em
Ġ very
Ġdiffer ent
Ġk ill
um an
Ġf ac
Ġper iod
are n
19 3
Ġmov ed
Ġcre ated
Ġl ike
Ġp ost
a ff
Ġre fer
ad y
oc ial
re st
A n
Ġrep resent
Ġf ield
ĠDist rict
Ġn ov
ĠA g
c er
ĠG ro
d om
Ġn on
Ġis s
ĠP er
Ġm unicip
Ġh ouse
oy al
Ġad m
ic o
u el
ĠM on
al f
in ing
Ġtr ad
a el
av y
Ġs old
P eople
Ġw eb
Ġre port
Ġh and
Ġcol lect
c hed
Ġchar acter
er a
Ġc or
use um
Ġv is
Ġbe st
Ġsh ip
ĠP res
Ġn e
en cy
Ġbus iness
Ġ if
Ġbe g
ĠA ward
Ġvers ion
Ġw in
Ġdeath s
Ġ2 4
am a
Ġestabl ish
m s
i us
Ġs ide
Ġo pp
u it
Ġof ten
Ġinc re
ĠCh urch
A r
he l
Ġa uthor
en se
ec ut
Ġar ch
r ight
ug g
Ġcon struct
Ġe qu
ast er
ĠAr my
ir l
Ġl ed
oci ety
Ġcount ry
Ġ18 8
ol ic
Ġt urn
us h
Ġ 0
Ġth ough
Ġtit le
ep end
and er
rib ut
ĠR ed
n ess
Ġpro duced
w ork
Ġf ather
Ġp at
Ġ201 3
Ġc over
g round
ot es
s ite
Ġl ate
ĠS m
i ber
iv il
ag o
ĠCanad a
ĠSt reet
ol l
ĠA mer
ap p
Ġd el
Ġs ite
o f
v ille
n ey
Ġwrit ten
Ġm ag
Ġst yle
Ġb re
iz e
L iving
5 0
ther n
Ġex per
or ies
Ġ el
s hip
ac y
Ġev en
Ġh istor
Ġle vel
Ġc rit
il ar
ri pt
Ġs ett
Ġstud ents
Ġact iv
le x
ou thern
Ġin ternational
Ġ201 4
Ġa ff
es p
Ġch ang
Ġc ame
Ġp ort
pl oy
Ġ ec
Ġv oc
re m
Ġth ose
rid ge
Ġ18 6
Ġam ong
ad u
Ġp oss
Ġc ult
ĠE m
ĠR oman
Ġm ake
o le
Ġal ign
ri es
ĠPart y
Ġw ent
form ation
ĠQ u
Ġpre vious
Ġs w
Ġinv ol
ap e
Ġcomm on
o ff
Ġep is
Ġalbum s
im ent
Ġy oung
ĠH ol
ĠB el
ip p
d e
ĠP ort
ir c
Ġro le
Ġt echn
ĠOn e
es c
ĠRo ad
Ġeng ine
ĠR ober
her s
ĠM or
ĠL ou
Ġra il
Ġ âĢ
ist er
for man
n ing
Ġm uch
Ġv ol
ĠV al
Ġf act
ĠAss ociation
ĠTh om
por ts
ad es
ĠP aul
ol ution
st on
Ġa ge
ĠN or
C om
an ish
ell ow
Ġex pl
Ġ199 9
Ġ2 3
Ġ2 1
oun ced
ourn al
Ġa ward
ĠGeor ge
B C
t i
Ġv al
ĠFran ce
om et
Ġim port
ĠJ ames
w est
' t
ĠInd ia
Ġoffic ial
Ġcommun ity
ĠRec ords
Ġg iven
ĠT own
Ġwh at
Ġro ad
b or
ĠAmer ica
ĠR ich
itt le
Ġt w
ĠB ra
Ġre n
ĠQ ue
ot s
ĠP al
it or
Ġw orks
Ġcon c
b ack
ĠD ivision
Ġbec ome
Ġ201 5
Ġopen ed
Ġ2 2
ree k
Ġb r
Ġstart ed
Ġ199 0
s elf
ac hed
id a
Ġf re
ĠH all
re am
ĠAustral ian
ict ion
Ġ18 7
Ġsong s
Ġreturn ed
m ing
ĠB y
Ã ¶
Ġint ro
Ġro und
ĠDav id
ab or
Ġvar ious
am ent
ber t
Ġdeb ut
ur b
Ġco ach
b b
iv id
Ġto tal
m en
Ġ201 6
e an
Ġs it
Ġh aving
Ġin it
Ġt em
Ġn ext
stit ute
ĠGerman y
Ġdescrib ed
ĠM al
Ġstr uct
Ġpop ular
Ġf ew
Ġspec ial
Ġ =
h a
Ġh ost
at ors
A s
ic les
Ġv ideo
Ġpr im
at ri
Ġm illion
Ġdevelop ment
Ġpro cess
ĠM y
og n
ir on
Ġst ar
i j
Ġad v
Ġre ad
ĠCl ub
Ġ199 8
ash ington
ask et
Ġpro duction
P l
ro te
er ation
h an
Ġe very
umn i
Ġgu itar
Ġpro p
ĠR ev
Ġt ake
ĠC ouncil
Ġus ing
Ġbro ad
col or
i ol
ĠGen eral
ak en
g in
Ġprofess ional
Ġcl aim
Ġ2 6
Ġt imes
o or
Ġh owever
it z
Ġschool s
ent ion
A fter
ber g
ra w
Ġpolit ic
an ces
Ġw ay
idd le
oin ted
g y
ase ball
e h
Ġ et
ĠV ir
un t
Ġm ilitary
Ġs ent
oc r
ĠUn ion
Ġp ri
olog ical
Ġg reat
e ared
ar i
r ack
Ġjoin ed
m a
Ġ2 8
Ġ2 7
Ġm arried
inist er
Ġst ory
ĠEurope an
ar ly
wo od
il es
ĠSt ud
ill s
ĠR oyal
Ġ198 0
est s
Ġch urch
ĠC ath
op e
Ġcon f
y a
Ġre d
ic le
Ġf ull
se qu
ĠW hen
Ġt er
l i
Ġare as
our ces
at ch
a ur
Ġsim ilar
ar ch
Ġann ounced
ra in
at ural
Ġf em
Ġh ig
Ġp osition
Ġs ol
Ġ [
ib r
Ġreg ion
ĠF ootball
ĠD uring
le ment
Ġp e
ĠS en
Ġbe h
al ign
in ation
u ff
P ro
n ow
Ġ201 7
ĠM ary
i ers
ĠM usic
3 0
ĠComp any
Ġg l
Ġle ague
Ġrecord ed
ĠM art
ri an
I t
Ġpr act
Ġbro ther
an ies
ĠKing dom
b urg
Ġf riend
ĠBl ack
Ġweb site
Ġper forman
asket ball
Ġn eed
ĠP ress
ivid ual
on a
y ear
cent er
ĠT ex
re land
stit ut
Ġpolit ical
Ġse e
Ġcom b
er b
Ġcon n
ĠM ag
g r
ĠCanad ian
Ġwork ed
ĠThe se
ĠJ os
Ġ199 6
at ter
Ġm ult
ell s
l ess
ĠW ashington
augh ter
Ġ201 8
Ġwith out
ĠL aw
fl u
ain ing
Ġh on
Ġatt em
y pe
Ġcontin ued
w h
Ġ199 7
Ġpro duc
Ġw rote
ĠB er
ĠAr ch
ish ing
u ce
Ġin f
n el
Ġ Ã
Ġl im
Ġd est
Ġcont rol
Ġelect ion
ĠGro up
ĠC ourt
Ġf ind
ar l
r ay
u le
ĠM o
ĠPres ident
amp le
Ġgroup s
Ġl ost
C A
ĠH en
ul ts
Ġm id
ap er
Ġapp eared
Ġr ight
ĠAng el
ĠM ont
r d
oin ts
Ġdirect or
ic ular
Ġconsid ered
Ġh alf
way s
ĠR ail
Ġp oint
ĠIs land
Ġb as
Ġtr ack
Ġatt ack
ab it
Ġ197 0
ag ed
Ġsign ed
end ing
Ġm iss
ĠAc adem
ĠD on
Ġst ations
ra b
g es
et work
ĠDep artment
ĠL ist
y m
Ġro ck
Ġfound ed
h ib
ĠT V
is ing
2 5
u z
ec k
Ġpro ject
ĠB ay
Ġ1 00
v al
Ġteam s
Ġd ays
Ġ20 19
x t
b r
Ġeduc ation
Ġ ident
m ar
e el
Ġr adio
Ġ2 9
Ġpres ident
Ġind ust
ĠP ri
est ed
ap t
| |
ol it
th let
c raft
Ġin s
as ons
ro y
ĠM ad
Ġmat ch
us ed
Ġcomple ted
ĠF irst
Ġnov el
ĠM ount
ĠD em
ĠT ur
ĠS al
qu ad
ĠJapan ese
ĠS erv
ĠS ociety
ĠCent er
ĠG reen
il i
C l
F ilm
Ġv ict
ĠM iss
Ġev ents
ĠS k
Ġsp orts
e es
Ġre al
ĠW ith
ĠY ou
ĠRober t
ĠS l
ĠLou is
Ġl ive
g color
it her
Ġc aus
cc ording
ĠG reat
ail ed
ĠM ex
us ical
ĠC he
Ġc ross
ĠTex as
r ish
Ġsur v
Ġplay ing
ock ey
) :
Ġpro per
Ġt en
od es
a ign
est ival
Ġw ife
ĠJ ew
ens ive
ĠFran c
ĠC ong
Ġ199 5
lect ed
Ġof fer
Ġh old
Ġf urther
Ġd iv
Ġd i
ĠItal ian
Ġpr iv
Ġfootball ers
ĠS ing
.. .
ĠSc ott
ĠThom as
iam ent
Ġserv ices
ĠPro v
ra p
Ġpart icip
in i
Ġt yp
Ġelect ed
at re
Ġform ed
ĠB est
Ġal umni
Ġ199 4
onom y
Ġbl ack
en c
um e
and ed
Ġhel p
ĠW e
Ġav ail
âĢ Ŀ
ro ll
ĠCath olic
Ġm y
Ġgro und
ab ly
ĠVir gin
id ence
Ġb gcolor
it ect
ĠCh ina
2 4
Ġ /
ĠS am
he ast
l ic
ĠV ol
ĠY ear
em ents
Ġass ist
ac ing
ep h
Ġdevelop ed
all s
l or
an i
Ġhim self
le ar
Ġ20 20
ou l
Ġg ood
Ġ199 2
ep ar
Ġdo es
m ost
ĠC r
ĠFl or
e le
re y
ol f
Ġm ar
ĠWest ern
Ġa ver
ot a
um p
Ġimport ant
k a
Ġadm inist
Ġar r
and ing
ĠMich ael
ict or
ĠI reland
Ġl ess
ĠGr and
Ġrel ations
o o
Ġtrad ition
b our
p ro
Ġb ody
Ġind ividual
ĠOlymp ics
t ime
y d
Ġm aking
ĠC ap
Ġrele ase
E ng
Ġmed al
ud d
Ġl ow
Ġapp ointed
Ġc ast
S p
az ine
Ġn ever
Ġt ro
Ġ z
ish op
itt ee
Ġa ut
ĠS im
Ġgro w
it ted
ers hip
m on
Ġw eek
ad a
Ġv iew
ĠG old
it ch
Ġmunicip ality
at ives
ĠM ac
ak er
Ġcon d
Ġl anguage
y ing
Ġbec om
ul a
ĠComm un
ot ed
u ation
l iament
un k
S h
ert ain
Ġinv est
g ed
Ġme et
ĠChrist ian
he re
ĠCent ral
ific ation
Ġc ase
Ġsh ould
ĠU K
N ew
Ġ( )
Ġrec ogn
an o
ĠChar les
Ġm ot
Ġem ploy
ed eral
Ġvoc als
Ġin flu
ĠP enn
ecut ive
Ġother s
ĠCar ol
ĠM et
Ġan im
Ġres earch
Ġp oints
ĠT rans
Ġpart icular
4 0
Ġf ire
ĠZ eal
ĠT om
ar ies
Ġre v
Ġh ous
ĠW il
Ġd oc
ĠAcadem y
Ġs epar
epend ent
ĠAfric a
ĠT ra
pl ay
ĠB en
Ġdirect ed
Ġpro duct
ĠG ames
Ġto g
Ġs ocial
ĠP at
Ġestablish ments
ĠZeal and
Ġm ater
im ately
Ġex ist
ĠB ill
ic ago
Ġcomp anies
is l
av es
ar ter
Ġm other
ĠA lex
and s
s y
Ġtog ether
ines e
unct ion
ĠM ark
Ġ196 0
id ing
ist ic
b e
g o
o ice
Ġavail able
Ġ199 3
ant ed
ĠM er
Ġal though
Ġh uman
ed y
g er
Ġr ul
ĠM useum
ĠT or
Ġcont ract
il ities
if f
Ġ5 0
ĠN e
Ġmod ern
u x
al a
ĠAfric an
Ġbel ie
ste ad
ĠC ont
Ġac ross
ut es
Ġ #
ce ed
v iron
Ġcol l
he ad
Ġwork ing
J o
Ġeff ect
Ġf ree
it ive
, "
Ġgr adu
Ġgo al
oy s
Ġoff ice
ĠIn stitute
Ġon ce
ĠC ro
Ġ199 1
el t
Ġph ot
ad o
ar ian
h ood
ĠT er
Ġb i
ra el
ud e
on n
Ġinclud es
Ġa way
Ġd aughter
Ġsuccess ful
i que
ĠIn ter
ĠF rom
ĠFran k
id ae
it ing
osp ital
Ġbo oks
Ġre view
en a
re l
u ild
ign ed
ac hes
Ġoriginal ly
sh ire
c le
at ory
Ġex ample
ĠC amp
Ġb ar
ffic ial
e ep
lect ion
Ġac qu
Ġepis ode
Ġconstruct ion
Ġe ight
g ress
Ġf und
ĠT o
ĠM el
F L
ĠL ake
Ġbroad cast
Ġstr ong
Ġperform ed
Ġt aken
id s
em or
ĠP eter
eth od
Ġr ace
Ġreport ed
ough t
Ġin formation
h i
am ily
ur a
Ġl ight
Ġ18 5
Ġc our
ĠâĢ ľ
ĠF ilm
Th is
ĠP et
ĠI ll
w rit
ri a
2 7
Ġin st
Ġla un
ĠRep ublic
Ġph ys
as c
duc ation
ĠRuss ian
ĠR ock
ec e
S c
W h
2 6
Ġmon ths
Ġl ab
Å į
j ects
ĠFlor ida
Ġd er
Ġde g
ant a
ĠSm ith
ĠD ay
a ut
z il
ran ch
Ġfollow ed
ĠS ummer
Ġs ound
Ġsc ored
ĠH ill
Ã ¤
ell ing
ibr ary
Ġsp e
Ġ20 21
2 8
ĠH istor
ch ie
ĠH am
ĠWh ite
O r
ol k
air s
o res
ĠRich ard
Ġkill ed
Ġ3 1
Ġm ix
200 6
Ġpart y
t ar
Ġh ow
ĠD an
id ents
Ġde v
Ġreg ular
ĠC ast
av al
ĠV ictor
T V
Ġaver age
Ġass oci
ĠR ob
ut ch
ĠL os
Ġm ust
ĠL eg
Ġfin ished
r or
Ġp ut
Ġac cess
Ġbuild ings
Ġf ight
Ġfeat ures
Ġwh ite
ent ial
Ġrel ig
I I
Ġcon duct
yl van
F or
ig an
Ġst ri
A t
Ġcamp aign
ap s
Ġthrough out
Ġ4 0
ĠF ore
Ġshow s
em s
ol a
ĠGeor g
Ġto ur
Ġfeat ured
ate g
Ġse ven
er ous
200 7
ĠPl ay
Ġcap t
at in
r ated
G e
ach ing
ro ad
ov iet
ĠFor ce
i ation
ut er
Ġattem pt
ĠSp anish
Ġmark et
Ġc ost
Ġ198 9
ann el
Ġair craft
om s
ĠCh icago
Ġse en
Ġr ange
Ġl iter
ĠBro wn
Ġt re
viron ment
c her
ĠVirgin ia
200 0
Ġrem ained
nd er
he st
g en
i os
ect or
mer c
Ġmater ial
Ġevent ually
ĠI m
ĠP e
Ġ198 8
act ers
Ġag re
2 9
ver t
Ġimp ro
ific ant
augh t
ylvan ia
Ġw inn
Ġin j
Ġtra ining
ĠH istory
Ġm ount
ĠB ut
Ġc irc
k n
ĠC ons
Ġg ave
inc ip
Ġv iol
Ġperforman ce
ĠOr der
Ġst age
Ġent ire
ad ium
ĠO h
s erv
in ct
Ġlarg est
om a
m b
Ġintro duced
ĠW in
Ġs il
ĠG o
atri ate
ow s
ĠSc ot
Ġl oss
ĠHen ry
ĠK n
Ġpl an
ug by
overn or
Ġd am
Ġpl ant
i ro
Ġ ide
F A
Ġ( "
ĠD o
ĠG od
Ġtrans fer
Ġrepl aced
Ġch ampionship
L ist
Ġbir th
Ġ :
ĠI ts
o ch
ĠSec ond
Ġk ey
ĠM ass
19 0
Eng lish
Ġab ove
un s
Ġfr ont
Ġt est
ĠA pp
ĠSup er
R ec
y r
Ġp ast
ĠK ore
Ġ ill
Ġg old
n ote
ĠS aint
Ġf oc
Ġfor ces
Ġcons ist
Ġ198 7
ĠAngel es
it es
Ġdesign ed
ĠD irect
Ġpro ble
N otes
an ks
Ġy ou
Ġc ourt
Ġfore st
k m
Ġn atural
Ġp ress
un n
ĠCh inese
Ġd ou
ĠB ur
uf act
Ġlead ing
ĠM inister
ord er
Ġsub sequ
Ġcol lege
Ġsign ificant
ĠAt l
S A
Ġb asketball
Ġbo ard
ell a
. )
Ġcomp os
Ġf low
p eople
Ġd ram
Ġpolitic ian
ĠD es
Ġ ĠĊ
Ġ20 22
Ġus ually
Ġc ivil
Ġinvol ved
Ġe ither
Ġsing er
s ylvania
Ġw id
im ate
Ġmod el
Ġ18 4
Ġs en
Ġtrans l
Ġart ists
Ġ198 6
ĠM r
Ġ198 4
ian o
ist an
i Ä
Ġj ud
z a
Ġan al
Ġr ank
ĠCong ress
Ġro ute
w are
ĠF r
I nd
our ce
en ed
Ġp aint
Ġs ugg
Ġs em
at al
Ġj ournal
" )
6 0
Ġab le
E arly
ĠD el
ut ure
Ġh om
Ġaward ed
ic y
Ġpriv ate
ĠSw ed
Ġen c
ĠM il
Ġg et
Ġp os
ĠIs rael
Ġstud y
med i
ĠL ove
ĠN avy
ĠW ales
ers ey
it a
ag on
ens us
onom ic
ur ity
Ġp ark
if t
Ġs er
ĠPar is
Ġcl ose
ar th
as ing
g ent
w ell
Ġcl os
v ing
Ġwrit er
ul ated
ĠE mp
id ge
m in
Ġresp ons
Ġadd ed
Ġa ud
ĠDem ocr
Ġarch itect
Ġcon v
ĠG re
end er
erv e
ĠJ ust
Ġv ia
Ġwrit ers
Ġt reat
ĠSt ev
ĠR h
Ġcurrent ly
Ġ er
Ġhe alth
ĠItal y
merc ial
inal s
ĠM us
Ġ198 5
ri al
am s
eng th
Ġn ight
Ġfem ale
Ġne igh
ist ics
Ġcent ral
Ġup on
k ed
is es
Ġrun s
ic ated
rough t
e ated
Ġchar acters
Ã³ n
l a
Ġst aff
A R
ĠO ld
Ġ195 0
Ġs aw
i res
Ġre ached
Ġch ange
ian a
Ġto urn
ĠPenn sylvania
ent h
ĠM a
ant ic
re ad
um m
rib ution
f ace
Ġh it
por ary
s el
ĠAn n
er ry
Ġr ights
ok e
Ġse asons
Ġgo als
Ġc y
f ic
Ġtra vel
or ing
18 9
h old
u ke
Ġpol ice
ĠComm ission
ong s
Ġ198 3
ino is
ĠWh ile
ar ily
Ġle ast
ĠMex ico
Ġle arn
Ġr iver
A d
ay ing
Ġs outhern
ript ion
ĠAr ts
Ġact ress
Ġc op
Ġprov ided
l am
b ur
Ġmanag er
az z
Ġp ur
ĠS ir
bo ard
kn own
k i
Ġw ood
ĠOh io
Ġqu al
ĠE r
ĠCarol ina
ĠP re
ab ility
F F
D e
Ġmed ia
st ra
ĠO ff
Ġme an
d en
Ġrail way
ĠS ome
Ġf ig
Ġdisc over
Ġfour th
8 0
l im
Ġchang ed
p ar
ĠM ur
p ly
Ġs ch
ĠN orthern
Ġn orthern
Ġac com
d s
Ġsing les
ĠI rish
ct or
Ġa p
ĠCl ass
Ġ198 2
Ġcount ries
ĠSt ar
Ġd ata
Ġpar ts
Ġcent er
se e
ĠP ublic
N A
ĠCol umb
omet imes
b and
B A
ĠM ill
Ġpl aced
L e
h ire
Ġinter est
Ġdoc ument
ĠS oviet
Ġw inning
u a
Ġ197 9
r ad
ov ers
Ġt ype
Ã ¨
Ġpo et
) ;
Ġm usical
P h
at o
Ġcl osed
ult ural
st ant
Ġs ection
ĠBra zil
ĠP an
w w
Ġcompet ition
Ġa chie
Ġres ults
isc o
Ġocc ur
Ġre b
ĠTur k
Ġm ur
Ġc he
et te
Ġw ind
Ġocc up
Ġf av
Ġdest roy
ĠPar liament
p ts
ĠK h
ĠA v
ien ces
Ġst ates
or se
Ġl ower
at i
ĠE c
ĠJ im
il s
r up
ĠC D
Ġg irl
Ġproduc er
Ġact ion
re me
Ġdec ided
Ġsy n
c a
Ġse x
end s
ĠW ood
or a
Ġart ist
Ġun its
ĠF estival
A m
out e
ĠO per
Ġf arm
sy ch
Ġp urch
ĠServ ice
3 5
i qu
u an
ult ure
ĠH on
k y
G en
Ġ198 1
i ents
ven ue
ĠIll inois
ĠT wo
Ġexp ress
ĠE v
ut t
Ġ197 6
er o
rick et
200 5
Ġwh ose
ĠO l
Ġ197 2
Ġf all
Ġin stead
ill a
Ġkn ow
pt ion
Ġ esc
ĠO ther
n ed
ĠS il
B l
The re
Ġp ot
aw a
l ike
Ġcrit ic
us p
ur t
Ġf ar
Ġpl aces
Ġatt ended
Ġme as
Ġp aren
Jo hn
D uring
M ar
Ġresp ect
Ġde al
Ġco ast
and id
y e
Ġprevious ly
Ġb ass
Ġoper ations
Ġman ufact
ĠS ur
b l
ĠD en
Ġout side
Ġd ivision
Ġn etwork
ĠF ort
T ax
Ġt ax
Ġ Â
stit ution
Film s
Ġprov ide
Ġprim ary
Ġb rought
ĠJos eph
Ġsp ace
P erson
Ġact or
emb ly
ollow ing
Ġ197 4
Ġ197 8
Ġappro x
Ġp red
un ior
ĠChampionship s
Ġown ed
Ġf if
Ġal most
Ġstud io
Ġr ather
Ġk ing
Ġfre qu
ĠJ ack
ĠM od
Ġm ethod
Ġrelations hip
w ith
id er
ĠT echn
l ier
b ased
ĠVal ley
ro s
Ġac cept
Ġm ass
ens ion
ĠR adio
Ġcont ribut
ut y
Ġpl ann
ĠSc ience
F C
ing u
ĠR os
C ol
ĠSt r
ĠT our
Ġst ated
ĠL and
ult y
ĠH aw
Ġis land
or por
erg y
ĠP o
Ġgr and
Ġact ive
Ġlist ed
Ġp ain
ĠSp ain
um s
ĠO ut
Ġre ve
Ġb ank
ĠF ound
ro wn
ĠJ ersey
im b
ĠA ccording
um ents
ĠS eries
Ġmag azine
Ġb all
Ġed ition
Ġdef eated
em ic
Ġh ard
ĠT imes
Ġmin or
Ġbeh ind
m ond
Ġc reat
Ġorgan iz
ec ially
w er
Ġbeg inning
Ġmult ip
e ff
g l
in ent
Ġe ver
ĠH ot
ĠSp ec
Ġ esp
i ography
Ġan t
ell ed
Ġc ou
ĠA rab
ĠP ac
Ġpre m
200 4
ĠComm ittee
Ġp ers
Ġend ed
ĠG ar
le ft
Ġst op
Ġim m
ĠĠĠĠ ĠĠĠĠ
Ġc red
ĠEmp ire
Ġ197 7
Ġdeg ree
Ġ197 5
ĠB ob
ĠB attle
Ġl ik
Ġdef eat
Ġfor ce
7 0
ĠH ow
ĠM os
ig g
Ġs ummer
ĠMart in
Ġsystem s
iÄ ĩ
a o
ĠU p
cl us
Ġpr ison
ly ing
Ġar g
amp ion
Ġc are
all ed
ĠL ine
Ġter rit
Ġits elf
c ient
Ġ196 8
Ġart icles
ĠM in
Ġtrans port
ch ange
Ġcult ure
le ments
ĠProv ince
ĠT ro
ans as
Ġl iving
ost on
Ġb attle
Ġth reat
C an
ĠL iber
Ġcollect ion
ĠG overnment
Ġn omin
Ġposs ible
ĠA wards
" |
al c
Ġn ames
b ury
Ġallow ed
Ġbo x
Ġorgan ization
Ġnew sp
Ġso on
Ġ197 3
ĠS er
ad el
ĠB us
O ther
Ġass ociation
A ll
Ġb en
ĠY oung
Ġcap ital
Ġb ase
Ġsp ent
st ate
ĠL ife
ret ary
Ġlead er
C areer
Ġread ing
ĠS ub
Ġv eh
ĠK ent
C on
ĠE ducation
Ġwh om
al ities
iet y
is ions
o ir
Ġreg ard
oun ter
Ġcomp let
Ġb ur
Ġsc ience
Ġ197 1
Ġf e
w an
ĠG ra
ĠC ross
ĠD ev
Ġ196 9
Ġ194 5
ĠL ong
m ark
Ġpr incip
Ġcom mercial
pp ed
N E
Ġmov ement
Ġind ependent
ĠD ou
Ġl ittle
Ġcont ains
Ġn eg
ĠD i
Ġh abit
Ġf ood
ĠG reek
Ġindust ry
Ġc ele
Ġappear ance
Ġr an
Ġtourn ament
Ġstruct ure
Ġsh ot
Ä ģ
ĠS a
ĠBo ard
Ġe lev
C C
Ġaddition al
Ġac adem
uf fer
ĠS outhern
ec ess
ĠRail way
Ġ18 3
w in
Ġhig her
Ġto o
anc ial
ĠD ef
it iz
Ġan ti
Ġbre ak
ĠCar l
ĠM ost
Ġex cept
ĠRuss ia
Ġwrit ing
ĠNew s
ĠF in
Ġsc ore
bur gh
ĠII I
ĠF re
ĠIn c
ĠG all
c el
Ġsup er
os ing
ĠF red
Ġloc ation
Ġrem ov
T e
ĠScot land
or g
and a
Ġcomple x
Ġc andid
Ġstud ent
in ary
Ġsc ient
et ts
it ors
ad d
Ġl ength
Ġd u
Ġun it
al ed
Ġlo ok
o ok
Ġm ission
ig er
Ġvict ory
200 3
ĠH a
Ġsch ol
Ġinvest ig
ubl ican
Ġs ometimes
Ġd raw
Ġme ans
ic ro
ig inal
Ġn ar
d own
Ġconc ern
Ġoper ated
Ġrun ning
ut s
ĠM ain
ĠB ow
Ġex hib
ĠH el
Ġob serv
Ġ196 7
Ġk eep
Ġh ockey
ĠA p
Ġsur round
en ced
Ġret ired
Ġf uture
ĠO x
Ġcom e
Ġt aking
o id
i i
Ġpract ice
b ot
ĠC ivil
ir m
Ġgen er
erv ation
ĠAl b
Ġesp ecially
Ġto wards
n y
Ġin sp
ul ations
ard en
4 5
Ġp it
ĠAl though
Ġwest ern
ĠThe atre
o e
k ins
Ġclub s
9 0
Ġb aseball
ĠJ ud
Ġtradition al
ĠBro ad
Ġd en
re ady
h ouse
Ġm er
Ġs elf
ri ef
Ġsc reen
ĠMich igan
Ġqu est
R A
ak a
ĠW eb
ĠRep resent
Ġcomm ission
ĠT ri
quad ron
ĠJ ones
ig ital
ĠB ul
ĠBrit ain
ech an
al le
Ġrel ated
Ġacc ording
y an
ĠA re
ĠO f
Ġhig hest
ĠO ver
200 2
Ġth us
Ġrequ ired
ĠCon n
ad or
Ġcent re
Ġapprox imately
or al
ig a
Ġmov e
b on
Ġopen ing
Ġar ran
qu are
r ative
Ġ196 4
ĠB ig
ĠL ee
t rack
al i
im a
op er
ĠB re
Ġp ay
Ġ196 6
Ġdet erm
Ġle t
un c
200 8
Ġdis p
Ġus es
ar ia
om m
in ated
ĠJew ish
ib ility
Ġmon ey
ĠEng ine
Ġear lier
k en
Ġprogram s
Ġso ft
ĠSt ep
ach us
ac her
ĠL ord
Ġtra in
en ces
ĠBo ok
Ġw oman
Ġl ived
Ġar my
Ġ194 0
ĠPro fess
Ġtr acks
at ers
Ġm ention
as y
Ġfootball er
ĠCh ief
S e
k ing
Ġgeneral ly
et ic
Ġappear ances
Ġprom ot
Ġmat ches
ĠC am
rop ical
ĠFranc isco
18 8
A ust
ry ing
Ġs usp
Ġequ ip
Ġpro f
Å ¡
Ġact ors
Ġstand ard
ĠGeorg ia
i h
at form
Ġs uffer
ir a
Ġiss ues
ĠB ank
ĠTh at
Ġg e
Ġch ief
ĠBl ue
Ġph il
air man
st anding
ĠS o
Ġc ertain
t a
arri age
Ġl ove
Ġnum erous
em porary
ĠS ar
u is
act ion
ĠS ol
Ġstud ies
ĠM iddle
il ed
Ġd ate
Ġpri or
ĠIn f
ar ing
ĠM inn
ĠM P
ĠR oute
Ġstat us
ĠD utch
Ġmur der
Ġmost ly
Ġactiv ities
oc cer
ĠP rem
velop ment
Ġappear s
Ġfam ous
200 1
Ġ196 5
Ġnew s
l anguage
ĠEd ward
Ġad op
Ġind ic
Ġatt ract
is her
Ġ Ð
k o
ect ions
Ġs at
ant ry
ul f
v a
ĠC ard
p ing
Ġs ize
Ġk m
ear s
Ġr ad
ĠIn t
Ġnot ed
A S
Ġbecom ing
Ġ193 0
ir it
Ġen vironment
Ġoffic er
ĠMc C
Ġp en
Ġmon th
i as
Ġqu arter
ail s
Ġassoci ated
ĠC amb
Ġs af
ĠTe am
Ġed itor
um ber
Ġocc as
ĠJ ul
ol s
ir t
Ġd on
ee ks
Ġdif fic
achus etts
Ġcour se
.. ..
Ġte xt
Ġinter view
Ġt rib
ĠS un
att al
Ġmanag ement
Ġsen ior
M ed
if y
ĠSy stem
B rit
ĠScott ish
Ġlaun ched
Ġrecord ing
am m
emor ial
Ġcomple te
Ġin str
Ġtr ade
Ġship s
art ers
Ġal ready
Ġp i
Ġe mer
ĠB oston
ĠW omen
he t
Ġrepresent ed
ip l
il a
Ġrem ains
Ã §
Ġab s
Ġproper ty
ĠT im
Ġ ens
enn is
ĠG irl
ĠSt ation
ĠN ot
ĠA venue
ĠM ah
Ġfeat ure
Ġlim ited
Ġserv ing
7 5
ad ed
ĠO k
vent ion
ĠM att
Ġchang es
ĠQue en
Ġrelig ious
M en
ad ing
w ar
Ġd om
ĠG ood
adel ph
3 3
em et
ĠS ince
Ġin stitut
20 10
ĠTown ship
il ly
r ich
ĠW ild
Ġcaus ed
Ġr ate
Ġ6 0
ĠM ot
ĠB as
Ġse lected
Ġcomm and
Ġs ister
ĠP ak
Ġt akes
ĠL ittle
m un
Ġpro b
ian t
f ect
Ġar m
Ġplay s
Ġc ust
ĠPol ice
ĠPac ific
Ġw ide
Ġj ob
a res
ĠM at
Ġpur p
Ġsub ject
ab b
Un ited
ĠAd m
Ġpro d
Ġ194 4
ĠColumb ia
Ġapp lic
ĠCo ast
Ġim medi
e en
Ġn ine
ĠWilliam s
Ġh um
un a
Ġterm s
Ġrecord s
ĠC reek
Ġfoc us
ĠAs ia
Ġdec l
Ġh ot
S ports
ĠT w
it ation
adelph ia
et ro
Ġthough t
Ġiss ue
Ġincre ased
Ġd ra
Ġal tern
Ġbet ter
Ġann ual
ph y
ĠG al
ed s
Com p
ĠPort ug
ĠRes earch
Ġbel ow
ĠH ung
ĠL ibrary
n am
ĠAr gent
ĠEast ern
m m
199 0
Ġf ederal
Ġcount y
Ġeast ern
ĠPr ince
u j
Ġdis e
Ġmajor ity
ĠMass achusetts
Ġc ases
acks on
ste in
Ġstruct ures
is k
ĠPhil ipp
Ġent ered
ĠT ime
ay a
Ġor d
ĠM ajor
ag n
ĠThe ir
che n
Ġlin es
t ained
urb an
i y
ut en
ic ation
Ġin h
ect ive
Ġinit ially
ĠCon ference
ĠM id
Ġsh own
Ġun ion
Ġleg al
Ġle aving
ĠD ie
Ġv en
le vel
w a
S he
ĠBar on
Ġfor ced
Ġdec ision
Ġs om
out heast
200 9
ĠE lect
Ġd ed
ug e
esp ite
Ġexp atriate
ran ts
el a
Ġ19 20
ĠL uc
ĠU nder
Ã ±
Ġl ic
ĠW al
M usic
Ġg ive
ĠL ab
Ġgen us
on se
ĠE ll
is ation
Ġlong er
Ġex c
Ġ196 3
ad r
Ġg ra
ail y
Ġun iversity
ĠW ay
Ġb ridge
ĠM en
Brit ish
Ġcom edy
ĠJ r
Ġp il
Ġ20 23
ob al
p ress
ĠO fficial
in et
ĠSt an
Ġtown s
n es
199 9
Ġ ice
ont o
ĠS at
N ational
Ġperson nel
I S
ir ing
ay er
/ /
che ster
Ġperson al
Ġl ack
ro g
ĠDirect or
Ġc le
Ġcol on
Ġs u
ĠD ar
in em
er em
r im
Ġoffic ers
ĠCent re
Ġse qu
ian ce
ic ks
Ġsp eed
ĠOx ford
ill ed
ĠHistor ic
Ġgo ing
Ġrem ain
Ġf le
ĠV er
Ġdram a
Ġ3 5
ĠW ind
ĠN ight
Ġto day
Ġpass ed
Ġhistor ical
Ġm erg
Ġ196 2
ys is
ort un
Ġmultip le
d is
t own
Ch ar
T rans
b re
ĠS ocial
Ġlarg er
ent y
Ġw eeks
ip s
ĠM ore
ri z
Ġsubsequ ently
B S
ĠH ome
Ġacqu ired
ĠT em
if orm
tar io
N ot
A A
Ġmiss ing
ĠAss embly
ĠB ern
ab eth
Ġqu ick
r ac
Ġc ell
ple ment
ĠJohn son
Ġdes p
p an
ed d
Ġse at
por ation
Ġw ord
il ies
r u
ĠO s
oc al
Ġsepar ate
Ġc ouncil
Ġro om
ĠHe alth
b ers
Ġb omb
Ġb ound
Ġprov ince
ĠSh ow
Ġch art
Ġrefer red
A T
ĠT re
Ġev idence
ric ts
Ġm iddle
Ġm useum
ĠAl bert
Ġmain ly
ag er
3 6
ĠPol ish
= #
uck y
el d
M an
ort heast
T rack
Ġb rief
ĠF ield
ĠU r
ran ce
U S
struct ion
3 4
ĠB or
ĠT op
o z
ap ers
ĠO pen
ĠV an
ĠS and
ĠS und
: //
ĠW ater
h ol
st one
ic ations
Ġg ot
Ġse a
che stra
ing er
ĠF C
Ġstud ied
Ġpass eng
Ġover all
u ated
Ġhel ped
ĠSe a
ĠJ ournal
I s
ur ies
Ġclaim ed
Ġf a
Ġear ned
Ġcre ate
at us
Ġform at
Ġc ensus
Ġoffer ed
Ġmed ical
ĠJ ac
ĠSy d
ĠIs lam
3 8
sk i
ĠB oy
Ġdes cent
he im
ĠVictor ia
Ġrem aining
Ġspec ific
Ġbelie ved
on ic
Ġl og
ĠSp orts
ĠI ran
av en
Ġlab el
W ith
ĠB and
Ġun c
ĠE nd
ĠL atin
Ġmin utes
Ġacc ount
Ġn orm
r as
Ġmov ie
Ġpresent ed
te en
ĠC ub
cl ass
Ġs n
ĠD is
on ia
ĠP eople
Ġpl atform
Ġstart ing
ĠC orn
Ġorganiz ations
Ġtro ops
ĠCh ild
Ġen ergy
ĠCor ps
ĠOlymp ic
ĠOff ice
os a
t ies
o h
Ġvar iety
ĠB h
F rom
m ore
Ġn ative
he w
ric e
Ġst ep
Ġparen ts
re ct
gy pt
Ġparticular ly
c ard
ĠB BC
itt ing
Ġdisc uss
Ġar rest
ĠUS A
0 7
sel ves
Ġthem selves
Ġhous es
3 7
4 7
Ġm ach
M embers
Ġassist ant
ĠFound ation
Ġ )
igh ter
og rap
Ġst e
iz ing
Ġh ours
ĠReg iment
Ġlist ing
Ġfore ign
ĠOn tario
oc ese
ĠR am
Ġo p
4 8
Ġec onomic
Ġf oot
per or
Ġin n
Ġmean ing
ak ers
ĠSpec ial
: #
ĠB C
enn es
led ge
os oph
Ġsp l
Ġper cent
Ġl atter
ĠO b
Ġ196 1
ag ement
Ġf ailed
ess ion
Ġc itiz
res p
Ġo pt
ĠB ir
im um
ĠL ater
Ġepis odes
Ġhe re
es ota
enc ies
Ġp age
ĠU k
y t
5 5
Ġad j
ie uten
O lymp
ad ian
ĠC at
20 11
v ement
W hen
Ġra ised
ĠBel g
ri ed
3 9
Ġtechn ology
Ġm akes
Ġcommun ities
at ively
te xt
bour ne
est abl
Ġcoll abor
th ur
Ġmeet ing
ĠSyd ney
ag ing
Ġdist inct
Ġnear by
Ġp ath
ĠHigh way
Ġhe avy
ent al
Ġform s
ran ge
av a
Ġsur face
ĠF our
Ġh ospital
m as
ur rent
Ġdep art
ĠP ost
ĠJo e
Ã¡ n
ĠW all
Ġturn ed
ĠR ay
Ġfor t
Ġcre w
ĠA sh
Ġfinal ly
ce an
Ġal ways
199 8
ĠK ar
18 6
W est
Ġdep artment
Ġ194 8
Ġ Å
angu ages
Ġ ver
man n
ĠIs lands
F urther
Ġleg isl
Ġprov ides
ĠJ ackson
os es
ĠK ong
ĠF ar
Ġc arried
Ġ195 9
Ġ194 6
Ġc ut
ĠPol and
Ġ i
Ġsupport ed
Ġg overn
it age
Ġint eg
0 8
Ġren amed
Ġc at
b ec
ĠK enn
Ġfin ancial
um ed
v is
ol is
ĠPhil adelphia
Ġ195 6
us band
Ġpl ants
ĠRep ublican
ĠE arth
s en
Ġt arg
Ġbl ock
H L
j a
er land
emet ery
ĠJ es
inist ry
Ġcomp osed
ĠG ame
Ġd ro
Ġ194 2
ĠT am
0 6
ĠU l
4 9
ĠEn ter
Ġc ities
Ġcons ists
ĠG h
y ric
ib li
us c
Ġg reen
Ġincre ase
attal ion
ĠDemocr atic
Ġart icle
og ue
g u
ĠG overnor
Ġ195 8
v est
Ġmusic ians
ĠV en
ĠAnd rew
Ġpe ak
Ġpar ish
ĠIndian a
Ġrequ ire
oc ks
Ġcover ed
ĠHe ad
Ġback ground
ĠA thlet
ĠP op
A C
Ġthe ory
Ġ194 3
Ġsuc ceed
Ġc ann
Ġoper ation
ĠM any
ĠK e
Ġp ick
ens is
ro vers
and on
Ð °
ĠMed al
ĠB aseball
Ġcom ment
ĠB a
ou ri
ĠI f
Ġm em
ion e
ĠPro t
Ġ ess
ron ic
Ġp sych
P olit
Ġs ource
ĠAr m
199 7
ĠB al
ĠV iet
Ġem b
Ġdou ble
Ġsh oot
Ġtransfer red
Ġext ended
Ġfeat uring
in us
ous ly
is hes
ĠJ eff
z ech
ĠA z
Ġst ories
ĠAn ton
3 1
ĠM ax
Ġpol icy
Ġf unction
ĠS om
9 9
e z
Ġ195 7
Ġm arriage
Ġprop osed
ĠAir port
Ġrec ent
D on
ĠF ed
ieuten ant
Ġch all
im ated
n o
Ġch arg
oun ts
Ġneigh bor
ĠAlex ander
0 5
stit u
ĠÂ £
Ġa wards
Ġelect ric
Ġint ers
Ġpo or
w orth
4 6
Ġcele br
u ing
ĠF inal
Ġresp onse
Ġm ight
Ġcap ac
olog ist
% )
il ton
Ġnear ly
Ġup per
ĠS ant
orn ing
Ġpl ans
ĠUn ivers
Ġd iss
ĠB ab
Ġpre vent
ĠR od
m ission
y er
l av
Ġst ay
ĠD own
Ġb order
Ġproble ms
back ground
os h
iz abeth
ĠF I
k er
Ġo il
ĠP en
Ġdiffic ult
Aust ral
Ġob ject
Ġd one
D em
Ġdesp ite
em an
y o
rup t
ul pt
Ġnewsp aper
Ġmanag ed
orpor ated
ul ly
an cy
Ġ195 5
ĠM ike
ell ig
a is
ĠS ong
ĠR el
z y
uild ing
Ġb ring
y th
ĠB et
hen s
Ġ194 1
Ġpolitic ians
ĠWin ter
Ġf ail
Ġ194 7
Ġle ave
ĠSup reme
ĠO tt
ĠC y
ri f
ĠK en
S w
Ġorig in
ris on
Ġsil ver
Ġ195 2
Ġcond itions
Ġd ark
ĠP ubl
ĠB ishop
ĠL ew
Ġrespons ible
Ġprofess or
Ġc orn
Ġtem per
Ġde ep
Ġprim arily
w ater
198 0
it ude
ĠL ight
ay lor
18 7
w ide
ĠB ell
Ġg un
ob ile
ĠR og
ĠBer lin
ĠGu ard
ĠMus lim
Ġal leg
ot o
Ġh ar
ĠPri ze
Ġhon or
Ġan cient
0 9
H is
Ġc hem
Ġnov els
Olymp ic
Ġserv e
l ight
ĠFore st
or ado
Ġag ric
ĠBr idge
199 6
b a
Ġreg ional
ound s
P r
ĠTor onto
Ġres idents
olit an
ĠB ang
W orld
im s
ĠE p
Ġdel iver
4 4
ak h
ĠF er
Ġmount ain
il ation
Ġbecom es
Ġv oice
Ġl ives
Ġiss ued
Ġv on
Ġde ad
Ġm echan
Ġy outh
ĠE gypt
E d
Ġen ough
ĠT od
Ġd yn
ig ade
ether lands
ĠV ill
ic ted
Ġexper ience
Ġconstruct ed
Ġsold iers
ĠA k
Ġindividual s
Ġsecond ary
Ġmedal ists
ĠL im
20 12
Ġbel ong
ins on
ĠM ov
ĠCh ap
amb ig
A c
ĠS her
3 2
ĠAn t
writ er
Ġto ld
an th
ĠN Y
ĠSt adium
Ġarr ived
G erman
Ġ193 9
ĠTh ree
ri e
Ġnum bers
ĠCor poration
res h
Ġmanag ers
Ġdirect ly
und red
Ġsol o
ar ry
Ġc ricket
a ult
Ġs ociety
ĠM u
ĠChar l
Tax onomy
ĠJ ean
ĠCast le
Ġfam ilies
Ġhigh way
Ġh usband
Ġc lear
ow ers
ĠMinn esota
w ick
ĠS anta
ĠT ok
Ġf ace
qu arters
Ġc ard
ĠPro gram
Ġtit les
ĠWil son
al m
Ġw ords
I D
ĠB ol
amp les
Ġsc hed
Ġa thlet
ĠAs ian
Y ear
ĠH ospital
m od
or ation
Ġun ivers
ĠS erb
Ġfif th
Ð ¾
5 8
Ġproduct s
cl es
Ġk ind
ĠR aj
ra q
er c
M S
Ġ195 4
Ġs al
Ġdiscover ed
Ġc ause
Ġc ateg
ĠStev e
P op
Ġon line
ĠC a
ĠS ev
ly n
ambig uation
ub e
ad s
Ġn ature
ird s
Ġinflu ence
Ġconsid er
ĠR ome
Ġas ked
reg on
Ġr ugby
ĠC op
Ġwho le
Ġp p
Ġcamp us
Ġch ap
ĠH ind
Ġd omin
Ġlik ely
Un iversity
Ġfac ilities
Ġwinn er
Ġdr ug
199 5
ic ed
V D
Ġmention ed
vers e
ĠF air
Ġch annel
re c
Ġmot or
ĠJust ice
oc ated
ĠB udd
g ing
Ġex ecutive
ĠL ady
Ġben ef
Person al
Ġfriend s
ĠB oth
Ġlevel s
Ġnot able
Ġdiv ided
Ġwe ap
ĠKore a
W ill
form ed
v ey
am in
Ġcomp uter
Ġcon cept
Ġgradu ated
ĠDe velopment
N e
ĠBe ach
G r
ang a
ĠM ir
B e
Ġpart n
0 1
Ġn ecess
Ġcult ural
ap ed
ĠMount ain
Ġe lements
Ġcon fl
ony m
yd ro
v in
Ġan g
ask a
ren g
n s
Ġwinn ers
re al
ĠComm on
ĠQue ens
Ġam b
Ġsc ene
ĠL i
ĠC as
Ġcom es
ors hip
Ġco aches
Ġ195 1
Ġprom oted
Ġp aper
Ġpro gress
roll ed
ĠS quadron
ist ance
Ġaff ili
Ġ era
y ard
Ġdr ums
w ing
Ġun s
Ġ @
Ġf ellow
ĠDan iel
Ġbir ds
ĠAn th
ĠEl izabeth
ĠRepresent atives
dis ambiguation
in ity
Ġth r
Ġ195 3
it ter
a ud
Ġcontin ues
ĠPrem ier
Ġpurch ased
5 6
B iography
Ġhe art
Ġ ult
Ġ194 9
Ġincre asing
Ġn uc
ic ine
ow a
N ov
ul es
ĠD uke
ĠS pe
ĠCommun ity
am ber
Ġinit ial
Can adian
Ġle aves
20 13
Ġass igned
al o
A ccording
ĠH ong
ĠB ad
Ġapp l
Ġcontin ue
Ġs ources
Ġremov ed
per ial
O ne
Ġl anguages
Ġcapac ity
Ġalong side
ĠP ass
it led
ĠN etherlands
ĠD er
ĠF ire
Ġto uch
ast ic
ĠSen ate
ak s
Ġt ree
ennes see
ĠL o
ĠK ir
Ġaut om
Ġun known
Ġ â
Ġw anted
9 5
Ġdis play
Ġsmall er
Ġdem on
Ġwork ers
Ġr ule
l ers
and y
epend ence
ĠH ay
van ced
ict ional
Ġre ason
Ġ3 6
g et
ĠA ut
en ge
le m
Ġf ish
ath an
Ã £
Ġoffic ially
Ġequip ment
E C
Ġb ranch
ĠP ower
ĠF ame
ĠSec retary
Ġc ars
Ġconduct ed
f n
Ġmet al
rop olitan
Ġadminist ration
ou d
Ġacadem ic
199 4
Ġhigh ly
Ġded icated
20 14
ĠW ork
Ġv an
Ġ8 0
tern et
ĠAt t
Ġprogram ming
ĠN FL
ĠCh ris
Ġbl ue
Ġcon ver
ĠW el
Ġwhe ther
Ġin side
Ġsh are
Ġf unct
5 00
Ġst ra
Å Ĥ
S P
Ġliter ature
Ġquick ly
Ġ ut
Ġdestroy ed
Ġrul es
ograph ic
ag a
Ġold er
iz es
ibli ography
In ternational
ore n
ribut ed
ĠPak istan
ĠF ederal
Ġeff ects
or i
ĠBro ther
ĠAd d
Ġr at
ect ing
ĠRev olution
ĠN ations
ĠMed ia
Ġn ation
Ġg re
if ying
ab les
Ġst ore
ĠReg ion
resp ond
Ġhabit at
Ġval ue
Ġimmedi ately
Ġfollow s
Ġinstitut ions
Ġor g
Ġbe at
Ġpro jects
bo ok
th ing
Ġo ur
Ġbeg ins
Ġsp ort
Ġp iano
A nd
ĠL es
ĠP it
ound ed
om er
an ia
Ġen em
ĠSwed ish
F ootball
ĠCl ark
ĠN etwork
Ġsc oring
Ġg as
t ra
ar p
B y
ĠL t
Ġlet ter
u i
S C
ĠE s
ed om
Ġcommon ly
ĠCamb ridge
Ġ5 00
igh th
ĠR em
ress ed
ib b
Ġres ident
Ġreve aled
ol es
Ġsit es
Ġab ility
ak i
m ad
im al
am i
Ġ4 5
Ġdirect ion
en es
g ar
Ġlead ers
Ġre ach
E l
Ġsem i
ĠReg ister
Ġengine er
ĠO regon
Ġoper ating
4 1
c hers
Ġill ust
Ġcont rovers
Ġcompet ed
Ġatt end
Ġp an
ĠH y
u v
Ge ography
Ġfl ight
Ġprod uce
Ġst reet
Ġplann ed
Ġprom inent
for mer
ren ce
p art
ĠC irc
ĠL ive
w eg
Ġf iction
ĠI d
ons in
Ġserv es
se x
ĠJ unior
v card
ce st
Ġelect ions
4 2
Ġra p
aren t
Ġl ay
ĠGold en
Ġlaw s
we ight
ag h
ĠA ff
ĠH uman
Ġv ote
ĠK ansas
Ġtyp es
ig en
isc onsin
Ã ¸
Ġch ampion
ĠJ on
Ġb ig
ĠBo oks
ĠTechn ology
Ġbas is
Ġl yric
lement ary
es h
Ġ3 2
Ġp ra
Ġw alk
M A
ĠBar b
Not able
Ġterrit ory
ĠM un
Ġy et
Ġs quad
ĠT aylor
9 8
Ġper man
Ġsec urity
Ġpro te
Ġgrow th
ĠB u
S ources
Ġp urs
Ġam ount
Ġmov ing
Ġb ron
ac hel
ann a
Ġret ire
Ġpart ies
Ġsett lement
0 3
ĠR om
ans ion
Ġhost ed
b ro
Ġrec over
ist ed
Ġt al
g g
ĠF ollowing
Ġint ended
' ,
ol n
ov a
Ġest ate
197 0
5 7
Ġs aying
Ġf irm
ĠE st
Ġd ance
Ġdist ricts
199 2
Ġopp ortun
ĠSt e
Ġsc ulpt
Ġf eed
ffic ient
Ġl ies
Ġg rew
Ġtyp ically
Ġcitiz ens
ĠBro ok
Ġquest ion
Ġtreat ment
ou ts
Ġbeh av
Ġvers ions
ĠB all
Ġown er
ert o
Ġactiv ity
ad er
Ġt able
Ġre pe
Ġchar ge
r ical
20 15
ĠD espite
i ated
Ġcompos er
C o
ĠI raq
Ġoff ers
Ġcomb ined
F amily
ĠT ennessee
Ġorder ed
ĠJew s
Ġ +
Ġide a
od ies
Ã º
Ġcol or
Ġvill ages
ĠP ers
Ġsy mb
Ð ¸
or ph
Ġformer ly
ĠCount ry
Ġmix ed
op her
199 3
r ig
riz ona
Ġbl ood
0 4
Ġdist ribution
ĠH al
ĠT ony
Ġsoft ware
ĠSp ring
ĠB alt
ĠL y
ĠF ox
ĠMary land
ĠS us
ĠSwed en
De ath
red ited
ĠC E
Ġcandid ate
Ġrec ently
Ġ193 6
ĠE arl
Ġdis establ
ĠCol orado
S outh
ĠK el
L A
it ness
enn a
Ġl if
r in
ain ts
ix ed
ĠStud ies
hem at
0 2
ĠDav is
9 6
ĠMar sh
ades h
etro it
Ġsuffer ed
z o
ĠR ang
sk y
l ah
Ġb ad
port ation
ib ly
com p
Ġwith d
g reg
Ġschol ars
on ents
Ġrecogn ized
Ġm ax
pp er
orn ey
Ġw a
ĠR et
ition al
Ġy ards
Ġra re
eat her
b ell
Ġh op
Ġb oy
ig rants
Ġg iving
ĠKore an
ell er
ĠCon f
Ġpot ential
ĠMar c
Ġinh abit
k in
i ary
N o
ĠT a
Ġ urban
Ġw ing
ĠOr gan
Ġar ms
ĠM aster
ĠU t
ol i
ĠAr thur
O S
ĠMel bourne
ĠW alk
ĠMiss ouri
Ġn ortheast
Ġfor ward
Ġtri al
Ġdise ase
inn er
Ġeff orts
Ġneed ed
8 8
Ar t
Ġtarg et
Ġf eel
ĠAl so
Ġpr in
Ġst reng
Ġim plement
ress ion
ĠKent ucky
hed ral
Ġfig ure
ĠC zech
iv ity
ed ia
W e
ĠCol on
d ied
ol id
ian ts
Ġc ounter
ast y
ĠG reg
or ge
st ic
ir al
ing ham
ĠRev iew
ĠM emorial
it o
Ä ±
Ġprob ably
un te
Ġs low
4 3
ov ak
ĠAl f
ĠCap tain
p resent
ĠMar ia
Ġtra ffic
ĠPr im
g n
ĠStep hen
Ġ193 8
og s
erv ative
id ers
Ġproble m
Ġvoc al
ell o
S R
Ġadop ted
ĠD iv
ĠLew is
ĠW isconsin
Ã¼ r
ĠE P
ĠInd ust
9 7
Ġmod els
Ġtra ins
Ġcapt ured
R es
are t
ĠProfess or
ĠPro ject
Ġthe atre
ain e
B ack
y al
Ġinstr ument
uct ion
ar o
m outh
Ġw ins
Ġagre ed
Ã£ o
F rench
Ġfav or
ĠAtl antic
se y
Ġt ells
Ġh or
eth ing
ĠF amily
Ġcont emporary
Ġqu ality
Ġnew ly
ĠS ab
ĠAr men
Ġexp anded
ost er
ĠBus iness
Ġst adium
en ing
amp ton
T A
199 1
p son
J apan
Ġrespect ively
Ġfound er
ett ing
ik a
m ph
L a
1 00
Ġdemon str
Ġas p
Ġ7 0
Ġpres ence
Ġphys ical
Ġd igital
ĠH ockey
itz erland
wh ich
d a
Ġsit uated
ĠA h
ĠPr ime
Ġb att
ur ches
Ġinj ury
Ġcon stitu
j i
l aw
Ġcom ing
Ġfac ulty
ac c
re ll
Ġindust rial
ĠH o
Ġdist ance
ap ore
ul s
Ġsp ring
Ġsp ons
Ġrec on
Ġy ellow
Ġf ell
Ġs ens
g ers
Ġth ink
Ġlarg ely
Ġact ually
Ġtw ice
Ġwid ely
k es
M ay
20 16
ĠSc iences
inc ial
ĠMal ays
bum s
Ġfl oor
7 6
ĠR oss
ĠB i
o is
Ġinter p
Ġ Î
ĠSim on
Ä į
Ġex ecut
Ġab andon
ĠR oy
Ġbron ze
Ġent er
Ġreg ist
west ern
F ran
om ot
ĠCon c
ĠB at
Ġparticip ated
C D
A wards
; "
b it
Austral ian
Ġh undred
Ġpre c
ro om
Ġar ts
Ġarchitect ure
ĠBr ad
Ġcor respond
Ġw ild
Ġaccept ed
ĠL ind
E n
ĠH ou
i ate
ĠD am
Ġst one
ĠM ilitary
ĠH ur
D isc
Ġro les
Ex p
Ġcap tain
clud ing
ac ement
Ġspl it
G u
ol ved
Ð µ
% .
p ut
Ġ19 18
Ġte acher
Ġad apt
H on
Ġc erem
Ġengine ering
Ã© e
5 9
er ick
os en
Ġclass ical
Ġcon cent
Ġet hn
ĠN az
ĠComm and
ellig ence
8 6
Ġ193 7
Ġm iles
ional ly
ĠS av
Ġv s
Ġch airman
Ġsurround ing
Ġsec ret
inc oln
Ġcr ime
Ġt aught
Ġagre ement
anc ing
Ġest imated
a ug
Ġg ained
Ġc oin
Ġdesign ated
Ġanal ysis
Ġs ector
Ġm aster
iv als
ĠW at
Ġr acing
eal th
Ġthere fore
) "
Ġpre p
ĠChrist mas
est ic
us ion
m es
Ġp ict
l an
Ġperforman ces
Ã ¢
Ġj oint
Ġdecl ared
S ongs
Ġappro ach
Gen eral
ĠMar ine
Ġdocument ary
ĠMar g
Ġgo es
Ġsh op
Ġf ast
à ¤
b ed
ã ĥ
Ġpe ace
Ġresult ed
Ġp al
m et
Ġsub s
A F
Ġtit led
Ġl osing
Ġgr anted
ĠGre ece
w orks
ĠPol bot
lah oma
Ġs earch
ut her
ĠH art
Ġair port
Ġcomp ared
ect ic
ace ae
ur er
il ing
c ow
rest ling
ĠWar s
ĠM inistry
Ġre duced
Ġg ives
ĠInf antry
Ġclass es
os is
Te levision
p ool
y es
Ġfac ility
P ar
Ġs ales
ĠSt ock
ĠEm peror
al so
Ġport ion
Ġ9 0
Ġatt ention
Ġorgan ized
ĠF le
ĠFranc is
ĠAdm inist
ĠPhilipp ines
ĠTr ust
ĠT al
5 2
oot h
ial s
E R
Ġc ode
ill ery
Ġc ells
Ġeduc ated
Ġconc ert
ĠNor way
5 1
Ġ193 5
Ġm inister
st yle
ĠY our
ĠLe on
Ġv ess
ill er
ant on
ĠH an
198 9
ĠViet nam
Ġhistor ic
ĠR ad
v ard
Ġr ural
ĠAn other
Ġc arri
Ġst re
ĠC emetery
Ġ ir
Ġt alk
ed er
ĠD un
Ġsp irit
m itted
B ibliography
Ġse vent
6 6
weg ian
Ġsl ight
ab ama
ate ur
Ġpat tern
ĠAb b
tain ment
Ġsp read
ĠPl aces
Ġresult ing
ĠAre a
Ġpos itions
Ġcol umn
ĠInd ones
Ġdou b
Ġd raft
ĠK al
Ġb ott
Ġcont ent
Ġra in
osoph y
Ġs outheast
Ġp ack
I tal
5 4
ues e
ĠM unicip
Ġs ays
Ġhouse hold
ĠSw itzerland
Ġsports people
Ġk ept
u ous
ĠW rit
Ġchar ts
ĠFor m
ke ep
ir med
ĠCol omb
Ġident ified
uild ings
D ef
Ġ3 8
ĠEngine ering
ĠA rizona
Ġhe av
Ġst ars
Ġcan cer
Ġtr ue
um es
Ġfl ag
w ich
k h
ĠW eek
ĠR eal
ap h
Ġ3 7
Ġcont est
enn y
on ent
ĠR en
Ġoccur red
20 17
ĠHol y
Ġnot es
ĠHar ry
S S
Ġpos itive
ord ers
Ġet c
Ġl abor
198 8
t r
ĠC ur
Ġstr ugg
5 3
Ġ x
Ġrank ed
ĠN ic
Ġact ing
Ġconn ected
in ch
Ġb urn
ĠB attalion
ĠU s
Ġprov iding
ĠB urn
I A
ord on
g a
ubl in
Ġ3 3
Ġdam age
ag an
sp ec
Ġb at
ĠH ard
Ġ rom
ÃŃ a
Ġc am
ĠC O
ord in
Ġbur ied
Ġs umm
i at
ĠTurk ey
l ife
Ġpass es
B r
im inal
ann ing
Ġst ream
ĠC ra
Ġfe et
Ġg raph
Ġmark ed
ĠP ier
ĠMill er
Ġyoung er
ec ause
ash ion
Ġsup pl
D av
ol ished
ra ine
Ġreg ions
Ġ192 8
Ġenc our
Ġw all
Will iam
ec es
Ġrec omm
Ġcou ple
im ore
Ġpress ure
ĠG i
ĠS em
Ġ19 19
Ġgre ater
el ine
Ġacc ident
Ġback ing
Ġj ourn
Ġm ess
Ġser ious
Ġveh icles
ĠCol l
Ġjournal ist
ĠBill board
ic ian
c on
Ġofficial s
Ġvol ume
ast ers
Ġs uit
198 7
ectic ut
Ġel im
U K
ĠT urn
Ġr ac
ific ations
Ġf air
I C
el le
ĠV i
Ġknow ledge
R ail
Ġsex ual
ĠT est
ĠPhil ip
Ġsw im
ĠCh annel
ĠK im
ĠE th
p ur
Ġtr ust
Ġtem ple
hip s
C ast
ĠCh ampions
an es
Ġcre ation
Ġro ll
ĠQue bec
ur d
198 4
ĠDie go
ĠG il
Ġl ibrary
' .
Ġre ports
ĠSh ort
Ġle tt
Ġhous ing
Ġf estival
eral d
Ġatt acks
Ġbro wn
Ġcann ot
or f
Ġh all
Ġplay off
Ġag ent
ĠMan chester
k ey
Ġthem e
ĠAust ria
Ġhand s
ĠH or
Ġallow s
ĠM ic
Ġsp ot
ĠMed ical
ĠHam ilton
ff bb
u h
ene z
Ġimp act
ĠS ound
ĠS ix
Ġadminist rative
c an
Ġtre es
ac ts
Ġcast le
ĠS R
Ġf ully
Ġh orse
i Ã³n
b s
ts burgh
Ġclaim s
Å «
uc cess
as ion
Ġsucceed ed
198 6
Ġ19 14
ĠPol it
ĠF M
Ġtw enty
iqu es
Ġ192 9
Ġfin ish
Ġc art
Ġto wer
ipl om
ĠB os
Ġl ake
ĠJ er
8 9
ĠFed eration
Ġsaf ety
ĠAnd erson
ĠD VD
tt p
ĠT en
B orn
und er
Ġemploy ed
Ġneighbor hood
ec ond
est er
ĠSw iss
ĠP u
ĠB rian
Ä ĥ
cl aim
b ach
iam i
Ġlead ership
ap pen
a ver
ĠHe art
qu es
Ġrest aur
Ġold est
Ġt ropical
m iss
Ġ ...
Ġt im
ww w
Ġco al
Ġlyric s
I NE
Ġth ous
all ery
ev in
ul ate
ĠS oc
Ġauthor ities
198 3
Ġlo an
Ġg overnor
Ġwe ight
Ġinhabit ants
level and
ĠH u
ĠF ord
ia b
Ġm ill
Ġanim als
Ġro w
198 5
d ale
Ġpolit ics
Ġn et
Ġgrow ing
Ġcont act
ĠI owa
or gan
7 7
Ġcomplet ely
Ġ193 3
Ġp air
Ġc e
ĠM as
Ġgirl s
o es
ĠD etroit
r ate
ĠT ai
ig ration
Ġoper a
Ġcomm ander
ĠArgent ina
Ġp aid
ĠAl abama
ĠMex ican
ĠMos cow
Ġe as
ĠO ak
re es
in th
Ġexp ected
Ġend s
Ġform ation
Ġf ans
Ġd ial
Ġun ique
Ġ193 2
ĠB ack
v o
ĠN ap
Ġsup ply
r um
un ch
Ġre ference
Ġpurp ose
ĠSund ay
ĠL incoln
ĠBow l
ĠSing apore
og en
Ġb ow
Ġreturn ing
se ason
ar on
Ġcomb at
r ator
Ġext ra
ĠPh ill
Ġconfl ict
20 18
Ġcrit ical
Ġ193 4
ly wood
Ġrece ive
Ġfight ing
le ased
Ġhead quarters
R ep
F M
ian g
ag u
ip e
ĠB on
Ġsim ply
ĠConn ecticut
Ġtri ed
Ġmain tain
Ġmeas ure
Ġ19 12
ir ty
ĠEnter tainment
Ġ192 4
ĠT s
Ġnomin ated
b an
Ġpain ter
E nd
ĠLe v
ĠTok yo
P S
Ġprincip al
D ec
Ch rist
Ġbrother s
Ġm ut
Ġallow ing
ĠK han
Ġen j
Ġre form
Ġcond ition
A ct
Ġb ought
I T
Ġsett led
B o
Ġcon ference
Ġs ides
Ġf elt
Ġmusic ian
ĠT ig
Ġeff ort
196 0
Ġad ult
ĠHon or
b ra
ou red
Ġexper iment
Ġcomp ilation
Ġpromot ion
ĠTem ple
ap olis
ĠF ree
Ġte aching
Ġmunicip alities
Exp atriate
we alth
ov en
ĠOk lahoma
erv ed
Ġexist ing
G B
al ing
Ġth ings
Ġh y
ĠSt ory
ĠDes ign
Ġretire ment
gl as
ym n
ul ed
Ġim age
Ġcy cl
i ot
o en
ipp i
ant e
ĠCh ile
z en
Ġa ired
E uro
Ġsugg ested
ĠR on
el ve
ro up
A M
M ilitary
ĠI V
al y
ĠI r
ĠOr chestra
Ġveh icle
Ġf olk
ĠĠ Ġ
Ġ193 1
Ġexp ansion
Ġ3 4
ĠFor ces
20 19
Ġ19 00
f rom
od ox
ĠM ember
Ġport ray
ĠO cean
ĠO d
ĠD ream
Ġsing ers
197 9
Ġp et
Ġ19 17
Ġs ons
S ing
ĠN ev
Ġc ert
un ter
ĠMan agement
Ġshow ed
ĠP oint
Ġs urn
Ġvis it
Ġon to
ĠO t
ĠW olf
ĠGall ery
Ġfig ures
ĠBr igade
198 2
Ġreview s
7 8
ĠT y
S T
For mer
Ġstar ring
clud ed
is a
Ġc overs
le ep
Ġl iber
ingu ished
N orth
in y
Re g
Ġval ley
ĠSen ior
Ġrel atively
Ġc ab
ĠMag azine
Ġpr int
Ġforest s
Ġr ang
Ġpublic ation
ac hers
n et
es ign
Ġr aces
ĠO ffic
ile y
at ab
ĠZ h
ĠWh it
Ġmunicip al
ĠD isc
ur ance
ĠL ike
im ens
ĠE ric
P A
Ġconver ted
Ġ4 9
ĠTe levision
ast e
Ġte le
Ġsix th
Ġmaterial s
Ð ½
C ont
S ince
ever al
ĠC ape
ĠPl an
Ġex change
Ġme ant
Ġst ock
Ġdef end
d i
Ġ192 7
ĠSt and
e k
ĠA M
ĠPr in
ĠHou ston
Ġjud ge
Ġpart ner
Ġadd ress
iv a
Ġnar row
ĠN ick
Ġw ear
Ġs um
ĠLeg isl
Ġl ot
ĠJan e
Ġattem pts
Ġstra ight
Ġad vert
ĠSt aff
Ġmerg ed
Ġauthor ity
le ts
P ublic
Ġm ap
Ġm om
ĠA cc
Ġgu est
ĠHow ard
Ġcomm ittee
ĠSil ver
we et
ra st
Ġsugg est
198 1
ind er
us es
c ont
" ),
ic ians
ĠT an
ĠT it
ĠL ow
Ġd aily
d on
ĠS ri
Ġfrequ ently
Ġarrest ed
Ġs ets
Ġcust om
all as
ĠO p
ograp her
ĠD or
ĠL abor
Â °
Ġent ry
ĠMod ern
Ġend ing
ol as
Ġg od
Ġsit uation
ĠServ ices
ag ues
Ġfl ood
Ġm orning
Ġdro pped
b ar
Ġpass ing
Ġwin ter
ik h
ĠReg ional
ĠH and
ĠE ach
ĠB oys
ĠR ose
Ġcont ain
rel ated
Ġse em
Ġachie ved
d ie
F ollowing
Ġro yal
Ġv ot
9 4
ĠC ost
Ġm icro
Ġrap id
ĠFr ont
Ġ192 2
ĠCro at
ĠM oon
p et
ĠD ave
ut ies
it i
Ġappl ied
A f
Ġb ul
ĠSt one
Ġhold s
Ġsubsequ ent
Ġhe ro
ie val
ĠBr on
iss ippi
os lav
Ġse g
b urn
ĠSp ace
ĠC ow
M ajor
ĠE ag
P ol
Ġbe aut
ĠAll en
ĠP A
gh an
9 2
Ġres c
Ġ Ä
Ġoccup ied
ĠAmerican s
Pl ot
Ġcomp l
Ġ19 10
Ġch osen
ĠWal ter
ĠA ud
Ġpro ceed
ĠQueens land
Ph il
Ġfind s
Ġ( ),
Ġref used
p a
Ġcompet itions
or ro
Ġsurv ey
8 5
Ġs quare
Ġ19 21
ĠP ict
Bl ack
O fficial
Ñ Ģ
ĠD ublin
ac ent
ĠR a
ĠBul g
Ġj ur
w ise
aw n
Ġscient ific
ĠR un
Ġj azz
ĠLt d
Ġf ought
u ilt
am ing
ĠD ark
Ġcall s
Ġob tained
Ġs occer
Ġw ant
ĠG ard
ĠSt at
Ġex am
r Ã©
Sports people
Ġr h
ĠL at
iss ance
Ġlett ers
Ġfield s
Ġcommission ed
ĠJac ob
9 3
Ġdr ive
ĠAd vent
L ife
Ġenem y
Ġarran g
Ġres ources
Q u
og y
H ar
Ġpower ful
Ġperform ing
ĠA D
Ġmet res
ĠPat rick
Ġrecord ings
Ġinsp ired
ĠDo ctor
ĠAff airs
Ġv ent
Ġbro ke
Ġec onom
Ġbr and
u ly
Ġun able
ĠA uthor
Wh ile
ĠN ow
Ġmach ine
ch a
ia ble
ord an
Ġ192 6
el and
ill ing
Ġchall eng
Ġm is
A ss
uss ian
ĠB eng
Ġpar liament
Ġprot ection
Ġpil ot
Ġdef ined
Ġappro ved
ĠRec ord
ept ion
f it
Ġnecess ary
Ġloc ations
ĠF e
ĠH amp
Ġa im
Ġprof ile
Ġl it
Ġro t
ĠChild ren
c ar
Ġcont aining
T o
ĠF a
ĠMP s
Ġlaun ch
Ġtouch down
f r
if ically
M y
ist ers
ĠN ich
Ġgu ard
' '
Ġstat istics
Ġcop ies
Ġext ensive
Ġaltern ative
j an
n ight
th odox
ug u
ĠK ey
Ġocc urs
Ġeffect ive
az ines
ĠC ab
ĠTurk ish
197 8
ist a
Ġad vanced
Ġ192 3
6 4
ĠD u
Ġconf irmed
Ġact ions
Ġrec ip
Ġnorm al
ĠWh o
Ġcon vers
l ines
ik i
ĠFore ign
Ġent itled
ĠW ell
Ġn ob
bo x
ĠD ick
Ġconsist ed
Ġs ac
ĠAd am
Ġhistor ian
ent ed
ĠB ou
Ġh arm
Ġk il
Ġattempt ed
ĠT rib
Ġcons um
ĠN ag
Ġsim ple
ĠLouis iana
Ġcorn er
ĠN aval
Ġunder st
ĠL u
Ġre ject
Ġfound ing
ĠIn n
Ġmethod s
or ter
Ġdef ense
Ġex clus
ad ow
Ġpaint ing
le ase
Ġdirect ors
ivers ary
C ar
ĠB uilding
ok ing
eg a
inem a
bo ards
Ġdo ctor
Ġactress es
ard o
Ġcent uries
Ġ192 5
ĠC re
J an
ĠM it
t hes
Ġcons ecutive
Ġs and
Ġcreat ing
Ġse ats
Ġapp arent
Ġaud ience
Ġ4 8
Ġdef in
ist ry
iam ond
st ream
Ġb al
ĠD omin
u ces
Ġear th
CA A
ew ay
ĠK at
ĠA ge
ĠAl an
ĠS on
ĠR eb
20 20
S ome
Pl ay
if ul
j o
V ideo
ĠF inn
ĠP ot
leg es
Ġc al
Ġ( ;
Ġ19 15
ed ing
ole c
Ġpro s
Ġmem ory
ĠD ur
Ġmult i
ĠG ordon
Ġv otes
Ġch ampions
ĠMo ore
M on
Ġr isk
ĠPri x
ĠAnth ony
Ġh appen
Ġpre par
ours es
ell i
Ġpi ece
f ort
Ġmay or
lin ed
au x
ĠT ar
Ġethn ic
m it
Ġr ival
S up
ab y
Sp ec
ar ks
ĠL eb
ĠM iami
Ġsom ething
T r
Ġf resh
ĠCom ics
esc ription
ĠPortug uese
Ġnuc lear
Ġopp osition
Ġk ick
oy d
Ġsp ect
I N
av ed
pr ise
ĠS u
Ġend emic
Ġshort ly
S ub
ĠH ills
bor ough
ĠF ellow
st an
Ġinc ident
d am
Ġhot el
ĠSec urity
ĠH ans
Ġslight ly
Ġb ill
r ant
ĠJo h
ĠBalt imore
197 4
Ġtown ship
Ġbeg in
ĠL iter
Back ground
ant asy
ĠDou glas
ĠB an
Ġsh ared
F irst
h at
op ter
or ough
Ġ190 8
E ast
im ents
à ¸
ĠP ope
Ġperman ent
8 7
pl ace
Ġcont ained
Ġref ers
Ġland s
on i
struct ure
ĠN ar
ĠLab our
Ġoffic es
app y
Ġcomp ris
Ġc alc
Ġenj oy
R oman
ĠV o
Ġch o
ĠB ah
Ġt ail
rop ri
ĠStud ios
ĠBelg ium
ĠAr k
Ġs ay
ĠSt ew
unt ing
197 6
ig ation
ĠG ram
E ducation
Ġdr iver
Ġattack ed
ĠB uck
Ġvis ited
ĠC our
ol o
Ġim pr
Ġag ed
Ġneed s
197 7
Ġde ploy
ĠA st
ĠBudd h
9 1
ĠA C
ĠG er
P er
Ġf uel
Ġr ing
Ġb ishop
act ions
O R
ĠS in
Ġro ugh
Ġapplic ation
ĠAb d
Ġ4 2
ĠMiss issippi
ish ops
Ġlearn ing
Ġcom ic
lect ions
ag en
6 7
ĠD od
Ġfem ales
h ar
l en
l s
f all
Ġeduc ational
ad i
ang er
Ġcollect ed
um a
W omen
ĠPit tsburgh
rid ges
Ġv irt
ri ff
Ġ3 00
t ic
S te
ra it
Ġt un
w en
ĠHar ris
195 0
ĠF riend
Ġopp osed
Ġproper ties
Ġult imately
Ġact s
enez uel
ang el
Ġagric ultural
ĠAnton io
Ġv ac
ĠK a
Ġhe ight
uss ion
p osed
ĠNor wegian
T C
Ġresp ond
Ġh its
ĠMalays ia
f riend
Ġa uth
Ġbe y
ĠD om
Ġabandon ed
h o
ĠM ach
ĠS quare
Ġsett ing
6 5
ist ol
ap ted
ograph ical
Ġpasseng er
D ist
Ġthreat ened
ĠR ugby
Ġheav ily
Ġ19 16
ĠJes us
ĠBroad cast
Ġp up
iv ate
j e
Ġweap ons
ĠP ir
197 5
Ġg ar
Ġpoet ry
ĠWel sh
cy cl
p o
Ġder ived
Ġhe ard
Ġband s
Ġap art
ĠSchool s
ĠP ap
6 8
ret t
el son
Ġplann ing
ĠJ am
Ġhom es
B uildings
ĠMr s
Ġst eel
act ive
Ġm ind
ĠM and
in er
ĠMont real
B est
Ġn ick
ĠF arm
S chool
Ġsub t
ph as
ĠHaw ai
Ġident ity
Ġbey ond
E c
ri ev
ĠIn formation
' m
E A
m ith
Ġin struct
Ġm el
ĠK y
ĠS el
ĠSoc orro
Ġh yp
h ing
ĠC leveland
ol ph
Ġrelig ion
ĠL yn
Ġrece iving
Ġprogram me
ĠN ik
Cl ub
o a
ram a
" ).
as er
Ġtechn ical
H igh
ĠG arden
Ġcrit ics
Ġb oys
Ġh ired
Ġim pl
por ter
Ġt ry
Ġsc ript
Ġkill ing
Ġo x
Ġstar ts
Dav id
Ġgl obal
n old
ĠW ing
ous es
Ġg uns
ĠTod ay
Ġs ense
ĠB ry
Ġin ternal
ig ious
Ġesc ape
Ac adem
ĠB erg
oc ation
ĠIslam ic
ĠO m
ine a
Ġ iron
ĠK am
Ġrecogn ition
ĠSp r
ann y
Ġgl ass
ĠW y
achel or
Ñ ģ
az a
Al though
olog ists
ĠRober ts
le ton
Ġ19 13
197 3
ÃŃ n
orks hire
ph ib
Ġav oid
197 2
Ġven ues
Ġher self
ĠL INE
Ġmax imum
Japan ese
ĠP ear
B I
S an
or age
ec ution
R ober
Ġ19 11
D r
wh ile
Ġo vers
ur i
ĠDe ad
Ġ( ,
ĠL anc
and o
Ġconn ection
Ġf un
Ġfunct ions
iginal ly
ã ģ
Ġbir d
Al bums
M ich
Ġcont rast
or us
Ġinst all
ĠL ast
g ency
ĠAm ong
H S
ac he
ĠAf ghan
ot te
v ements
E FA
Ġ7 5
Ġnorth west
oth ing
ĠLINE AR
Ġf ly
end ment
Ġroad s
Ġl aid
ig e
ĠGirl s
ĠS port
ĠV is
Ġd ry
Rail way
ĠBe fore
ĠI mp
ag g
Ġmed ium
ĠPortug al
or ia
Ġcor rect
Ġv o
ĠTh ird
ov iÄĩ
ry st
ra f
ĠD a
Ġcomp ar
sc ape
Ġs an
ĠW orks
Ġent rance
stitut ional
Ġd iplom
Ġdec or
ĠR ey
ĠJ ay
Ġhold ing
ĠO ri
Ġs ail
Ġh am
eg et
Ġlic ens
Ġf ranch
ĠJu an
Sc ott
ĠPubl ishing
ĠBrother s
l ad
Ġbas ic
g al
ĠOn ly
Ġenvironment al
ĠV in
il er
Ġis lands
Ind ian
Ġneg ot
ĠRes erve
Ġturn s
ĠG ab
ming ham
Ġch urches
rain ian
emb le
Ġdec re
Ġliter ary
ĠAn ne
Ġcontribut ed
c ell
Ã Ł
Ġm art
Ġdeterm ined
ud get
ĠT el
Ġfin ishing
Ġdef ensive
Ġy our
Ġw ays
ĠN a
Ġmat ter
Ġre aching
A b
F lor
l iving
ĠL ang
z i
Ġprem ier
ut ed
St ar
ĠCommon wealth
y ers
Ġc as
Ġgen eration
ĠEx press
ĠTh rough
en h
Ġbrief ly
Ġpri est
am o
for c
ĠI l
ĠL ieutenant
ens ity
idd en
uccess ful
Ġass ess
ic ide
Ġpol ic
Ġstand ards
i ations
Ġre ar
ĠAl i
ran e
ĠEr n
Ġord ers
Ġstri ke
ĠTer rit
G A
ham mad
Ġcons ult
Ġv ice
c ome
g or
Ġp ages
Ġp un
Ġpi eces
ĠB uff
e ast
ol y
Ġan th
z er
ĠâĢ ĺ
w here
ĠInd ependent
ug oslav
Ġprot ect
Ġh ydro
p ass
Ġm o
igen ous
R el
ock ed
Ġb illion
ob e
ak ed
Ġcl imate
196 8
Ġp le
Ġext rem
ĠDe ath
Ġec onomy
Ġren ov
Ġsol id
ĠP as
se ud
Ġprop os
L eg
Ġfail ure
ĠK ings
ĠFI FA
Ġto ward
Ġalleg ed
Ġre in
inn ers
I V
ra v
Ġloc omot
Ġm and
ĠN iger
oc he
Ġt or
ĠK l
ris is
ã Ĥ
Ġt end
ĠHot el
Ġp owers
ĠVill age
Euro pe
Ġle ct
Ġst orm
197 1
ner gy
W rit
ĠUk raine
adu ate
che ll
ĠMc K
a fter
Ġposs ess
ĠC all
Ġre asons
ol t
ĠK az
Ġsign al
Ġh ill
Ã© s
Ġinc ome
olog ies
Ġcon stant
f ound
È Ļ
Ġlaw yer
ĠBaron et
w all
ĠTig ers
ĠIm perial
Ġdis app
Med al
Ġdec ades
D escription
st ar
ĠR ick
sp an
Ġdom estic
Ġbusiness es
Ġj unior
Ġw alls
L C
Ġrepresent ative
Ġac id
r at
Ġrepresent ing
b ishop
ud a
Ġeng aged
Ġph ase
Ġsupport ing
ĠD ak
f ather
ĠB eat
Ġf ashion
Ġanim al
Ġspe ech
Ġadv ant
Ġpl ot
Ã© t
Ġwrit e
D A
Ġref lect
O ver
C ent
ĠIn ternet
Ġmain tained
ĠY orkshire
ĠRail road
Ġs ought
ĠL ank
ot ic
Ġsp ok
Ġcaus ing
r ine
Ġapp oint
Ġe gg
own ed
ur ation
Ġintro duction
ic ts
B ar
Ġp ull
Ġ4 4
inc inn
ĠE lementary
rom e
Ġc row
ĠB ecause
7 2
in burgh
ĠP ed
ĠGu ide
Ġsuccessful ly
ĠWeb site
ĠMatt hew
ĠOr thodox
Ġbo at
Ġclos ely
ter m
Ġres igned
ith uan
ism s
ĠS ax
Ġind ependence
Ġad vent
atab ase
Ġsh ape
Ġb odies
Ġal one
Ġth row
Ġtw elve
s ch
in cluding
Ġdo ing
8 4
ĠLaw rence
Ġexist ence
ĠIsrael i
Ġ3 9
Ġst ores
6 2
ur day
ob a
Ġobserv ed
ap es
Ġgr ade
Ġcar ry
ĠPlay er
Person nel
Ġt rying
ĠHistor ical
s er
em en
ĠLiber al
Ġconsist ing
Ġinv asion
M ost
M arch
Ġdyn asty
li est
ĠWh at
8 3
s et
ĠPh ys
ĠColomb ia
Ġad apted
Ġposs ibly
i ac
=" #
Ġ4 00
og an
Ġs ale
Ġqu ite
ĠH ere
Ġw ealth
ĠK evin
ĠU N
h ard
l ong
re p
Ġres erv
incinn ati
ĠThe n
ĠL in
ĠMet ropolitan
II I
gr ade
y g
ĠBrazil ian
Ġro utes
ĠI ron
6 1
Ġmer ch
Ar ch
Ġgr ass
Ġpartn ership
us al
Ġin aug
y st
ĠAdminist ration
uk i
Ġro of
ĠD C
ĠD eb
ĠAtl anta
Ġpasseng ers
Ġfle et
he el
7 4
ĠH op
Ġext ension
le ans
ĠAthlet ic
ay an
H er
ĠH ug
196 9
ann ed
ou ver
Ġregard ing
ĠPu erto
Ġre ign
Ġprov ed
os ite
Ġtra v
ond er
ĠKn ight
h r
Ġpar alle
ĠTai wan
ĠF ern
ĠBr uce
Y ou
ĠB ull
Ġtemper ature
p les
ĠRoman ia
s ong
ĠRog er
Ġsc enes
Ġinst alled
ĠSam uel
ĠMc G
ĠF all
as a
Ġ6 4
ĠM em
ĠK arl
ug ar
ĠS ac
h aps
Ġestablish ment
Ġcon ce
z h
ist ant
Ġpat ients
uc ks
i op
Ġoper ate
ĠCh ampion
Ġp ione
Ġdesc ription
Ġadj acent
k ee
Ġs ust
ĠD ance
ĠR ol
ival ent
Ġhead s
Ġtransl ation
ir us
Ġh air
ĠSk y
inist ers
Ġworld wide
ĠFred erick
p oint
ĠIndones ia
Ġinvestig ation
Ġsh all
Ġcomm it
Ġentire ly
Ġb an
u its
Ġf aced
Ġr ise
ĠV ar
ĠB illy
8 1
H istor
ĠInd ians
ast ery
ĠR ain
ĠAm b
ĠJ ordan
Ġneigh bour
f ile
et ry
ĠA le
J ames
ĠStew art
ure au
Ġc rown
ash i
t ing
Ġa id
Ġse lection
Ġcompos ers
Ġdevelop ing
ĠF ac
ĠE arly
Ġ4 1
Ġem phas
Ġcr iminal
is d
Ġapp eal
20 21
l ay
Ġf lying
ĠM aur
Ġfund ing
ou stic
Ġal t
ust er
ĠG iants
s pe
Rec eption
Ġw atch
ĠP a
Ġjoin ing
ĠHar vard
Ġsubs id
ĠHamp shire
re te
Ġw aters
Ġcaus es
Ġed ited
y ll
Ġinvol ving
ĠS n
ĠT un
ĠL as
is f
Ġgr ad
it als
Ġan s
ĠSe attle
ĠRang ers
Ġgreat est
u y
7 9
Ġse ems
ĠV enezuel
ĠOper a
Ġres erve
Ġinc orporated
e qu
Ġfoc used
ĠM ission
Ġv oted
Ġed ge
Ġinj ured
Ġequ al
Ġreg iment
ĠM icro
P art
S ch
ĠG ran
ĠF A
Ġd ates
Ġres ear
8 2
ĠY outh
ra structure
Ġinters ection
Ġmag n
Ġchampionship s
b ridge
ut ation
ĠE ven
ĠR yan
c ussion
om y
7 1
yth m
Ġbelie ve
Ġsub urb
Ġc atal
ĠPal ace
ocr atic
Ġg etting
ĠSing h
Ġbro ken
Ġt ask
ition ally
ure n
Ġvol unte
ra k
Ġtransl ated
Ġd uty
6 3
Ñ Ĥ
Ġfund s
B el
ĠPet ers
ĠMor gan
Ġanim ated
Ġstreng th
ĠS ox
ĠHol lywood
ol ly
n ia
ĠBroad way
R C
unc redited
Ġresident ial
Ġm ales
ĠL iver
Ġfact ory
ĠN ob
ĠH orn
r un
P aul
Ġrequ est
ĠHer itage
Ġlead s
as ure
ink ing
Ġnick n
Ġeng ines
Ġm arg
ĠBl ues
ĠDen mark
ĠEx ecutive
Or der
ch i
ĠOr leans
Ġc ourses
196 7
id el
ĠB asketball
B ur
Ġ189 0
in ter
hemat ics
Ġd a
ĠA BC
ĠDef ense
Ġsc ale
n i
Ital ian
ĠD allas
Ã ´
ĠH om
ĠR ound
ĠB omb
P ort
Ã ¥
Ġm ent
ĠF und
ail and
f e
ĠG on
Ġspec ifically
Ġform al
Ġprom ote
Ġrail road
- -
Ġexpress ed
ĠB eck
ĠTam il
ather ine
R ich
ĠV ik
duc ational
Ġexper ien
ĠYear s
aval ry
Ġres istance
Ġm ist
Ġp rice
ĠS ee
Ġstand s
ĠMount ains
ĠP ur
h op
Ġcross ing
Ġdiv isions
Ġp ed
Pop ulated
ish ments
ĠBo x
Å Ł
ĠD et
Ġinv ited
Ġregard ed
Ġg ets
ĠL l
Ġr ivers
ĠGr ant
ĠE ver
Ġch ain
Ġrul ed
ĠHung ary
Ġw arn
ĠWalk er
ĠF il
ĠEd inburgh
Ġbehav ior
ĠD anish
fer red
Ġtra ined
Ġex erc
Ġtri es
ĠAg ain
ĠPl ace
ĠL ower
Ġcerem ony
T S
Ġsing ing
ĠRuss ell
A ugust
t hen
Ġreturn s
ĠDe an
anc ouver
Ġsched uled
Ġcon vent
Ġ190 6
ĠB art
g ow
en z
ĠUt ah
ĠR ow
Ġch oice
Ġinflu enced
n ers
ĠHung arian
Ġimpro ve
Ġ190 4
ĠCro wn
us hed
ĠB ed
ors es
Ġe mp
aught ers
ĠEn vironment
ograph ics
ĠComm ander
ĠPal est
Ġproduc ing
il k
196 4
am ic
196 6
Ġ ille
Ġexp ed
r ons
u ins
ĠOffic er
ĠBir mingham
Ġrele g
b ound
Ġvis ual
Ġt ack
Ġimpro ved
Ġtechn iques
ĠN CAA
Ġ4 3
Ġfl at
7 3
Ġc ore
clus ion
Ġann ounc
Ġcop y
Ġen l
ĠR ub
Ġs ections
Ġfound ation
c ount
Ġdr ivers
ĠÃ ī
ĠW ard
Ġprote in
Ġdo or
att an
Ð¾ Ð
ĠN A
Ġcateg ory
E p
ĠG a
ĠCl in
U C
Ġsymb ol
ort on
ovak ia
Ġact ual
ĠF urther
Ġsom ew
ĠD ue
Ġl at
er r
194 0
ĠD al
ĠAnd re
Football ers
Ġdescrib es
Ġchem ical
Ġsup erv
Ġent ertain
or er
ent ially
Ġsur g
Ġh our
FF FF
Ġfa ith
Ġexhib ition
Ġ190 9
ĠV ic
ĠRep ort
Ġguitar ist
Ġuns uccessful
ĠT reat
P C
ĠCamp bell
ro c
Ġopportun ity
S I
ĠBrook lyn
Ġse lect
Ġdet ails
In ter
P res
R ed
Ġleg end
oc a
Ġground s
Ġ190 5
ĠY ank
am an
Ġsurn ame
ish ment
cycl op
Ġimport ance
ĠR ights
ĠN atural
Ġemploy ees
int end
ĠC are
Ġd ivers
Ġviol ence
c i
Ġ5 1
ins ula
ud i
ter ed
Ġsurv ived
ĠFin land
Ġeas ily
Ġcompet e
ĠL ov
Ġ6 5
ĠG ill
Ġg ang
Ġs ell
ri k
Ġs qu
Ġcle an
Ġbott om
Ġv ide
ĠV ice
' re
ĠP atri
ĠKel ly
Ġ190 7
Ġw itness
Ġs ession
Ġrepe ated
194 5
C rit
d r
ĠB ush
Ġsy nd
Ġadm itted
ĠMarg aret
Ġf ictional
196 5
duc ing
ĠDis ney
ĠOtt oman
Ġw eather
ĠM es
ĠJohn ny
Ġcont rolled
GB T
Ġar med
ĠH end
Ġind uct
ĠB ase
Ġpaint ings
Ġbel ief
W orks
ell ite
Ã¶ r
ĠH ell
ĠAlf red
ĠPro duct
Ġqu ant
ant ly
Ġe ye
ĠJos Ã©
6 9
ĠN av
ten ance
ĠAust rian
Ġlim it
Ġ5 2
d y
Ġcomb ination
Ġim ages
ĠJim my
O N
Ġag ency
Ġgradu ate
Ġt ennis
Ġro oms
ann els
ĠVol ume
ann e
Ġtyp ical
on ian
Ġa er
r ong
e lection
Ġsequ ence
Ġstr ateg
Com mun
Ġg ain
Ġear liest
Ġapplic ations
Ġsouth west
os m
ter y
ph a
ĠL ane
ĠV ers
ĠL et
Ġop in
ĠAg ency
ĠNor man
mph ony
se a
arg o
Ġsk ills
ĠW ol
ĠK now
ol ia
ĠPre fect
ĠAlex and
b i
M c
ĠRob inson
Ġ ri
Ġown ers
Ġregular ly
a ire
h ost
Ġso le
ult an
Ġd ies
og ether
Ġrepl ace
igg est
Ġcl imb
Ġcharg es
Ġex act
Ġg arden
Ġ ;
f ish
ĠAd ams
ĠAb out
ĠN ord
Ġob jects
Ġlin k
ĠMet ro
Ġelect ronic
Ġj ump
rop s
J ew
ĠK o
ah a
Ġdoc uments
ĠW oman
ĠKenn edy
Ġk id
ĠPrin cess
um in
V ill
Ġadv is
Rober t
Ġoff ensive
n ot
ĠGl as
edd ing
Ġter ror
act or
in ian
Ġret ail
Ġz one
ran g
Ġdist ributed
ĠR and
Ġadv ance
Ġproduc ers
M P
Ġc aught
Ġcour ts
Ġthe ater
Ġaccom pan
ĠStan ley
20 22
ĠCh all
Ġview s
ĠS ud
Ġ5 5
f inals
; "|
ĠLeb an
ĠAust in
Ġcomp osition
om as
ĠThom pson
ĠBang l
f inal
Ġan cest
le te
et on
Pro duction
Ġs ave
go ing
ex ual
Ġoper ates
ĠW right
Ġit ems
ĠGu inea
p i
Ġaccom mod
ĠD yn
Ġun iform
ĠDer by
Ġcon cluded
Ġv eget
Ġ15 0
ĠMor ris
I f
ĠG ary
ĠPe ace
ĠCent ury
Ġred uce
os ure
ĠC rit
ĠColon el
ĠK an
Ġsub stant
Ġpurp oses
ran ean
ĠBet ween
Ġnot ably
Ġa x
Ġarg ued
or row
ĠS occer
Ġpro ced
ĠTh ailand
Ġarch ae
ĠAthlet ics
m ont
Ġin form
aw ay
ĠN BA
Ġm ine
Ġro b
h ab
Ġp ool
Ġdisestabl ished
E S
Ġpurch ase
et ime
á »
Def unct
Ġon es
m i
Ġ4 7
writ ers
Ġste am
Ġre ally
d o
ĠF ive
ĠP ad
Ġrest ored
Ġterm inus
ĠL am
Ġhum ans
aw are
if er
ĠBar ry
ĠPer u
Ġs oci
ĠL ocal
Ġadv oc
Ġr ich
Ġte en
T wo
Ġt ank
Ġf ine
Ġd ie
ĠT ak
el ess
ĠC atal
ĠAss oci
ĠCol lection
ĠLiver pool
Ġpen al
Ġcred ited
L ater
Ġclass ic
Ġcor por
Ġneg ative
ĠF el
ĠCo oper
Ġpers ons
od a
Ġsevent h
Ġrev olution
A ir
ill o
ĠS hip
Ġup d
ĠOper ation
ot hes
ĠTh ough
ro t
Ġme ets
ĠGl obal
c ing
ĠS af
Af ric
ett a
Ġfranch ise
Ġb atter
Ġ190 2
is hers
Ġcon sequ
Ġpresident ial
ĠS aints
ĠV ideo
ĠP C
Ġinter ests
Ġcall ing
ĠChrist opher
Ġgood s
Ġst ating
ĠO ur
et a
Hon ours
Ġre ality
Ġinit i
Ġopp osite
ĠF ather
Ge orge
Ġmag azines
Ġb ran
Ġcl in
Ġsepar ated
ĠN ash
ĠU pper
Ġpublic ations
ĠMark et
St ation
Ġinterp ret
m illion
Tax a
ĠWay ne
ĠR y
Ġmom ent
ip h
Ġv eter
cept ion
wh o
D P
ĠVi enna
Ġde leg
ĠR abb
Ġ190 3
Ġacc used
Ġrece pt
ĠF ried
Ġcon qu
Ġcol our
ĠDon ald
Ġres idence
193 0
Ġw ings
Ġstand ing
ĠE very
ĠBern ard
ĠW a
Ġpaint ers
Ġ4 6
ĠN elson
Ġdam aged
Ġunivers ities
Ġth ick
ĠCar ter
Ġphil osophy
ĠEv ans
M al
Ã «
Ġsub mar
ĠM ethod
ĠY ugoslav
Ġf an
Ġm olec
fess ional
ĠFrank lin
Ġkil omet
f are
Ã© n
Ġfav our
ĠR ap
ĠCo le
ic it
op al
Ġide as
ĠG ulf
Ġval ues
ĠBroadcast ing
l on
ia h
ĠJoh ann
Å ¾
P re
ĠSt ars
ate gy
Ġd uties
C al
Ġaff ected
ind ing
ĠSat urday
Ġp itch
J une
Ġfl u
Ã ł
c at
Ġinter ior
com ing
Ġjur isd
ĠC hen
ĠTra il
Ġch ose
Ġstar red
ĠV erm
Ġphot ograph
ac on
ĠN ative
ir i
Ġob tain
196 2
Ġdec ade
Ġcost s
Ġshow ing
Dem ographics
Ġa f
Ġw orth
ul us
ĠTro phy
ren e
Ġdev ice
ĠMil an
Ġm ilit
Ġ188 0
196 3
f olk
Ġcoast al
A thlet
ĠSh ah
Ġint elligence
ĠOn ce
Ġsec retary
ling ton
Ġcol leges
Ġprot ected
Ġsecond s
ĠCh art
Ġm ort
ĠSup port
Disc ography
Ġprov incial
l ie
f eld
Ġdis miss
Ġm us
Ġrece ption
ĠC ulture
iel der
Ġstat ement
Ġimpr ison
ĠH unt
Ġut il
ac le
B ra
Ġcolon ial
at ures
O ctober
Ġst ret
Ġatt ached
ĠC ass
ĠCon stitution
amp s
iv ated
Ġdis pl
Ġdra wn
ĠC her
Ġwh y
Ġnot hing
Ġret ained
Ġdid n
Ġann iversary
Ġt all
ĠV ancouver
ĠR an
Ġ190 1
Ġex amples
Ġre ferences
Ġe yes
E P
d ers
ĠC incinnati
Ġcharg ed
al ia
Ġown ership
Ġcandid ates
Medal ists
Ġfl o
Ġlook ing
Ġper cussion
ib l
Ġtri p
v ant
ĠF ight
l ig
Ġpubl ishing
I P
C ons
ĠMur ray
h t
Ġst ood
ĠM all
ĠE nergy
ĠTra ining
Ġcom ed
ĠM ix
ab ad
ĠAuthor ity
ĠJ ose
Ġdesign s
Ġb ond
Ġass umed
Ġadvant age
ĠCam er
ĠTh us
Ġdown town
Ġb ed
A pril
Ġb ra
ĠCat hedral
Ġregist ered
Ġcontribut ions
Ġis ol
Ġfact ors
Ġre action
ĠJ azz
Ġt ick
p ower
% ,
it able
Ġinstr uments
il st
ebr aska
Ġf est
ĠDi ocese
ĠA y
M usical
Ġa w
Ġun f
Ġcapt ure
ĠM ans
ĠTr ade
Ġte achers
h attan
ĠM ap
Trans portation
ĠD aily
pro fit
ĠUn it
ĠCh amber
Ġcoach ing
O C
ĠC ricket
ĠD ub
Polit ical
wh ite
ĠGra ham
Ġcy cle
Ġfinal s
Ġfr uit
ĠUp on
Ġkey boards
Ġd og
c ia
ĠS everal
ĠLegisl ative
Ġus ers
ĠI an
ibb ean
d in
ĠB ureau
iform es
ĠGu y
Ġsound track
Ġw ounded
ĠJ ason
l ock
eg as
Ġch ance
ĠB urg
N ote
ĠL ithuan
f iction
Ġmot ion
Ġstop ped
ĠH old
Ġcomm itted
ĠL ib
in ces
ĠGr ay
ĠMot or
ĠJ un
Ġpri ze
ĠMarsh all
Ġb udget
eng er
os aur
? "
ren a
ĠMay or
ĠR acing
ĠDak ota
Ġn or
Ġequ ivalent
ĠSt eel
c ious
ĠSt ri
Ġhost s
196 1
M C
E v
ĠAll iance
Ġc ous
Ġem ot
Ġdr iving
ĠS C
ĠConf eder
Ġf ired
Ġb iggest
ass ador
ĠBor ough
Ġgr ant
ĠD J
S U
ĠCE O
Ġch air
v i
h u
ett y
Ġarran ged
Ġparticip ate
Ġrun ner
r m
Ġpra ised
Ġhe at
iter ranean
Ġse ed
amm als
ĠM ond
ĠSar ah
ĠAnd y
ic ial
ro d
ĠK u
ple te
apt ist
Ġreject ed
Don ald
Ġland ing
e enth
Ġgen era
Ġcover age
ĠAn na
ĠE mer
ĠCon vention
ĠSec ret
Ġdiv or
ĠAg ric
Ð º
Ġdeg rees
ar us
Ī Ĵ
Ġprison ers
ĠP sych
Ġhead ed
Ġpol l
ĠFle et
Ġdeliver ed
Ġmin ing
he me
Ġpeak ed
uz z
ĠAlbert a
Ġextrem ely
Ġcirc um
u ador
Ġarr ival
Ġass ass
J uly
Ġv ary
orn e
ĠSe ason
Ġm outh
N C
Ġmed icine
Ġmiss ions
m aster
Ġs elling
Ġappear ing
S eptember
Ġst orage
Ġqual ified
ĠCommun ications
Ġcomp ut
S im
ĠM L
ĠCarl os
Ġcollabor ation
Ġsugg ests
h ill
195 9
Ġch annels
ot ype
A ng
ĠP age
Ġun us
ob by
b at
Ġs un
Ġst ages
ĠIn vest
Ġdep end
Ġsyn thes
Ġcar rying
E m
ro ck
ĠMed icine
ĠCar n
Ġrepl acement
Ġd oll
Ġt ur
Ġmy th
ĠN HL
Ġres ign
ĠC A
iv an
ĠT ower
Ġshe ll
ess ions
ul um
Ġdesc end
Ġn aval
ĠN ever
ĠGlas gow
T own
195 8
Ġatt orney
ĠBl ood
b al
ur ers
ffbb bb
E D
Ġso il
i ors
Ġfre edom
M unicip
Ġf alls
Ġren ew
Ġpict ure
iv ia
ĠM ess
ĠU EFA
ĠJ erry
ĠMad rid
Ġother wise
ĠL uther
ĠCommun ist
as hed
Ġjourn ey
Ġdesign er
Ġ *
ok a
Ġb anks
Ġn om
Ġadapt ation
Ġmed ieval
oen ix
C ities
Ġlin ked
ĠS ongs
Ġcar bon
ien cy
Ġa str
ĠR io
Ġmount ains
ĠB eg
Ġh ur
Ġf rog
Ġdo ct
ik o
inc orporated
ĠH as
Mich ael
Ġm anga
ĠCub a
ĠM ind
ĠBuff alo
Ġb it
Ġaud io
ĠR ena
Ġexecut ed
att ers
ĠF ood
Ġconstitu ency
ĠM ack
ĠCard inals
Ġa head
Ġassist ance
v ia
r ub
av an
O per
Ġt ied
ĠAm az
Ġweek ly
are st
U p
R o
Ġin her
is ode
ĠB ible
ĠUk rainian
Ġexpl os
Ġclass ified
Ġext inct
Ġexperien ced
Ġsignificant ly
ri x
Ġcap able
ĠMar ie
Ġor chestra
om ing
ĠT ob
Europe an
ĠBr istol
ov o
P ost
Ġb orders
ater n
A pp
ĠE qu
St ate
pp ing
Ġlearn ed
re leased
Sp anish
ic ate
Ġpo em
ĠF alls
Ġlegisl ation
ĠAfghan istan
Ġfact or
uk a
Ġprot est
Ġnewsp apers
ss on
um i
Ġsub d
Ġbusiness man
forman ce
Ġe lement
Ġ5 4
l ater
Ġev olution
h aw
ri el
Ġjust ice
Ġcollect ions
Ġus er
Ġcons ervation
Ġmanufact uring
ĠArk ansas
P al
R adio
Ġcommun ication
Ġc up
195 7
ĠPrefect ure
Ġam ateur
ĠCo ok
Ġl ov
Ġass ault
Ġrequire ments
ot an
ĠG riff
ĠSerb ia
G l
abl ed
O M
Ġl iqu
Ġstay ed
ĠThe ater
spec ies
S ir
Ġan ch
it ime
Ġdra f
im m
j amin
Ġs ed
am ents
) )
N or
Ġaccom pl
usal em
Ġco ordin
ĠO range
ĠPrim ary
ĠM aj
Ġbelong ed
ĠColl ins
ĠA qu
Ġstre ets
ĠSc ient
Ġsuccess or
ĠArmen ian
Ġd ating
ĠB ud
Ġacc ur
Ġc atch
Ġcover ing
Ġp hen
ĠEd ition
it ars
ĠB aker
ĠCh airman
Ġpain ted
y les
ĠD NA
ro ke
Ġb rain
Ġmembers hip
ĠEn t
ĠB rew
w inning
Ġprep ared
at che
tt ps
Ġ189 8
ĠA ld
ĠF ab
Ġ vert
ig s
ic us
ĠB enn
Ġfr ag
Al umni
ĠL ions
ĠRich mond
ĠPar ish
ĠK r
Ġshe l
ach t
ĠA R
ĠR ot
C urrent
Ġin stitution
Ġaccompan ied
B us
Ġdel ay
ĠMain e
ch ang
ĠMunicip ality
Ġrestaur ant
195 6
Ġdem and
res ents
195 5
ĠA P
ph one
ĠBangl adesh
ĠR est
cast le
a ired
duc er
ĠC hem
ĠS ite
Ġmed als
Ġsc heme
Ġl ists
Ġvide os
re hens
Ġpopular ity
ĠM other
amp a
Ġsever e
t op
w eb
Ġparalle l
Jan uary
Ġshoot ing
Ġtest ing
Ġexpress ion
or ial
ĠP un
c m
Ġsk i
th a
ĠS oul
Ġfilm ed
Ġtrad ed
Ġstr uck
iss ue
ĠSy mphony
Ġsub jects
. âĢĿ
ĠU C
ok ed
er i
ĠN i
C ount
com mun
ĠCons ervative
Ġapp ropri
ĠSal v
Dec ember
oth y
ĠReg ulations
Ġpre ced
oph one
Ġf ishing
ak u
Ġdi agn
M od
ĠK on
Ġmeas ures
ct ic
Ġoccup ation
ĠM eg
ĠIn s
ĠCh and
Ġpit ched
m und
Ġpl us
ĠP rom
Ã¨ re
d oor
ĠV el
Ġent ering
Ġseg ment
Ġh ang
ud son
Ġstr ing
ĠJud ge
ef ef
Ġjud ges
ĠN on
ourn ament
Ġag encies
as p
Ġmin ute
ĠCharl ie
Ġorgan isation
od ge
Ġrough ly
Ġinf rastructure
ar io
ur u
ĠR ud
ĠSev en
Ġdeterm ine
R ussian
Ġper haps
S W
ĠNov a
ĠPort land
ĠG ib
Ġbran ches
ĠN ebraska
ĠH unter
! "
Ġdefeat ing
ĠProt est
Ġm ines
Ġf illed
St ud
W ar
Ġ187 0
Ġking dom
Ġb on
Ġdif ferences
Ġpo ets
M I
Ġflow s
Ġ5 9
ĠAng l
st ery
udd en
Ġg olf
ĠE ss
Ġin sc
ĠClass ic
ĠMan hattan
lo ad
ip er
Ġinv ent
r ations
ĠGl en
ĠB ranch
ĠD og
Ġf iled
Ġrom antic
Ġd aughters
b oy
ĠP ack
op es
oc ol
Ġbroadcast ing
ĠEc uador
F l
Ġpract ices
Ġd im
Ġc old
ĠH it
Ġpl ate
Ġp ian
Ġ189 9
ĠCont rol
ĠL ud
193 9
ĠP ant
ĠS i
keep er
Scott ish
ela ide
est yle
Ġte x
ier ra
Ġrep resents
ub b
ĠHawai i
Ġw ine
ĠF itz
is ations
ush ing
h us
Ġdif ference
Ġoffer ing
ĠL ad
ĠA er
ĠĠĠĠĠĠĠĠ ĠĠĠĠĠĠĠĠ
Ġcont ext
Ġ5 3
Ġsk in
Ġm ac
ĠDep uty
ĠNaz i
ĠS ign
ĠRoman ian
ĠMit chell
ag ar
os ph
ĠSpe ed
Ġw ave
ĠWar ren
id o
ug s
Ġc ited
Ġterrit ories
Ġcelebr ated
or ous
ĠElect ric
ĠCan al
ĠDef ence
Ġvess els
Ġenc ounter
Ġsign ing
Ġpenal ty
st ances
Ġ ign
en berg
m ate
Ġrepl acing
Ġdest r
Ġswim ming
ĠH um
ir ation
ĠPh ot
Ġlic ense
Ġs now
Ġtechn ique
Flor a
Ġtransport ation
Jew ish
let t
ĠWind ows
I m
app ing
t ure
ĠAl aska
ia st
Ġloss es
ag s
ĠCar ibbean
B irds
ty pe
ĠArch itect
Ġrespons ibility
ĉ Ċ
Ġauth ors
Ġ rif
aj a
Ġtem porary
ĠD raft
ĠE sp
D S
Gen us
st own
ĠN ation
Ġnot e
Ġchap ter
Ġsan ct
D C
ĠA T
Ġinter ested
Ġrest rict
ĠVenezuel a
ĠSing les
Ġconcern s
M ark
p re
Ġsur re
our g
Ġw or
J os
19 20
ant ine
is b
ĠM ong
Ġcritic ized
ĠLim ited
D F
End emic
Ġcon gress
Ġdem olished
el lect
ig o
Ġmet ers
ĠS id
Ġ189 5
Ġs quadron
ul u
ir k
ĠL ost
ĠF rid
ĠNor folk
194 2
Ġinj uries
Ġpl ane
Ġelev ation
ĠNev ada
Ġeven ing
ens on
ĠHind u
ĠT ol
m osp
b rid
Ġjournal ists
S econd
ĠL ock
Ġag o
Ġens ure
ĠR ico
Ġs ax
em e
Ġunder standing
mer ce
Ġwe ak
forc ement
Ġsup posed
Ġscient ists
Ġhor ror
Ġ189 7
u in
Ġc ards
Ġrel ative
en eg
Ġ1 20
ley ball
Ġleg s
Ġcred its
ut ions
Ġj unction
ĠC ensus
ĠF ull
er k
Ġsh ut
h and
Ġasp ects
ict ions
ĠZ one
Ġcricket ers
Ġspirit ual
f amily
ĠA ber
ĠJer usalem
195 3
ast s
Ġche ck
Ġmod ified
Ġinvest ment
Ġrequ ires
as i
Ġpop ulations
ĠMic hel
Nov ember
Ġtrans ition
W eek
ĠL anguage
ĠD ays
Ġtra il
ĠC BS
Ġhousehold s
Ġcomm emor
W A
le an
Ġexper t
ĠEx t
am er
ĠW or
ĠN ep
ann er
Ġoccas ionally
ful ly
Ġcrow d
Ġpolic ies
M L
Ġan ime
is ition
Ġal co
ĠC art
ĠJ ama
claim ed
Ġportray ed
as m
Ġhelp ing
ĠS ask
enn e
ĠAn ti
ath y
Ġform ally
ub le
Ġquest ions
st ad
Ġ189 6
f efef
fefef e
G allery
Ġsomew hat
Ġschol ar
Ġf ixed
ĠL uis
N orthern
rib ed
ĠFinn ish
op eration
h ai
Ġac oustic
Ġwood en
ĠAbb ey
Ġbe ach
ĠS S
b ird
Ġre un
ĠD igital
Ġinc orpor
Ġconv icted
Ġfrequ ency
ĠM i
ens es
ĠSp irit
Ġexist ed
Ġjob s
Ġn one
ry pt
or o
Ġmain tenance
Ġcontrovers y
ĠEx p
ĠJ enn
Se ason
E T
Ġdep os
ac o
ad ers
Ġvict ims
at ically
ĠPict ures
Or gan
Ġcomp onents
phib ians
al ph
ĠPri or
Ġchall enge
M ale
ĠKe ith
Ġm ile
Ġcred it
og le
ro v
ow ell
al is
art ing
ac re
ĠTrans port
Ġsold ier
em ale
Ġadd ing
Ġher itage
Ġm ob
so ft
p ent
Ġinn ov
Ġw rest
Ġvol umes
Ġentertain ment
ang ered
ĠK it
Ġro se
ĠSen ator
ij i
Ġdebut ed
D an
for ce
ĠBelg ian
ĠB ass
Ġagric ulture
Ġindic ate
ress es
Ġbe ar
ĠL iving
ĠP av
Ġs uff
ĠL P
ĠN eg
ĠMe an
om on
Ġdev ices
ĠL arry
Ġth in
ĠTer ry
Ġm emorial
iv ation
195 4
Ġbound ary
ĠO bl
ĠCap ital
Ġcomplet ion
ĠH ig
Ã¼ n
Ġspe ak
Ġthous ands
ĠMod el
Ġ5 6
Ġlicens ed
ot al
Ġpol y
ud es
ĠPark er
m usic
Ġabs or
Ġpo ems
ĠR av
Ġinter change
Char ts
Î ±
st ers
Ġpit cher
L P
u art
Ġv ic
Ġclass ification
gress ive
B M
iction ary
w ig
z z
Ġcom ics
Ġl ap
194 8
ul ner
Ġplayoff s
k now
Ġm obile
ĠSt age
h arm
Ġpr ime
Ġexped ition
ĠCh ang
ĠProfess ional
ĠTe le
ing en
Ġcritic ism
Ġin fl
Ġsurround ed
Ġmov ements
Ġto w
ĠDr ive
ĠSpr ings
ĠR ef
Ġr ates
Ã ª
Ġbatt les
Ġs oul
act ical
eop les
Ġsh ares
ie ge
in ate
Ġwhe el
195 2
ĠF ighter
T reat
ĠI v
ĠRob in
Ġpremier ed
ĠLank a
h ttp
Ġman ner
or p
ĠF isher
Ġr ating
Ġsent enced
ot ton
H A
m ates
ĠN et
Ġp apers
194 4
ro duction
195 1
Ġman usc
Ġ188 5
id ad
ĠBarb ara
ĠM A
Cl ass
Ġcr ash
ri or
Ġre nd
Ġdec line
ark ed
Afric an
b ow
Ġgro wn
ĠMov ement
ĠP ra
re z
T om
ann i
og a
Ġo ption
ĠSt ra
194 6
rick eter
ĠAd elaide
ĠM ak
Ġaff airs
ĠW restling
erb ai
L ou
born e
Ġprocess es
ĠN am
te enth
ĠS r
ĠGre ater
ang erous
ĠCost a
Ġlong est
Ġcan c
ĠAl bum
Ġel der
Ġc risis
ĠTurn er
Ġag greg
194 9
Ġser ial
ich i
Ġvis itors
ĠN orm
au kee
ina e
Ġactiv ist
Ġh a
ĠI ce
E N
C ap
Ġg a
Ġinstrument al
Ġwind ow
A g
ĠY am
Ġann ually
194 7
Ġform ing
Ġcous in
ĠI van
ĠL an
ore t
Ġsp r
ont in
Ġcontin uing
Ġmon arch
ĠFran ces
Ġelev en
i ere
ĠHar rison
Ġdom ain
ew ork
E lect
Ġsh ore
Th omas
ur as
ĠAdd itionally
Ġstri p
ĠG un
O ut
u ber
Ġchild hood
unn y
Ġdec lined
ĠStud io
re ation
M art
ach i
Ġm ir
Ġrel ief
ĠR AF
Ġprofess ion
f ly
ip ients
ĠMu hammad
b oys
et e
Ġpro hib
ĠC ultural
iformes Family
Ġachie ve
P R
Ġstr ategy
ĠC ork
o om
ĠA rena
ĠPolit ical
ĠOrgan ization
S O
Ġturn ing
ĠP il
os hi
ge on
Ġart illery
194 1
R et
Ã³ w
ĠWar ner
Ġlast ed
ĠLe eds
Ġsome one
Ġ189 2
il ia
Ġcount ies
Ġd ream
ĠPier re
us ing
ĠOl iver
T our
f oot
ĠSystem s
ĠN ature
ĠEn cyclop
ĠArch bishop
Ġext ens
Ġrele ases
ster dam
Ġ189 4
iz ations
he red
Ġdraf ted
Wh at
Wh ite
ament al
former ly
Ġd anc
ĠC hel
Ġra ise
ĠN BC
Ġinst ance
at ar
Ġm ig
Ã¡ s
Vill ages
ĠMed iterranean
Ġpubl isher
ul i
Ġmiss ed
an ian
ĠTr inity
k ov
Ġcirc uit
F ictional
ĠDr agon
H z
and al
ĠFl oren
on ies
b ody
Ġdisc ip
cer ts
Ġplatform s
R oyal
Ġperson ality
ĠS um
Ġph r
C he
o ft
R ock
w aukee
Ġh uge
ĠArab ic
Ġev al
Ġd ated
Ġ186 0
Ġcomm une
Ġrep utation
Ġf ram
Ġf ighter
Ġhistor ians
Ġremain der
bre ak
Ġm ental
Ġequip ped
ĠVictor ian
Ġinvol vement
Ġwithd raw
if ican
ro ph
Ġplan et
Ġcent ers
Ġconsider able
Ġfind ing
Ġhel ic
Ġdise ases
ann on
Å Ħ
ĠH orse
rib ute
ue z
ĠAl t
Ġsu icide
ĠB ird
il ty
Ġt ell
ip per
ĠT ang
ro at
ĠOn line
c ks
H en
Ġliter acy
om p
Ġmon ument
al se
ĠKir k
Ġfl ed
ifican ce
193 6
ef ul
Ġbi ography
Ġim ag
Ġw arm
ĠM ult
ĠS yn
ĠU nd
à ¦
ic on
v ision
b ie
ric ane
Ġpr on
ĠR ace
Ġmess age
Ġf ear
rac ts
ĠBob by
Ġdep uty
ĠSt orm
Ġreb uilt
ke ley
Ġathlet es
ĠAt hens
Ġsur f
ĠL ear
Ġunder ground
Ġchap el
Ġpropos al
Char les
ĠK ap
ĠMuslim s
Ġpat rol
ĠD iamond
K ing
Ġex ternal
utt ing
Ġgu itars
ĠL GBT
m o
ĠY e
Ġmark ets
ĠCra ig
Ġdepart ure
Ġdist inguished
ĠNich olas
Ġs leep
Ġ188 9
Ġmod e
Ġegg s
Ġl es
ĠCh ron
Ġs olution
ri pts
ĠPr adesh
ĠArgent ine
F ebruary
ĠT as
Ġsusp ended
Ġven ue
Q ue
Ġsec ure
ĠEth iop
Ġhappen ed
ĠG ot
ĠC row
Ġopin ion
The y
ĠCl ay
Ġjurisd iction
193 7
194 3
ĠAv iation
H ung
ff ield
ĠShe l
Ġn av
ĠCon stant
Ġs ort
Ġ189 3
ĠEc onomic
In t
ok o
Ġsw it
verse as
oun sel
Pro fessional
ĠE ug
ĠHe b
' ve
ĠPr incip
Ġinflu ential
Ġflow ers
ĠE ston
L ive
ra ham
ew here
ĠS ultan
ĠV as
ĠPl ant
p m
Ġd rop
ĠG round
Ġresc ue
Ġint ent
d ist
Ġchang ing
Ġemer gency
Ġviol in
cel ona
ĠT ype
Ġspok en
Ġass ign
M e
n ik
Ġpar ks
Ġl ieutenant
ow ski
Ġc ool
Ġg ather
.... ....
ĠK um
c alled
p op
anc ell
Ġinn ings
ĠUr ban
it ects
ĠB ey
ĠM aced
ĠComm ons
ĠB uch
ĠSerb ian
Ġille gal
ĠH udson
Ġbring ing
ĠW W
Ġag ents
h um
Ã¶ n
medi ate
Ġh ip
Ġ5 7
Ġexc ell
Ġf old
Ġ5 8
Rec ipients
Ġar c
ĠSh a
Ġ6 6
ur st
i ya
ĠS ide
Ġrem ember
Ġr ide
ĠIs a
ĠP ast
Ġor ient
E L
ĠR oll
ĠAl ice
Ġ( ).
Ġphot ography
ryst al
Ġt ie
ĠBar n
ĠC elt
T ur
ĠEag les
Ġoccas ions
Ġthe at
ĠS now
O ld
Ġd ub
J ust
Ġp ip
C onn
Ġse es
Ġres id
ĠJon athan
Ġo d
Ġd ig
G old
ĠChall enge
et ween
we ep
d est
Ġem igrants
Ġh orses
ĠAdm iral
" ;
ĠTr ack
. '
Ġf ile
Ġb es
Ġg ay
19 18
on na
Ġcam era
Ġn ations
Ġsurg ery
3 00
Ġun cle
Ġdeb ate
Death s
ĠH av
ul ating
ĠPh oenix
Ġqual ifying
Ġ1 000
ĠF ace
S l
ĠIran ian
er ia
oc ument
Ġart istic
az e
V ol
hol m
ĠVin cent
Ġmo ist
Ġ186 5
Ġ186 1
l ane
Ġle agues
ĠJ e
193 5
Ġ189 1
ĠL ux
ist ical
Ġhon ors
Ġte ach
Ġpercent age
Ġtre ated
ric ted
Ġp od
ĠBen jamin
ĠFre edom
Ġcontrovers ial
Ġden ied
Ä «
I reland
ag ers
oc c
in ations
ĠS outheast
ĠDen ver
Ġres emb
ĠP i
Ġw at
ap ped
en os
Film ography
ĠTerrit ory
l ar
ĠP in
it is
m at
Ġprin ted
M ount
Ġany thing
Ġhon our
Ġelim inated
ĠC ob
ĠMar s
ĠSm all
ĠRepresent ative
at ra
it ations
el i
Ġadop t
Ġprom pt
Ġsw itch
ĠB und
Ġvess el
ĠT ib
193 8
ĠCharl otte
ĠLl oyd
ĠM D
ĠF if
b ul
Ġfr ame
ĠT ech
Ġsurv iving
Ġd ensity
ĠR ic
c os
T op
ĠP le
ĠT ournament
ĠSer ge
Ġlaw yers
ro se
ĠB ath
ĠJos h
Ġt ribut
ĠG rey
M ont
ĠAct ion
Ġappoint ment
ĠMon te
ĠSecond ary
Ġt ests
Ġmin imum
ou ch
C y
ĠG oth
Ġacc ounts
Ġval id
Un ivers
Ġoper ational
Ġinf antry
Ġweap on
Ġnet works
ect ors
ing ly
ĠC ode
ĠMag n
Ġpres erved
ĠV I
ĠEd die
Ġind icated
Ġgen e
Ġrel ocated
B ig
ĠDel hi
ĠP el
b acks
L and
ull ivan
Ġbu y
Ġad ults
G o
f ielder
Ġto ols
Ġdisestabl ishments
ĠEx per
ĠSt re
Ġexpl ained
Ġmarket ing
ellect ual
ch t
Ġfest ivals
ĠHol land
if ted
p ers
ol ar
Ġro ut
ĠM ann
osp itals
ĠF ine
ot yp
Ġ eth
Ġg rey
Ġconc rete
ĠEgypt ian
ship s
ab ilities
ĠJ oy
Ġcl an
Ġper fect
ĠMag ic
Ġarrang ement
P at
Ġincreasing ly
Ġre pr
Ġw orship
Ġhabit ats
r uit
The se
g om
Ġten ure
ĠAng els
Ġstrong ly
Rich ard
ĠS ad
ĠT on
ĠL ate
Ġ25 0
Ġb ridges
ĠC old
ĠMin or
F inal
ur ring
hel m
ĠYank ees
Ġcross es
Ġtrans m
f ire
Ġex ists
al g
ĠB aptist
Ġsu fficient
Ġe ighth
ĠV egas
Ġpre gn
Ġn urs
Ġassoci ate
p read
H owever
Ġdon ated
Ġexper iences
Ġbenef it
Ġphil os
Ġ7 2
ĠB ert
Ġsett lements
s is
p in
ĠH ope
Ġw ides
ĠD ennis
P eter
ĠAtt orney
ĠVerm ont
uck land
et ition
Ġg one
Ġ186 2
Ġp ric
iz er
ĠF alc
Ġterm inal
ĠJ a
ĠBuddh ist
Ġeffect ively
Ġto ured
ĠP ay
ĠM ick
Ġtem por
ĠBr and
rehens ive
iss ions
G reen
ĠBy z
M any
er ate
ĠO il
g ate
S am
Ġn eck
Ġf urn
Ġcharacter istics
ĠFl ight
Ġbo ats
Ġch amber
ĠChrist ians
Ġcr imes
ĠSo ft
Ġparticip ation
Ġth irty
Ġunder t
An other
is ch
b ut
Ġcons p
Ġperiod s
V P
ĠFriend s
isc opal
m el
t rans
ĠP erson
onym ous
Ġsat ellite
ĠStand ard
Ġtrib e
Ġapparent ly
Ġwh ilst
ĠL og
n ic
en burg
ĠS A
Ġdep ending
Ġass embly
sh aped
ĠCroat ia
ĠM alt
ĠTreat y
Ġcompet itive
Ġf ur
ust ed
ĠC ond
Ġg all
Ġbl ocks
ĠB av
ĠW ang
ĠC R
ter ior
Ġhe ar
Ġtun nel
Ġc able
Ġne ut
rupt ion
Ġsubt ropical
ĠRog ers
w yn
ĠB achelor
od ore
Ġrep air
Ġs udden
Ġunus ual
Ġtrib es
Christ ian
ĠLiter ature
Ġyoung est
Ġa qu
Ġtex ts
ĠH ugh
ĠL ion
E E
Ġvis iting
Ġf antasy
ĠS alt
ĠW es
Ġround s
m aker
Ġat mosp
ĠStev en
inent al
qu ir
Ġap artment
Ġattract ions
ĠV iew
Ġinduct ed
Ġabs ence
Ġvis ible
Ġsaf e
Ġatt ributed
Ġadvert ising
ig ion
Ġw et
ĠPhilipp ine
h aus
Ġfriend ly
en cer
Ġent ers
Ġmon astery
E ducational
ĠAm sterdam
Ġear n
Ġmix ing
ab el
Ġmov ies
Ġ188 8
ĠJeff erson
Ġg ender
Ġas ks
âĢ ł
ĠMc L
ĠC ad
is er
C amp
Ġ186 3
Ġspons ored
Ġwhere as
Ġgreat ly
Ġe at
Ġbeaut iful
ĠM ason
Fran k
Ġ9 9
Ġdep th
ip ped
Ġprocess ing
I M
Ġland scape
ript ions
Ġ6 3
S ong
n an
ĠB uc
ĠG or
c ano
Ġdestr uction
ĠEc onom
Ġrecomm ended
ĠS ic
Ġcele b
er ie
Ġce ased
ar an
Ã ¦
Ġhe n
ĠMun ich
r us
w right
i est
ach ment
ev a
ol en
ĠBr ight
o j
Ġsee k
ĠR overs
Ġ186 4
Ġmass ive
Ġexcept ion
Ġph one
ol ition
s a
Le ague
ass y
Ġrelationship s
ĠEd wards
p ine
Ġw ants
Ġle af
Ġcol ony
' ll
ĠCons ervation
Ð »
ĠR idge
ok ie
Ġwind ows
f ers
ed a
O T
Ġloc ally
ĠH ann
Ġw rong
Ġpred omin
ĠB og
ĠS ig
ey er
Ġv ision
m pt
over y
Ġsat isf
Ġappro val
Ġindic ates
Ġsuppl ies
Ġaffili ated
a uc
Ġmart ial
Ġc inema
as ant
ers et
Ġtrans c
g ame
Ġsched ule
o i
Comp anies
ĠH em
Ġsub species
ĠM end
Ġout put
Ġcon certs
Ġattract ed
ell ion
ĠChristian ity
Ġthem es
sc ar
ĠBr id
and om
Ġrh ythm
lev ard
Ġmov es
Bra zil
Ġact ed
port ed
Ġd rew
ĠBar celona
ĠOper ations
ĠS ay
Ġmuseum s
Municip alities
Ġin ner
ĠS ection
ĠN at
Ġkn ew
193 4
Ġw edding
it ual
ĠAz erbai
Ġ id
enn ial
U nder
ĠG et
ĠC er
s uch
ĠS che
Ġdr ummer
Ġ188 6
r ise
Ġe asy
ĠMov ie
Academ ic
ĠM asters
Ġamong st
ĠPe ak
ĠPir ates
i w
atche wan
193 3
ĠQu arter
Ġrem ix
re ck
Ġevery thing
ĠBer keley
Ġarchitect ural
ri er
count ry
ĠCont emporary
Ġb ases
pe are
ĠBab y
ĠC urt
ĠP att
ring ton
M iss
Ġpost ed
ĠNe il
Ġpred ecess
Ġimmedi ate
Ġcap s
h y
ames e
Ġ18 50
B aseball
193 2
Ġmeet ings
H ow
ĠHe avy
Ġthe rap
Ġra bb
ĠE vent
S port
Ġac know
ĠR ing
At l
Ġrec ru
Ġsuffer ing
ĠL is
ut ter
ĠG ay
M ag
Ġh ttp
Ġpick ed
the less
193 1
ers hire
Ġtrad ing
Ġb ats
oss ible
akes peare
Ġw ars
ut ton
p at
Ġd iam
Ã± a
cl osed
Ġsp aces
ĠBulg aria
L aw
Ġcompet ing
Ġpal ace
Ġdec ides
or iginal
Ġpat ient
D ep
Ġrepresent atives
d ef
Ġsh ift
D ou
ĠB ears
ĠPol icy
Ġdrug s
esign ated
S m
gr aduate
ĠPen insula
ĠBr un
ĠCr ime
ĠPers ian
v ar
L ittle
Ġelect oral
Ġst yles
ĠA S
ail ing
Ġbre eding
l iga
Ġcol le
Ġpat ron
ĠCommission er
ĠPro p
Ġwides pread
Ġm inisters
ĠB att
Ġgradu ating
ĠClin ton
our se
ĠC ou
ber ry
ĠGerman s
h igh
j ab
ĠObl ast
Ġdeploy ed
am ics
Ġh orn
ĠH ear
R S
Ġext ent
am ous
Ġ188 7
Ġmurder ed
ĠUnivers al
ĠP ic
Ġsign ificance
ĠChe ster
Ġrat io
L ove
Ġb rick
b us
Ġrest oration
Ġsign s
ĠUl t
Ġlocomot ives
riev ed
b es
ĠR ams
Ġdu o
Ġpan el
Ġ9 5
Ġst able
Ġd ress
ĠOtt awa
Ġ6 2
Ġer ected
ubl ished
Ġgrad ually
Ġ8 5
gom ery
ĠK ur
Ġunderst and
Ġdis b
ix on
H ol
Ġrapid ly
ĠM embers
Ġdef ence
ĠL iga
vious ly
h our
ĠAss istant
Ġopportun ities
w ald
Ġnomin ation
ĠO ber
f low
ĠGil bert
ĠE RA
op t
Ġr anks
ĠHar old
ĠGon z
ch o
ĠSh aw
Ġnorm ally
Ar gent
er ic
Ġd ual
cel and
ĠH ad
ĠLa uren
Ġc ricketer
Ġh at
ag re
er ted
Ġtravel ed
B O
ĠBr isb
Ġelect ron
Ġup gr
m ill
Ġtrans mission
Ad d
ĠNiger ia
Ġbeg un
19 22
19 29
ar at
ĠHer bert
Am phibians
im ir
Ġne uro
ij ing
ĠC atherine
Ġclaim ing
Ġs end
Ġl oyal
ĠR ac
Writ ers
str ong
Ġexperiment al
Sw ed
Ġgen re
Ġs essions
ĠN C
Ġ7 6
Ġg iant
Ġdet ailed
ract ion
ĠBrisb ane
ond a
Ġcont ribution
ĠMar vel
n ew
Ġgu ide
ĠIn stead
Ġ6 9
Ġthous and
S aint
Ġdescrib e
ĠGro ve
ry s
on ly
Ġ6 1
at on
op y
Ġ ib
Ġed itions
á ¹
Ġ188 4
Ġill ness
l ik
z es
ok u
ĠLeban on
ĠFac ulty
Ġenjoy ed
Ġfrequ ent
I rish
Ġf il
ĠH erman
Ġrepresent ation
Ġatt ending
ĠHar bor
Ġstat ue
l ia
ĠM ul
A lex
o ard
Ġh al
Ġ6 8
al us
ĠY u
Ġreve als
ĠProduct ions
w as
ĠDel aware
Ġh olid
19 28
Ġcas ual
ash a
Ġm ast
ent o
et ers
ĠGr ade
Ġw restling
Ġform ations
ĠP ont
ĠM ig
Ġ6 7
ag i
ĠRed s
Ġrul ing
Ġus eful
Ġref ug
Ġemploy ment
Ġdiscover y
Ġpart ly
Ġtr uth
Ġafter wards
ĠEx pl
ĠBeng al
M r
Ġsup ports
Ġmerg er
it ially
Ġdraw ing
Ġhundred s
ĠS ah
leg iate
ap se
19 27
ĠIn sp
ult ane
Ġb in
Bo oks
i our
os l
ĠH ab
Ġwrit es
Ġt ort
Ġm all
Ġf ix
ĠSur vey
Ġth ing
ic he
ard ens
row s
i u
em pt
Ġrecover ed
Ġas c
ĠHel en
o ons
ĠHer z
ĠArt ist
Ġconn ecting
ĠG ang
form ing
w ent
Ġf oss
ĠR aid
ĠR alph
Ġoper ator
Ġpass age
Ġcomp lic
Play ers
Ġsent ence
ĠWall ace
ĠFrid ay
Ġp ul
ĠB ald
if ies
s or
ath a
ĠDe ep
Ġab road
ĠBut ler
ĠMur phy
ĠA round
ĠNew castle
Ġind igenous
u able
Ġconvers ion
Ġevery one
ĠS P
Ġdisc ontin
Ġgrand father
Ġdefin ition
mon ton
os c
ub a
I L
ĠSus an
ĠW alt
min ute
Ġcho ose
ag ons
ĠA uckland
ĠS eb
N T
p age
up t
ĠPeters burg
Ġn est
p erson
ĠÃ Ĺ
ĠComp uter
ĠT oy
ild ren
Ġinteg rated
et ies
ĠR ivers
ĠPer ry
ok er
Ġcustom ers
ant i
i ology
D espite
Ġc ul
Ġparticip ants
Ġv e
Ġres umed
G overnment
R T
Ġcivil ian
ĠCo ach
Ġb right
Ġsubsid iary
Ġcon st
Ġro ots
S al
ĠB ond
ĠY ang
ĠS ierra
ent e
ath on
Ġw ick
ĠT ed
Ġcanc elled
Ġcomp onent
Ġrank ing
ig ible
ĠChap el
ran o
ĠProtest ant
uss ia
ops is
J im
Ġmar ry
Ġy ield
arg ed
ab a
Ġoccas ion
ri p
ĠAngl ican
h al
g ary
Ġsp in
Ġ188 1
ĠV lad
Ġbon us
Ġg ymn
Ġhe aring
Ġcomm anded
ĠL ag
Ġconcern ed
Ġexc av
t ailed
min ster
ah o
oc co
Ġmerch ant
c are
ĠM ol
Ġpro port
ie g
Ġre aches
Ġparen t
ĠShe ffield
Ġpart ially
un es
ĠTrans portation
ĠR ight
Ġpar am
ulner able
Ġre ady
st ed
Ġstud ying
ff ee
ĠSh ang
Ġgr ades
Ġinc idents
Ġsp oke
ĠS ak
Ġcateg ories
Ġb id
Ġl ose
ĠSh in
m and
ĠCon struction
19 25
Ġw ire
end ar
ĠC urrent
19 19
ĠL ar
Ġreg ime
Ġposs ession
ĠF ly
Ġgu ilty
Ġcont roll
ĠArt illery
Ġst rict
ĠL en
ĠPed ro
ĠT u
id al
Ġab use
ĠK ay
Ġacc ord
ĠEx change
Ġshop ping
ĠT ag
Ġf ee
19 24
ĠK le
Ġproduct ions
Ġconcent ration
ĠHeb rew
Ġch oir
Ġmanufact urers
K n
Ġfall ing
em ed
ĠW as
ĠFor mer
Ġb anned
ro oms
Ġhonor ary
osp el
19 14
iz a
Ġcharacter ized
ĠL ac
iz z
il is
4 00
ĠE U
Ġp seud
Ġopp onents
Ġcon vention
it ure
Ġemer ged
om ic
S k
Ġsub stitute
ĠSt uart
Ġkeep ing
. ),
Ġorgan isations
ot ten
Ġsp ending
Ġmon itor
ĠTom my
ĠCirc uit
Ġencour aged
m ath
Ġdoub les
ex p
ĠW inn
ĠIn v
ĠR eed
ĠPan ama
ĠY ale
ed eration
elt a
ograp hers
ĠRo om
ĠHug hes
cy cle
im o
Ġl akes
Ġsupport ers
c ase
Ġbelong ing
Ġr ub
w orld
ar ant
Ġco at
iven ess
Ġcon vert
Ġcorpor ate
ĠMont eneg
D utch
l ive
L ong
r ont
Ġ188 2
19 26
ĠOver all
T or
ĠMer c
Ġprov ision
ĠD est
ow ed
Ġins urance
ce ster
Ġass ets
Ġimm igrants
ĠS Ã£o
Ġscient ist
ĠGh ost
ĠSh akespeare
Ġcon j
ab e
ĠD in
Ġ7 7
Ġlim its
V ID
e als
Ġp ale
Ġb ishops
et ing
re ts
Ġre porter
Ad m
ĠM orning
Ġpers p
Ġres olution
Ġ7 8
l og
ĠAll ied
ĠR ou
g un
Ġident ify
ĠBe aut
ĠApp le
Ġn inth
ĠSask atchewan
ĠA way
ep hew
ĠAng lo
ĠMad ison
M ad
Ġcontin u
ĠS or
Polit icians
ĠSw an
Ġm asc
Ġsp ell
Ġnovel ists
Ġmanufact urer
Ġel se
Ġbenef its
pr ing
Ġcol ors
ĠD ra
Ġfac ilit
Ġm atters
Ġb attalion
Ġre ven
gor ith
ĠS uz
ĠGr ace
Ġsurv iv
ĠM S
ĠGo ogle
Ġsuper ior
Ġt orn
Ġsy mpt
itar ian
Ġtrad itions
Ġp ure
' d
Ġmar ine
Ġout er
Ġnob le
Ġgovern ments
Ġliqu id
ent le
alle st
ĠL em
ĠIndust ry
ĠSl ovakia
ĠJ ess
ĠT erm
ĠBou levard
ibr aries
Ġhigh light
ĠK os
Ġbeh alf
ĠSom erset
Nov els
h l
Ã© r
au er
ĠN E
Ġinaug ural
ĠD anny
Ġquarter back
r ors
Ġalco hol
U s
Ġfac ing
het ic
Ġdiam eter
ĠS oon
s ub
Ġb aby
ĠMunicip al
K O
ĠC ase
L ondon
ott ingham
ĠPear l
ĠJ unction
Ġcl othing
ht m
Ġg allery
ĠI C
ĠJ ar
Ġext reme
e lected
Ġ7 4
Ġtw in
ĠCons erv
ĠP ul
it ol
f our
Ġkid n
Ġprod uces
Ġv ast
am ep
ĠArch ive
ĠConfeder ate
Ġhe ir
ac a
ĠB ear
ĠMil waukee
Ġdr iven
Be fore
ĠIndust rial
r ag
ĠArch ives
ĠÃ ģ
ĠIndian apolis
ĠM usical
b one
ĠTechn ical
ĠB od
Ġc argo
Ġh unting
el ia
Ġany one
Ġsee king
Ġex cess
ett i
f ilm
et ch
ĠW ald
agon ist
Ġreported ly
Ġdomin ated
eth yl
Ġtal ent
19 21
ounc ill
Ġmount ed
Ġor n
ĠFloren ce
ĠK id
Ġrecomm end
Ġsil ent
ĠKn ights
ĠAr c
Ġdesign ation
Ġesc ort
A P
R I
l u
ĠKen ya
M ass
S il
ĠStud ents
Ġnomin ations
ĠOak land
Ã ī
T im
R ivers
uns wick
ĠBulg arian
Ġinh ab
Ġo cean
Trans port
ĠDod gers
Ġphen omen
Ġco ached
Ġstep s
Pro t
ĠCorn wall
Ã© d
Ġmat hematics
Ġâ Ĥ
Ġstud ios
Sh ort
ĠPer th
Ġw el
Col lege
ĠÅ ł
Ġto uring
act ory
Ġsubstant ial
im ation
ĠRena issance
Ġclos er
Ġexclus ively
Ġc ash
Ġstrugg le
Ġk it
ĠMont gomery
ĠG T
Ġmanufact ured
Ġathlet ic
Ġjourn als
Ġbe ating
Ġresear chers
ĠG olf
19 23
ĠR oche
ĠP rice
c ons
ĠH ob
Ġ187 6
Ġdoes n
ĠSa udi
ĠI ss
Ġs ample
ĠF low
ĠHar vey
Ġf it
Ġdi ocese
S D
Ġl ock
ĠU g
R ob
B re
ot ion
Ġorig ins
Ġpattern s
s he
f urt
ific ial
hib ition
Ġview ed
ĠVen ice
Ġcl ar
ĠZ e
Ġelect rical
an ced
Ġs alt
Ġdr um
ĠK un
West ern
Ġminor ity
ĠRet urn
ip ino
Ġto mb
ĠColumb us
Ġth ir
Ġphotograph s
et o
ĠWell ington
sequ ently
Ġaim ed
Ġinvol ves
Ġvar iant
Col umb
ĠL amb
Ġgen etic
Ġgold en
k ar
ĠP rest
er as
Ġnuc le
19 10
B L
Ġprote ins
Ġl ingu
emb ourg
ĠHen ri
ĠAd v
Ġb acter
Ġimp ress
B en
ur an
Gr and
Ġappropri ate
Ġc emetery
ist ani
ĠW ells
Ġclos ing
Ġrest ricted
Ġathlet ics
Ã© l
ĠPet e
Ġp eoples
Ġ urg
m aking
b el
hem atic
Ġelectric ity
Ġvot ing
Ġdivers e
rep rene
ĠS eg
ĠEncyclop edia
ĠInd ependence
Ġbound aries
ĠPhill ips
em a
Ġconn ect
Ġparliament ary
ĠV illa
Ġspe aking
Ġsurv ive
Ġadv ice
ĠH amb
onom ous
Ġexpl o
Ġcomm enced
enc ing
onn ie
Ġprov inces
ĠBrown s
ĠScot ia
v et
d isc
anth rop
ĠHe in
ĠBen ed
ĠAr nold
Ġreg ulations
Ġpublic ly
al ysis
Ġne ither
á º
ĠAl ong
Ġrem ove
20 23
ind a
umber land
ĠLe o
Ġ7 1
ĠDev il
u ations
Ġex ceed
Ġel dest
Ġconn ections
al am
B ob
Ġtre nd
ĠBe ijing
Ġrel ation
ĠCo al
tr acks
Ġso ap
Ġf itted
ĠPal mer
Ġexp osed
ĠE sc
qu arter
iss a
Ġ187 5
d irect
ĠB M
Ġphys ician
Ġ9 6
Ġconduct or
Ġtri als
Ġprincip les
Ġf ra
ĠR uth
ĠYugoslav ia
Ġbre aking
Res ults
ĠPer formance
Ġsee ing
on ed
ĠD ame
Ġweek end
ĠSc ar
r ating
Ġem pt
sc ale
ĠI P
od s
Ġsuit able
Ġt urb
ĠAn cient
ar u
ĠP ut
ĠO g
eral ly
Sup er
Ġj u
ĠMan uel
Ġarrang ements
Ġsc ope
Ġnickn ame
mar ks
ĠV ern
Ġ186 7
Ġassist ed
iv ic
Ġear ning
ple x
Ġwear ing
Ġf alse
ren cy
ack ed
Ġ6 00
Ġt y
D o
inc eton
Ġfl ora
Ġaffili ate
Ġphot o
ĠI b
Ġestablish ing
an im
Ġcommun ications
ĠAct or
Ġsumm ary
ov anni
ĠPro file
ro st
ĠB our
ĠTas man
ab ric
Ġsec ured
Ġg ram
Ġs isters
ĠD rama
Bl ue
Ġbre ast
Ġcou p
Ġ187 8
ĠI celand
Is rael
ancell or
I R
Ġ1 10
st ance
Crit ical
ĠLe ad
ĠK ill
av ia
Ġman age
ĠMah ar
ĠS z
ĠSc out
ĠCamp aign
us k
Ġg at
av or
Ġthr one
Ġimplement ed
le e
Ġhous ed
ĠA ires
or ious
Ġb oss
Ġ7 3
Ġchar ity
Ġpict ures
Ġcab inet
ĠP y
ili ar
Ġass emb
Ġsequ el
I ts
Treat ies
Ġd atabase
Ġapp ly
ĠDiv is
Ġsim ultane
Ġdec isions
s econd
ĠT ogether
play ing
Ġ187 1
ĠM ust
19 17
ĠF lying
Ġt anks
ĠCr uz
if fer
m other
art et
att a
Ġ8 2
Ġactiv ists
Ġ18 40
ort ion
ĠRay mond
Ġfunct ional
ĠMean while
if ts
ĠOr iginally
Ġdes ire
Ġg ardens
M el
ĠMar in
Ġ8 8
Ġ188 3
ĠM ik
ĠBr unswick
Ġcontin uous
ĠFer r
Ġ187 9
ĠIm m
Ġs ight
ĠN ext
Ġdisp ute
U SA
an ion
p res
ĠCar r
Ġswit ched
Ġt ons
ĠL C
Ġev ac
ed o
ĠSher iff
af e
un ning
Ġind ex
c over
ĠUn like
Ġd angerous
ĠTib et
Ġqual ify
ĠP ick
ri en
ĠCal c
ĠMach ine
ut a
Ġr ated
ĠNash ville
f irst
Ġout standing
Ġs ang
ĠS uch
ĠF uture
end ers
ĠMethod ist
ro e
ĠK ath
fr ont
i ens
n otes
ĠW ag
ffic iency
ĠStud y
ĠC P
ĠR at
Ġcreat ive
ĠQ ual
Ġfarm ers
J ack
elf are
bb ffbb
Ġaltern ate
Ġposs ibility
Ġfa una
ĠS umm
Ġacqu isition
ĠS T
over e
ĠC ant
ĠB elf
Ġess ential
E M
ĠN ear
ov an
Ġr itual
ang le
Ġtourn aments
M ac
ĠMont ana
Ġorgan ised
ĠS yl
Ġtr uck
Ġdepart ed
Ġt ram
Ġsc en
ĠF eat
Ġf ill
Ġsett lers
ĠMo z
ĠK il
ĠY ellow
Ġem peror
ar r
Ġmechan ism
ĠP eng
Ġgener ated
Ġ7 9
st ory
B ill
ĠN y
ock et
Ġlab our
Ġ187 2
Ġ186 8
ĠSer ie
T ube
ric ks
Ġint ellectual
Ġsubmar ine
M ain
ĠC reat
ĠF oster
Ġhel ps
Ġopp onent
Ġdomin ant
ĠC le
ĠAd vis
h istor
ĠN umber
ĠProt ection
Ġrecip ient
ĠM ills
Ġc attle
Ġcan al
ĠWil helm
ĠInt elligence
Ġim perial
bor o
Ġrecogn ised
ĠCirc le
Ġtrib ute
ĠL or
H C
ĠLeon ard
Ġcamp s
ĠD ictionary
ĠGu itar
ĠEs sex
Ġrun ners
Ġcon greg
Ġfor g
ĠG ust
l ain
Ġ187 4
ent ry
Ġnovel ist
Ġper mission
Ġcle arly
Ġav iation
ĠGreg ory
Ġnot ice
% ),
ast ed
ĠS ul
Ġbl ues
Ġclos ure
Ġmechan ical
ĠChap ter
Ġcl ock
Ġfund ed
Ġconcern ing
qu er
ĠPr ivate
Com mon
is p
Ġsong writer
as ia
ĠC ov
ĠS et
ĠL uke
Ġcat hedral
P an
Ġbelie ves
F rance
Ġre duction
v ol
Ġcon stitution
id ency
ĠP ep
Ġrare ly
ĠN athan
Ġconf ig
ĠCo x
ĠErn est
c f
ap pe
Ġcomp ens
amep lay
es is
ĠOut standing
O L
ĠR if
ĠCroat ian
off s
pr us
B E
Ġpers u
Ġv irus
ĠCh a
ĠWat son
und a
Ġbus es
A N
ĠPro duction
Ġcircum stances
ĠRh odes
ĠB orn
ĠBr ig
th lete
Ġs ailed
ie u
ric ulum
Ġorig inated
Ġst im
SP N
ir th
Ĩ Ĵ
om o
Athlet es
over ty
C ath
ri ft
ĠA x
Ġcomplet ing
ĠE ight
ah an
Ġunc ertain
Ġdisplay ed
ĠMicro soft
ĠSocial ist
n ut
ĠV iol
ĠSh ir
ĠR ange
Ġillust rated
ĠSe an
Ġ186 6
Ġcross ed
B ro
r ace
ĠIs le
ij a
F ore
Ġreleg ated
Ġpartn ers
Ġtr ump
Ġrec ruit
ĠSte in
oot s
Ġp ointed
Ġd iver
Ġcarri es
h all
ĠB iography
S oviet
Ġdo ors
o que
od ay
ent on
ĠCong o
d al
ĠSt ories
ĠNorth west
ĠAb raham
ĠF ish
Ġlab els
L et
ĠGu ild
ĠPo etry
Ġdeb t
ĠCO VID
Ġga uge
Ġp and
Ġthere after
Ġans wer
ĠM TV
Ġcon stitut
Ġb ull
ĠW ed
ff cc
ĠAp ost
Ġon going
ĠM ath
] ,
ili ary
t wo
Bur ials
ĠEag le
Ġexp ect
eral a
Ġto ol
ĠWith in
Ġlow est
Ġag ree
Ġ187 7
Se lected
Î ¿
Ġr ising
ĠT ong
ĠT ree
est one
Ġvict im
Ġn ephew
Ġcomment ed
R ugby
Ġbank rupt
Ġmar ks
Ġfif teen
Ġt ight
Ġcons ervative
Ġ8 1
C ity
ĠM ort
Ġrang ing
m id
ra wn
ĠW heel
Ġm or
k g
Ġbroadcast s
Ġ els
le ph
D i
ĠG ate
Ġw aste
ad ows
ĠBra ves
ĠDev on
Ġlat est
ĠM uch
writ ten
ĠCy cl
ah l
Ġident ical
yl er
Ġo verseas
ĠDemocr at
Ġc a
ĠM idd
Ġal gorith
B B
19 16
ov ina
Ġdist ribut
ĠTod d
on ial
ĠClark e
Ġrang es
Ġins ects
Ġr iding
uc lear
ĠNew ton
Ġsyn onym
ĠB ach
Ġst ress
te am
is en
Ġs ung
ĠN ancy
ĠK rist
Ġdismiss ed
ac ional
Ġsup press
Ġdiscuss ion
Music ians
S ur
Ġh app
Ġincre ases
ĠAg es
G roup
Ġtor ped
ĠT ax
bro ok
hemat ical
ĠBro oks
Ġvocal ist
Ġret iring
Ġliber al
ĠV ict
Ġab olished
ĠBe h
ĠBu enos
ĠAl ger
ĠX I
re a
ph is
overe ign
ĠEnvironment al
om ber
ĠB es
Ġdepart ments
V al
id en
ael ic
ĠR u
Ġmid field
Ġre organ
u er
| }
ĠK in
ĠAnn ual
Ġland ed
Ġrev ised
Ġfl ights
Ġ9 8
Ġ rib
Th ree
Ġphys ics
t z
mon th
W ashington
ĠForm ula
19 15
Ġchar ter
ar is
Ġor che
Ġ187 3
Ch inese
Ġscholars hip
Ġels ewhere
ĠSt ill
ĠOr iginal
Bus iness
Ġs aved
Ġpark ing
Ġacknow led
Ġ10 1
ae us
ĠArt icle
ĠMan ager
Ġstret ch
Ġto urs
âĢ ľ
Ġsl aves
Ġwalk ing
ĠN an
ĠT ampa
ĠBenn ett
ĠH its
ĠFran Ã§
Ġbi ological
Rec ord
Ġcon clusion
ĠArab ia
Ġrequ ested
ad ier
Ġwealth y
Ġrestaur ants
M et
Ġc od
Ġman s
ĠRh ode
Ġgu ests
S erv
Ġe lementary
ĠJ en
ĠLeg ion
Ġtreat y
Ġb orough
Ġmet ropolitan
Ġvert ical
ear ing
Ġsust ain
ĠFried rich
ocr acy
Ġsumm it
ĠBos nia
ĠCub s
Ġcomp iled
St r
ĠE ld
Ġaccess ible
Ġal ter
Ġsc ores
S E
ĠH az
ont ane
Ġm al
il o
Ġpower ed
Ġsl ave
ĠSp encer
song writer
d ess
ĠS weet
Ġre venue
ĠB anks
Ġengine ers
Ġpurs ue
Ġbal ance
Ġen forcement
ig in
Ġattempt ing
Ġdiscuss ed
Ġwithd rew
Ġdefend ers
Ġimplement ation
e a
Ġ9 2
Ġinit iated
ĠFin ance
Ġto t
unc an
ĠD ata
Ġbel ongs
Ġal ive
Ġrespond ed
ĠC C
Ġdist ingu
Ġpri ests
G reat
Ġviol ent
Ġess ay
Ġinterview s
ĠArchitect ure
Ġcon stitutional
ĠS ang
Ġmin i
im en
Ġpr ince
e lect
T ra
ĠS ullivan
n amed
Ġl ift
om i
ĠA aron
ĠMar qu
uch i
er als
Ä ĩ
ic as
Jos eph
er ated
Ġret reat
Ġtradition ally
Ġaff air
Ġm eat
Ġr andom
O s
ĠM ut
ĠA B
Ġmanag ing
Ġm arch
ĠDav ies
ĠD uc
Ġsport ing
ĠD ol
Ġex ecution
ans k
Ġisol ated
Dist ribution
Ġd iet
Ġpre ferred
Ġdisc rim
Ġf at
k an
Ġtop ics
ĠG az
ill on
Ġst yl
ĠSp art
Ġdisb anded
ĠByz antine
Ġbut ter
Ġsub mitted
Ġvis its
b en
ats u
Ġprem iere
Ġaccom p
ĠBro s
ĠO cc
iv o
m ers
Ġm os
ĠSh ar
ĠO ct
An n
Ġintro d
ĠM C
Ġmach ines
ĠCal gary
p ose
ĠK itt
Ġexp and
ap ur
ĠDes ert
Ġpre t
ĠL oss
ĠD h
tern oon
ĠJ oint
Ġsp end
Ġbr igade
F I
Ġhy brid
Ø §
ab il
Sing les
N S
eg al
Ġprop ag
o fficial
Hen ry
as ks
il ian
Ġ8 00
ĠPun jab
ir acy
Ġview ers
ĠN ottingham
on ica
Ġl ayer
Ġp unk
Re lease
Ec onomy
Ġsm ooth
ĠB eth
h m
ĠS old
ĠHe ights
Ġsol ar
ĠF olk
ĠStan ford
ĠTre as
ĠD aw
Ġprepar ation
ĠA FL
M or
op ened
ĠK ra
Ä Ł
r n
ĠâĤ ¬
ĠC ele
Polit ics
Ġlist en
Ġpre st
ĠIn g
Ġanim ation
uck er
f ree
19 12
ĠP and
He ad
ir ts
ĠF oot
Ġsympt oms
ill es
Ġstrateg ic
art en
od ia
ion ed
ĠW als
Ġdeliver y
Ġcent res
Ġphot os
ent i
uk u
ym ph
Ġbr ands
ĠSy ria
Ġextens ively
ov ich
ĠNep al
Ġdistinct ive
ĠAr g
Ġen roll
ĠAmaz on
f in
19 13
B etween
ĠGuard ian
Ġclin ical
ĠV e
ĠVers ion
ĠK er
y gen
est e
I ce
Ġav o
Ġcont ested
Ġn inet
ĠArmen ia
ĠL az
apt ers
Ġbeaut y
ĠJo an
Ġo w
R O
uss els
Ġun like
ĠRabb i
e ing
Ġfarm ing
Ġm aps
Ġint ention
Ġreport ing
Ġsound s
ĠF ig
s ized
V A
Ġanth rop
ĠJ ava
Ġb io
Ġcert ified
Ġprincip le
ĠL omb
Ġadvent ure
Ġus age
ib ilities
ĠM ine
ĠM ang
l ights
ur se
ĠThere fore
Ġarr iving
re f
ĠH D
Ġvict ories
y stem
ĠC H
Ġarr ives
Ġcomp rehensive
Ġconn ects
Ġcon fess
Ġs ugar
Ġpart ial
ĠCelt ic
ol lo
Ġhor iz
str ument
ĠK rish
ĠAct ress
ĠCh air
Ġ9 3
ĠMan it
Ġdis ch
ĠEd monton
ĠO w
pi ece
ĠIsa ac
a ude
ĠL ess
Ġinternational ly
ish i
Ġst eep
ĠEconom ics
Ġman if
ĠMond ay
ar c
p ost
Ġexp ensive
os exual
Ġh ills
ul g
Ġdev oted
Ġfle w
Ġro cks
ĠCl are
Ġsur pr
Ġext end
um ps
iers hip
B asketball
H am
all ing
Ġtrav elled
ag le
Ġr id
ce ived
Ġsp ots
ĠGard ens
ol ics
Lou is
Ġmarg in
ĠN AS
Ġburn ed
ĠBl ock
ĠSt ef
ĠP od
Ġb low
l ength
ĠPlan et
ir gin
t ains
ett ers
ĠCub an
Ġpup ils
Ġconvent ional
D E
g reen
ĠH at
Ġann ex
ter bury
Ġrespect ive
Ġlook ed
ĠCy prus
Ġg ate
Ġtravel s
Ġcorrespond ing
c ore
Ġc ave
Ġlin ear
ĠArt ists
rup ted
it us
n amese
ĠS oph
Ġspecial ized
st and
ĠT alk
Ġsy mp
Ġt ub
arri er
ĠLux embourg
el in
Ġinter cept
Ġarg ument
Ġexerc ise
Ġst em
Ġneighbour hood
end a
Ġs av
Ġearth qu
ĠJama ica
Ġrece ives
Ġab oard
v or
19 00
Ġcart oon
ĠHig her
j u
ro us
Ġmat hematic
ĠC raw
i ott
Ġw ard
ĠS ter
om ed
ĠO wn
ĠK ate
Ġcampaign s
ĠCard inal
ec a
ĠW onder
Ġwid er
Ġrem ote
Ġstruct ural
Ġhy per
Ġus ual
S yn
Ġcr uc
ĠTrans it
ĠHar per
Ġsculpt ure
ĠLa ura
. :
Ġide al
s ur
oc ene
ĠYou Tube
Ġwrit ings
U r
Ġc rops
ĠN ak
qu est
ĠWood s
it ic
Ġt ies
est y
Ġdr ink
Ġsim pl
head ed
ĠWork ers
Ġrecover y
ĠA w
Ġiniti ative
ĠJ ur
Ġcl ergy
ĠStud ent
Ġinher ited
ĠE C
h in
Ġfocus es
Ġpo le
Ġpract ical
Ġattend ance
ĠPar ad
ĠGe off
ĠS O
ĠO pp
Ġtempor arily
ĠT ales
ia o
arch y
add y
Ġst ops
Ġre act
ĠAc cess
ĠT rain
Ġtour ist
ĠEv angel
ĠMal ay
ĠDemocr ats
l ist
Ġport rait
D en
ic ing
ov sky
Ġpro l
Ġro ot
ĠPar ks
Ġlog o
Ġass ists
Ġb ay
M a
ow der
ĠCh an
Ġ9 7
Ġre ct
Ġesc aped
ĠWeek ly
ĠG amb
Ġbl og
ĠD elta
Ġelev ated
Ġco oper
sk a
Ġdep icted
Ġkn ock
Ġcongress ional
ĠP ath
ĠPlay ers
ĠO wen
l ift
Ġbox ing
ĠOr d
Ġvent ure
ĠC ec
A cc
Ġh idden
ac co
ard i
ĠLe x
Cent ral
Ġb ath
ĠR us
Ġalt itude
E very
O h
ĠV oice
Ġpil ots
D ay
ern ess
Ġsh ops
N on
ut o
ĠHigh land
ab ul
ĠFa ith
Ġmag ic
Ġinterpret ation
ĠT iger
Ġn ut
Ġlo op
ĠAzerbai jan
Ġex it
f eat
ĠGab riel
Ġc hest
ĠK erala
writ ing
ash ire
ĠT all
am ine
Ġres ort
ĠTr ad
F our
Ġev il
Ġreserv oir
Ġdes ert
par ts
Ġse eds
ĠLe ic
in yl
Ġch ron
ac les
ĠNap ole
Ġpromot ing
Ġexcell ent
aren ess
Ġdebut s
z ing
Ġdescrib ing
Ġpione er
Ġfun eral
g ie
Ġpre y
Ġdiss olved
vel t
G M
Ġnegot iations
w eek
on so
L os
Ġ186 9
ĠAndrew s
ĠStock holm
av ier
l it
Ġtemper atures
ig rated
ĠR af
Ġbirth day
Ã ½
ĠFin ancial
ĠS isters
M ary
F oot
ĠTr ump
ĠLiber ty
ĠM ull
Ġkilomet ers
Ġs amples
M in
ĠHe aven
appe ared
ĠL akes
Dem ocratic
f a
uch y
ĠInter state
Ġtouchdown s
ev en
ĠWild life
Ġopt ions
Ġm orph
ĠM az
ĠB ag
and ra
Ġor ange
Ġexp osure
Ġfor wards
Ġeconom ics
M ex
ĠLe ader
Ġinflu ences
ĠAll an
ĠDomin ican
at ics
at em
Ġm it
Ġt ale
ĠTh ai
ĠW ings
is che
ĠStev ens
ĠAdvent ures
Ġend angered
ai ro
Ġer ror
ag asc
Ġappro ached
ĠBel grade
Ġf asc
ĠRem ix
Ġab ilities
Ġpl ain
Ġindust ries
ĠPlay Station
Ġt ape
Ġgrow s
Ġcirc le
Ġ8 7
F orm
ere k
osoph ical
ĠWars aw
ĠIraq i
ĠB ak
Ġall ies
it ary
Ġout break
ĠSh op
iz ard
Ð ²
ĠRes ources
h orn
ĠGh ana
Ġstreng then
d es
ĠBelf ast
Ġ8 9
Ġc avalry
form s
ÅĤ aw
Ġcop per
ĠTra vel
Ġkey board
itz er
ĠRevolution ary
he ro
Ġall iance
Ġf ulf
up s
at um
ĠPl at
D irect
ĠR ah
Ġ8 4
ĠDist inguished
ĠF iction
ir ms
Ġtherap y
if ier
A v
Ġ185 7
CA R
sen al
ĠRel ations
Ġin ternet
ol in
ific ate
Ġexpl ains
z ed
Ġp airs
Ġcons olid
arm a
ux iliary
Ġpro x
Ġn am
Ġpredecess or
Ġvers e
ern e
ĠC avalry
j oin
ĠO scar
Ġsub sc
Ġw orn
ab out
ric a
s outh
ĠA j
Ġpand emic
Ñ ĥ
ĠMig uel
id i
by ter
i ago
Ġdifficult ies
ĠM ade
Ġpric es
Ġre vers
oy age
Ġev olved
Ġaggreg ate
Ġde emed
Ġprom in
Ġper mitted
R ound
P o
ĠT ir
re ated
om orph
ick en
ĠL ook
atter ed
ĠDur ham
Ġrif le
ĠRe ading
Ġf ib
Ġform ula
Ġphr ase
ĠS F
ĠLeg end
ĠH erald
Ġun less
s i
te es
ĠSch ol
ĠMaur ice
az i
ĠS aw
Ġr um
arm s
ab we
ĠP iet
ĠVol unte
en o
Ġfeel ings
ĠFurther more
Ġ8 3
Ġpro sp
Ġtem ples
Ġdec ide
Ġgu arant
ĠCamp us
Ġveter an
Ġdemonstr ated
ĠL ie
ĠRon ald
Ġpet ition
ĠVal ent
Ġp ap
Ġcond em
Ġdescend ants
iat ric
Ġ8 6
Swed ish
ott o
ĠBr as
bor g
Ã© m
â ĪĴ
Ġrad ical
Ġb one
Ġe fficient
S mith
Ġte eth
G ame
Ġbatter y
U N
di ocese
ĠSp ider
ĠPaul o
Ġphot ographer
Ġel igible
h is
ĠW u
ish a
Ġph arm
ar ians
ĠL ot
oc als
Ġsynd rome
Ġn a
School s
Ġ9 4
Ġpull ed
Ġh ope
es a
ĠMer it
ĠH ir
rec ord
th rough
Ġlo oks
Ġresign ation
ĠHind i
ĠN ine
Ġvol leyball
Ġslow ly
ĠR oth
Ġcompar ison
ĠH aven
ĠSeb ast
G ood
Ġ184 8
ĠEx ped
Ġcontrol s
Ch icago
Ġcarri er
Ġhen ce
ĠG as
ĠProv incial
Ġh ttps
Ġpit chers
Ġspe aker
ins ky
Ġperman ently
ĠAnd rÃ©
atin um
comp ass
Ġleg acy
Ġneut ral
Ġtim ber
s m
ĠAr med
ber to
ĠAb u
O ff
Ex t
ĠDivis iÃ³n
Ġspec imens
Ġcharacter istic
Ġcomment ary
z ig
umb ent
oy le
c or
Ġaff ect
ĠSalv ador
M ur
Ġib n
im ates
ĠL ak
âĢ ¢
E st
og g
Ġdiscontin ued
ĠMar io
Ġprogram mes
ĠS ex
ĠEll is
M E
G C
ĠA ch
intend o
R oute
ĠR ice
Ġlegisl ative
ip eg
r h
R L
p y
Ġacadem y
ĠHamb urg
ĠComp etition
el ly
Ġcollect ive
ploy ment
imb abwe
Ġr iders
Ġcoll aps
f red
Ġout door
Ġexclus ive
Ġ185 9
im mer
ĠS ony
os er
ok es
Ġfight ers
dist rict
ĠF uj
ose velt
Ġfin ance
Ġf iles
ĠHop kins
cest ershire
le ston
ic ia
b in
ĠR ush
ĠV ent
Ġt elling
Ġvot ers
ens en
ĠFor um
r ators
Ġin hib
ĠDe uts
Ġv el
ĠAgric ulture
oc es
cc ffcc
ĠI F
p es
Ġprov e
Ġlay out
t urn
le w
Pol ish
UC N
ine e
ĠBa iley
om es
ĠFilm s
Ġdisc overs
Ġconstitu encies
Ġm inistry
com mon
ĠQu est
Ġdiffic ulty
L ike
nold s
O P
ĠW here
Ġprot ests
ĠAir craft
Ġcoll apse
Ġge omet
ĠFran co
ĠA ub
Ġwor st
ĠW atch
ĠTh ose
ĠHer o
Ġpe er
I F
ĠCa uc
ust rated
is ons
ie ve
Ġwa iting
Ġg al
ĠCh i
ĠHend erson
ĠC F
Ġh ospitals
Ġgrand son
ĠJac ques
ess ed
Ġchalleng es
C arl
ig i
ĠOb serv
ĠW orth
Ġfoot age
C r
W in
op us
" :
M o
iab ility
e apolis
Ġbas in
Ġrul er
ĠE SPN
Ġcom fort
ĠF u
ĠRh in
ĠScient ific
ĠSch w
ĠK arn
ĠStri ke
ap est
ĠShang hai
ra h
Ġvar iation
6 00
ĠBrad ford
Ġj ury
F red
Ġreg ul
T er
c ott
Ġrem ark
Ġun ions
Ġdec k
ĠFran z
Ġthan ks
Ġh yd
Ġcr u
od ed
um er
Ġremov al
ä ¸
Ġp or
Ġtick et
Ġcommun ist
Brazil ian
ĠSud an
ĠR aw
Ġparticip ating
Ġvar iable
ĠJ erem
C or
ĠNew port
ĠCol in
ĠPr ison
ĠW he
Ġdep ict
ĠX X
Ġappro aches
Ġlo ad
Sw iss
FFFF FF
âĢĿ .
Ġinsp iration
Ġenem ies
G S
Ġrec alled
ĠPhill ies
ick ing
Ġbomb ing
Ġr ice
Th rough
Ġaccommod ate
Ġdis aster
ĠP ent
Ġbl ind
Ġcitiz en
Ġra ising
Ġlist ings
ĠL oren
Ġham let
Ġsusp ension
Ġtarg ets
ĠDou g
Ġd ors
Ġpo ison
ĠD und
Ġgoal keeper
ĠLanc ashire
ĠAber de
ĠP ink
it ro
Ġfl ash
Ġtack les
Ġupd ated
or um
ĠTh under
ĠAl tern
ed ed
Ġhistor ically
Ġspe akers
ĠTr in
ĠCow boys
ĠN eed
19 11
Ġen rolled
St ep
rest rial
Ġent hus
m ir
ĠTh orn
W ater
Ġdocument ed
Ġrev ival
Ġs iege
Ġb ars
ĠD uncan
em pl
ĠAbd ul
ĠAr d
ster ious
ĠSim ilar
Ġimpro vements
ĠFour th
ull ah
Ġthink ing
Ġbar on
Ġnar rative
Spec ial
Ġhyp othes
Leg acy
ĠInter view
Ġrele vant
Ġcomp ound
Ġco operation
Ġexhib it
ĠGu ards
Ġabs ol
ĠBat man
r ates
ens ions
Ġess entially
th at
ĠK as
Ġexpl an
Ġg ear
ĠM obile
ot ing
ĠGi ovanni
Ass ociation
ĠH ous
b eat
ĠShort ly
as hes
ĠConc ert
ro id
ĠLuc as
am y
Ġdecor ated
ĠCom bat
ĠHis pan
ĠEvent ually
ĠCom merce
Ġguitar ists
ĠCzech osl
Å Ļ
Ġcon ven
ĠChief s
Ġb ell
ĠGl ou
ĠHol mes
Ġrecru ited
St at
ĠOt to
Ġin formed
Ġtechn ologies
ĠV II
ra ve
Ġpersp ective
Ġinstall ation
Ġimprison ed
S em
Ġt um
it an
Ġf abric
Ġmid fielder
Ġa st
ĠPr inceton
in ts
Ġterm in
r age
Ġf ert
Ġsh ield
Ġdelay ed
Ġth rew
Ġchem istry
is an
ĠPublic ations
ĠPr ague
Ġmeas ured
ĠManit oba
ĠH iro
Ġch rom
ĠEd itor
ĠC inema
ĠF at
ĠSus sex
f ast
Ġm oral
Ġext ends
Ġvolunte ers
Ġg ran
ĠC ome
Ġfavor ite
Ġart work
c ock
Ġattack ing
ĠC rist
le z
ie v
ĠPalest ine
ar in
ĠK ash
Ġfilm ing
amb ers
Ġadminist ered
spe aking
Ġac res
Ġgro ss
Ġrefer ring
ĠLithuan ia
Ġpar ishes
ph ab
ra pped
ĠPal m
ĠKaz akh
ond uct
ĠLe ft
Ġp icks
ĠSh ield
R em
ĠAir lines
ĠArm strong
Th at
Ġtribut ary
P rior
S L
Ġdem ands
ĠMar l
ĠCh ad
o il
ig ue
ag ram
agasc ar
Ġrad ar
spe ed
ĠEp iscopal
Ġrecip ients
ĠSax ony
Cath olic
is le
ĠBel arus
Ġ18 30
ĠT ab
ist ing
Ġdistinct ion
Ġa thlete
ur us
Ġen h
8 00
am ation
Ġph osph
S hips
in ery
ĠWest minster
Ġcompet itors
ĠD y
n on
ĠS oci
ĠP orts
ĠL A
Ġacc el
Ġto x
iff e
enc ia
Ġarr ive
Ġab und
Ġarchae ological
Ġstand ings
Ġcompos itions
Ġwind s
Ġt act
ang ular
Ġdram atic
Ġanch or
Ġt enth
Ġ9 1
f ight
Ġc yl
ĠInd ies
ĠX V
Ġd eter
Ġr ig
Ġconf used
Ġs ure
ĠD ob
Ġre ducing
Ġans w
ap ing
qu et
art ed
Ġf lex
ĠM ets
cles iast
Ġart ificial
Ġpredomin antly
Ġsh orter
Ġcoal ition
C oll
land o
Ġrel ay
ĠGrand e
Ġvirt ual
ĠN g
Ġrel ating
ĠUn til
ĠAn a
Ġaccomp any
M ore
Ġf er
Ġgraph ics
ĠP iano
Ġfund amental
M ult
ĠS ou
ĠB ark
any on
ly mouth
ĠMot ors
Ġpros ecut
M att
it udes
Ġcomed ian
Ġhelic opter
Ġs itting
yl an
b ey
ĠI T
Ġsuppl ied
Ġcoin c
Ġwas n
ĠCath olics
Ġin stitute
onn y
Ġob lig
Ġwar fare
Ã Ĺ
r ary
ĠCom edy
Ġen compass
ll a
Ġrece iver
col m
ĠGoth ic
ĠS ey
ĠF inals
Ġcomp ounds
Ġrat ings
Ġdis order
á ¸
Ġm ilk
ĠO z
Argent ine
ĠUr ugu
oc ent
ĠSaf ety
Ġpian ist
A tt
sh ore
Ġm ouse
Ġatmosp here
Ġwid ow
if ax
Ġcoin s
ona ut
Ġthr iller
ĠLi u
ĠWar ri
ĠTan z
Ġbreak s
icy cle
Ġben ch
ĠCor p
ap a
Ġk ings
eg ovina
Ġbel t
Ġemphas is
Ġby pass
ĠS of
ĠPhil osophy
um ph
Ġpresent er
ĠBund es
Ġdist urb
ĠBened ict
ur ated
Ġsh rub
Ġorgan ic
ĠL isa
Ġt ested
J ud
Mod ern
as se
ĠJust in
B road
ĠJ ung
ĠC N
Ġtour ism
Ġneighbor ing
ĠI sh
ĠâĢ ł
Ġconsist ent
È Ľ
Pl ace
ĠBl ake
ĠLuther an
ĠH od
ĠMan ila
Ġcolumn s
al ks
el o
Ġexact ly
F ac
m ount
Ġinterp re
Ġm emor
Ġrev ol
ĠWrit ers
er ts
Ġw arri
Ġl iv
Ġ18 00
Ġs ick
âĢĿ ,
Ġfe ud
P e
Ġent reprene
Ġapart ments
ĠAd vanced
Ġfail ing
Ġal ien
Ġgr ay
ĠV isc
Ġf ame
W il
ĠL oc
ĠF ul
og ical
ĠBre ak
in f
Ġstream s
ÃŁ e
ĠK ol
b ank
N FL
et ary
Ġreg ulation
Ġhead ing
ĠCamer on
Ġne arest
ĠN as
nd ez
iet ies
ĠId aho
Ġthe rm
Ġg ift
Ġcollabor ated
S ec
ĠGib son
Ġmain stream
ĠMon ey
S at
ar ts
Ġv ow
ĠCan terbury
Ġdef ender
ĠM echan
l ived
s up
al an
ĠK or
Ġevent ual
M er
Ġ1 15
ĠMet al
in as
h urst
ĠD im
Ġover l
bo at
Ġsculpt or
ĠExped ition
Ġdr inking
g ence
Ġdef ended
Ġsimultane ously
Ġc anton
ĠW ins
Ġproced ure
in ia
ath i
Can ada
Î ½
ge bra
ĠGram my
ĠA N
B rien
m ade
Ġpl astic
Ġch orus
imens ional
Ġy ard
Ġdoll ars
h anded
Ġveget ation
Ġdial ect
Ġunder went
Ġcompris es
ĠH us
ib a
ĠML B
p her
Ġpre v
O W
e on
Ġmonth ly
ĠC itiz
on ey
ĠRo osevelt
Ġthe ories
ĠRaid ers
unn ers
Ġret ro
Ġfair ly
Ġtele phone
ourn ey
ibl ical
ĠTh or
r and
Ġind oor
isc al
ĠKing ston
for ced
ĠMonteneg ro
ĠRe form
ĠWarri ors
ĠSl av
Ġz ero
Ġrac ial
Ġtrust ees
Adm inist
ĠSol omon
ĠArch ae
ĠFr aser
Ġed itors
ĠTri ple
Ġst ake
ĠV il
ĠH ood
Ġbatt ing
Ġport ions
Ġimm igration
el en
ĠEngine er
Ġman ip
ĠThe ory
ĠAm endment
ĠT ake
Ġthreat s
oy a
ĠJul ian
ĠFinal ly
ic i
and ro
Ġtrans it
Ġvo ices
Ġpost er
W ood
Ġtax es
ĠR i
ĠR ut
ĠD atabase
ĠH ull
us a
Ġfram ework
ĠEn s
Ġhigh ways
ĠV ale
ĠCard iff
Ġsoci eties
ĠPict ure
ĠMo h
ĠF un
Ġpl acing
ĠCr us
Ġbat ted
ir ates
ĠEd mund
Ġmem oir
Ġsax ophone
M D
Ġc ounsel
Ġg host
ild a
Ġseem ed
Ġare na
Ġres ource
Ġobject ive
M ah
ad os
ĠR ica
clud es
ĠS uff
ĠC yr
ep s
T echn
ĠD ig
Ġsup plement
ĠG erald
ad ia
Ġjud g
Pres ident
ore y
Ar thur
ec raft
ĠViet namese
ur rect
ĠEm my
Ġgl ac
utt a
Ġvo iced
M ike
ou x
ĠSim pson
Am endment
Ġgu ards
Ġcasual ties
Ġang le
F ort
B a
Ġgra ve
Ġp overty
Ġm emb
hold ers
ĠMc N
L iber
Ġren owned
ĠMar x
Ġconsum ption
Ġp y
Ġdiplom atic
ast rop
str act
Ġsim ul
Ġman ages
Ġkn ee
igg s
ab i
Ġlegisl ature
Ġh appy
ĠK iss
aj i
Ġdef ending
ik ing
Ġres ol
Ġassoci ations
Ġneighbour ing
ĠPrest on
ĠKenn eth
Ġr ivals
fore st
found er
Ġche ss
Ġimp ossible
ĠDou ble
Ï Ħ
Ġind epend
Ġpres ents
in ced
ĠFight ing
ĠC ust
W ind
Ġbehav iour
Ġass um
Ġunivers e
ph an
Ġsem if
Ġtri ple
ĠMarc us
ĠL ok
le igh
ĠRichard son
Ġv inyl
ĠJ ets
ĠSl oven
ĠVo iv
uis ine
Ġqu een
U l
ĠA ur
ĠJ ak
P ac
ĠCl if
ĠInd ex
b uilt
Ġcom ments
Ġtal ks
D esign
F re
K A
t ail
intend ent
S B
Ġf iring
Ġto ll
ĠWith out
ĠLabor atory
Ġb otan
ang o
ĠA L
ĠMar ines
arch ive
ĠD oll
ĠR ank
anc a
ĠUnivers e
ĠRet rieved
k u
S everal
% ).
ighth ouse
ĠAn tar
ĠLou ise
over ed
Ã© g
ain es
ĠAn at
Ġam ounts
Ġfor ty
ĠHit ler
Ġholid ay
ĠD ale
ĠE ff
Ġp ond
Ġmain land
isc her
Ã¡ r
Ġ185 4
à ®
ist le
in ted
Ġd ogs
ĠPl aza
Ġprot otype
Ġst olen
es ch
v y
Ġp ushed
ĠSant iago
Ġtravel ing
Ġc ow
Pl aying
Ġp ub
ĠE state
ĠIn itially
aid en
ond e
Ġcons cious
stad t
id ance
Ġdet ail
Ġfre ight
Ġnam ely
Ġnumber ed
leg raph
Ġarch itects
Ġceleb ration
D R
ag ua
190 8
Ġsh aring
Ġcontribut ing
Ġautom atic
stan bul
Ġco ffee
Ġ185 5
ĠHerz egovina
l ov
ĠP owell
! !
d orf
an z
ed ge
Ġc odes
ĠStaff ord
hab ilit
D is
b ian
ĠNot re
Ġcolon ies
ĠP orter
ĠSur rey
ĠO st
C P
ĠW inners
m akers
ĠB ran
ĠK em
Ġrefug ees
cf c
ĠC av
ĠA chie
Ġprint ing
Ġaf ternoon
Ġs ending
ĠSh ore
Ġ185 8
Rep ublican
M ammals
Ġt one
ĠP or
T T
Ġwork er
H P
Ġconv inced
Ġd rain
ĠN ortheast
ĠGl ass
Ġtheat rical
Ġair field
Ġmolec ular
Ġdro ve
ĠBav aria
Ġloc ality
Ġhand le
ĠEngine ers
ĠPh D
Ġexpl icit
ĠAmb assador
Ġfif ty
Ġkill s
Ã¤ r
st ock
ĠSp ect
ĠCro s
g roup
Ġoper ators
ĠSen ators
m al
Ġel abor
Ġmiss ile
O pen
Ġc iting
Ġexpl ain
Ġin put
M at
omm ission
Ġfeel ing
Ġprogress ive
e or
ĠBl oom
ĠStat istics
Ġin struction
b ler
eck er
à ¥
og ne
ĠMor rison
im er
Ġsc iences
on te
Ġs oph
ĠOm aha
ĠLouis ville
Ġput ting
oun s
Ġimpro vement
Ġfall en
ĠG aelic
Ġmaintain ing
ic z
ce ph
Ġro ster
Ġval uable
b uilding
ĠRes erv
Ġemp ire
Ġret ain
Ġinter action
ĠRoberts on
Ġf erry
Ġbe ars
D el
Ġl ib
ĠMad agascar
ĠRey nolds
ĠAh med
ĠEthiop ia
ĠAr ms
c ity
f ootball
Ġacc um
Ġcont racts
Ġfra ud
Ġtro uble
H ome
Ġo v
ĠL ords
Ġst ere
G reek
ĠH aving
qu in
ĠIn stitut
ĠMalt a
ĠWed nes
Ġc utting
Ġcivil ians
Ġf ung
Ġastr onom
ĠW end
Ġdevelop ments
Ġempt y
ĠS ons
Ġdispl ays
B er
ĠS ap
ĠK i
V ictor
Ġf isher
ing o
Ġaut ob
ĠCar roll
ĠM Ã©
Ġbeat en
ĠCurt is
e i
ĠG and
Ġindic ating
Ġt ip
ĠCl aud
Ġnational ly
he ld
y ch
ro x
Ġas king
Ġprison er
ĠRod rig
ĠSh adow
Ġjoin s
Over view
ocument ary
Ġh ole
ĠAp ollo
aw i
' )
Ġasp ect
Ġfor th
ĠMor occo
ĠPolit ics
Ġf aces
inem at
ID S
ĠC S
ĠM om
ar ium
Ġl ights
ĠRoche ster
Ġfam iliar
Ġhon ours
ar ius
ĠK re
ĠM iles
clesiast ical
W el
c z
st able
ber y
row ing
on ne
Ġc ad
Ġ12 5
Ġdep ression
ĠM is
ot he
Ġthere by
ĠHe ath
Ġver te
Ġcomput ers
Hung arian
ĠH arm
utt le
ĠC ann
Ġb rew
Ġb ills
B i
ĠBr ussels
ĠK ind
ĠTrans l
Ġwill ing
Ġa ware
Pop ulation
an ch
reg ular
Ġ185 6
byter ian
R h
ĠA F
Ġtow ers
f bb
F in
ĠRail ways
Ġe fficiency
quir y
ĠN atal
Ġassess ment
ĠI UCN
Ġexhib itions
Ñ ı
Ġst eal
p it
Ġexper iments
Ġconce pts
ĠC anyon
w ord
ĠBur ton
og o
odes hip
Ġseg ments
Ġb are
ĠPubl ishers
Ġpost hum
ĠTw enty
Ġphilos opher
S ocial
oca ust
enn ium
il ion
Ġch apters
Reg ular
ĠW ool
man uel
R ay
ĠL odge
Ġmotor cycle
Ġthir teen
Ġsign als
uc a
Ġfl our
Ġphil anthrop
ĠA FC
Ġto ler
ĠJ in
ene ath
Ġst ored
ĠMon th
am ar
Ġadminist rator
Ġb orrow
ist on
Ġl iver
ĠMinn eapolis
ĠZ imbabwe
Ġflow er
ĠE g
Ġconsum er
ĠC u
ĠH erm
ĠPl anning
ĠFrank furt
Ġ( '
ind e
ĠMos es
ĠGen e
Ġprep are
Ġlocomot ive
bo oks
Ġgradu ation
ĠFern ando
ĠW it
Dan iel
Ġmanusc ript
Ġop ens
Ġinhab ited
Ġanal y
a very
ĠGram mar
ond o
ford shire
Ġperform ers
av ian
ĠĠ ĠĊ
Ġread ers
Ġsurviv ors
et own
Ġsw ord
Ġas k
Ġj ew
Ġline up
ĠAl bums
Ġcur riculum
G re
ess a
ĠLiber ation
ĠL if
ĠPl ate
ell ers
Ġsh arp
aw s
ĠK aren
ett es
Tour ist
Ġmission ary
Ġt ube
Ġ10 5
ĠG P
Ġrestrict ions
W ork
Ġc raft
Ã ¯
ĠE ye
Ġfound ers
Ġpsych ology
ĠChel sea
H ouse
M T
Ġpack age
Ġgraph ic
iff s
B rown
Ġc ogn
Ġlearn s
ĠR he
ateg ory
ri fic
ĠE yes
ĠHead quarters
T ex
ĠC ly
Ġover lo
Te am
Ġcan on
ĠEd gar
Ġgat hered
ĠNap les
Ġhard ware
ĠWinn ipeg
Ġs weet
ir ie
ĠTr ue
Ġaw areness
um ble
ĠRe ich
ĠLear ning
ĠA A
Ġrun way
mun ition
Foot notes
ĠV eter
erg us
Ġrel atives
Ġcr uis
Ġreleg ation
ellow s
w ind
Ġinf ection
av i
kins on
ĠG ren
e o
ator ies
f ive
Ġvar iations
Ġsoutheast ern
ĠAdvent ure
Ġl ad
Ġspecial ist
Ġpre fer
Ġwarn ing
un ted
Ġpro of
w oman
ros se
ĠP resent
ĠAn y
Ġemot ional
Ġp ill
ec ca
ĠV id
ĠRes p
Ġreb ellion
Ġstation ed
ĠC ord
ĠG ibb
htm l
oc o
Ġun p
C ultural
Ġachie vements
ĠBas il
ĠB ot
ĠG Ã¶
Ġsuccess ion
ã Ģ
ch ief
found land
Ġun incorporated
ĠVoiv odeship
ol ine
Ġment ions
Ġ ),
Ġrep ro
h art
Ġt ill
Ġent ity
Ġhand ed
Ġfor cing
ĠÃ ĸ
Ġdivor ced
Ġd ict
in ks
Ġb inding
en i
Ġconf ront
Ġ" [
á ĥ
ĠSc reen
Ġpay ment
ĠAb original
H F
h ra
ĠCont est
c ul
Ġvar ied
Ġfem in
Ġext ending
int ers
ĠL ey
Ġ185 3
Ġdial ogue
Ġsust ained
enti eth
ator ial
ĠH es
Ġsh ifted
al in
Ġin tern
ĠD um
ĠC ort
ĠR ural
ĠBar r
Ġox ygen
Ġrenov ation
ĠR ab
Ġas h
ĠRec ording
ĠH ass
Ġw ish
amp ire
Ġcr ashed
D I
ol an
ĠIndones ian
ass is
H a
Ġt issue
he y
ĠD as
Ge org
Ġfast est
Ġamb assador
ĠS ent
ĠF ra
ĠP lymouth
Ġgener als
Ġg ap
Ġown s
Ġra id
ĠAd rian
ĠR achel
Ġair line
Ġbr ings
Ġfarm s
Ġremember ed
ĠP os
Ġwid th
190 9
Ġrecept or
Ind ividual
Ġcolle agues
Ġpres erve
umb ai
Ġbo ards
ĠB il
ay ette
on al
ro ve
Ġfour teen
Bel g
S erb
alt ies
S en
ĠCh ange
ater al
ah u
Î ¹
Ġhand ling
ĠAh mad
l isted
ĠMem phis
ĠAm ateur
Ġtri o
f ol
ĠF emale
ĠE ve
Ġfl ank
ĠSt akes
Ġlabor atory
Ġproced ures
Ġsurre nder
Ġapp rec
Ġ185 1
ĠM ob
ĠW ant
e u
g ae
Ġ185 2
ĠBry an
Ġupgr aded
Ġman ual
Ġvar iants
zy me
ad h
pt on
ĠGu atem
Ġfew er
Ġdest ination
Ġexam ination
Ġin g
ĠPol l
Ind ia
T ime
ĠAnd ers
Ġsk ill
As ian
haus en
Ġpat ent
din and
R E
l ag
Ġw ore
Ġpresent ation
re v
Ġ <
gr im
enh agen
or ient
Ġre ward
Ġalleged ly
ant om
Ġdis appeared
ĠPro per
Ġmur ders
Ġc uts
Ste ve
Ġreven ge
J ean
omet own
ĠW A
pro duced
Sc ot
Ġattract ion
ĠEll iott
ĠVlad imir
Ġlaws uit
ĠAgain st
Ġprofession als
ĠC B
Ch ief
Ġqu iet
ic ity
Ġstat ements
Ġeng agement
a uthor
Ġl obby
Ġreserv es
ĠKum ar
ĠEug ene
Ġs overeign
Ġh o
Ġsever ely
Ġf aster
Ġhoriz ont
phab et
ĠDay ton
Public ations
ĠG am
op ing
ĠW ik
ast ics
ĠSac ram
Ġdivor ce
Austral ia
m ology
ĠF en
ĠV all
Ġord inary
Ġr uins
Ġunder graduate
Ġsit uations
ĠTh ir
Ġ184 7
ĠPo ems
ĠCh uck
ĠGl enn
Columb ia
Ġfriend ship
ĠH im
Ġprevent ed
lin ing
Ġno ise
ĠBol ivia
d ing
Ġprot agonist
D ue
Ġdisp ers
ĠJul ia
Ġspec imen
Ġwe igh
Ġj ail
Ġdies el
Ġg aining
ĠBrad ley
C itations
ik es
Ġrequ iring
Ġbar rel
ĠN acional
F ish
ob s
ĠLind a
rew s
Ġexhib ited
Ġstre ak
ĠN SW
Ġm ammals
Ġ ....
ĠF ut
ust ers
ier i
ĠBurn s
Ġd ancing
ĠY an
ĠB ren
Ð ´
un ts
Ġenl isted
ist ent
ĠMc Donald
Ġmain tains
Commun es
ĠA my
Ġcomple ment
Ġemploy ee
C ulture
J ac
Ġcor ps
ĠWe i
in os
ĠLes lie
ĠZh ang
ert iary
Ġreform s
Ġsh ock
Ġfresh water
C zech
n Ã©e
Ġlif etime
Ġsh ots
ic ism
um ped
Ġb achelor
ĠL av
ĠJohann es
t or
Ġst ones
b ase
ĠI gn
Un incorporated
Ġsur prise
W inners
ĠV a
N Y
ep age
ĠS I
ĠW ander
iment al
n al
ĠBar oque
190 5
per t
Ġphys ic
Ġdepend ent
ĠB ever
ĠMil ton
Ġend ings
ov i
ĠNA SA
op rano
Ġs oc
Ġimprison ment
ĠWag ner
Ġcompris ing
ĠT roy
id ay
Ġtorped o
ish n
Ġbelief s
Ġsk ating
Ġearthqu ake
ĠW ick
ak k
In f
Ġpat ri
h ad
Ġpass ion
Ġre verse
L iter
Å Ľ
Ġtrans formed
enz ie
Ġex ha
Ġgr id
ĠPalest inian
ĠRol ling
ug a
Ġinter face
Ġmer c
p ath
ĠBron ze
Ġcitizens hip
ĠPr act
z an
Ġaff ord
ĠUl ster
Ġpun ishment
Ġtransm itter
Ġvers us
h or
iÄ į
Ġdown load
Ġper ceived
ure l
ĠLe vel
Ġ184 6
op hers
M useum
Ġl ig
Ġgirl friend
Ġarg ues
Ġen act
Ġinterest ing
S pe
Ġeditor ial
ĠSem inary
Ġhe m
Ġ1 13
Ġnortheast ern
ĠWrit ing
ĠPass er
Ġcor ruption
Ġ184 9
L ocation
v ideo
Ġr is
ĠLyn n
air y
j ar
Ġsurv ival
ĠM ale
ĠL enn
Ġaer ial
ĠK ids
ĠRich ards
Ġindepend ently
C ross
histor ic
ing le
ĠL ic
ott a
Ġcult ures
Ġadj ust
Ġinter mediate
190 6
re cht
Ġinvestig ate
Ġst ick
ĠS elf
ĠM am
ĠCom plex
S F
ĠCh amp
ĠY a
ed uc
m ail
ĠH ern
ĠK w
che l
Ġmod erate
et z
Ã¼ ck
ĠCh ase
ĠG overn
Ġexecut ives
Ġunderst ood
O f
ĠR ib
Ġgen es
Ġanal yst
E th
Ġanal og
en heim
ĠGeorg ian
ant o
Ġrepeated ly
ic ious
ĠA ri
ĠJ ag
Ġchalleng ed
Ġmus cle
Ġdeal ing
Ġachie vement
ou ra
Ġpregn ant
qu al
N atural
Ġ- -
ath am
Ġgovern ing
Ġaccur ate
ĠLuc y
Ġh unt
ĠF al
Ġ13 0
Ġch ore
ĠHur ricane
f ounded
Ġc ouncill
Ġd iversity
ĠK och
Ġch lor
ĠHar bour
Ġpract iced
Ġplay wright
190 7
ĠBright on
Ġsac rif
Ġvolunte er
Ġmix ture
amb a
ĠR ican
Ġqual ification
2 50
im ming
ĠVir t
Ġrequire ment
ĠJenn ifer
Ġb ord
M ot
Ġam pl
let te
Ġn i
ĠH els
Eng land
ĠD w
Ġshould er
y on
Ġd iamond
P M
Ġlight ing
Ġint ense
Ġl ibraries
Ġâ ĨĴ
Ġact ively
w id
Ġcons ent
oret ical
Ġreal ized
Ġpost s
Ġdanc er
Ġalleg ations
Ġsusp ected
ĠH alf
ĠK om
ĠAr senal
Ġdel iber
op a
Ġex port
Ġref lected
Ġoccas ional
h im
v ens
Ġl aps
ĠJohn s
atin ate
ĠHal ifax
Ġre de
pr ises
St an
Ġfocus ing
ĠSpeed way
ĠSing le
Ġt asks
Ġconfl icts
B ox
S o
Ġ7 00
Ġadvert is
at z
ĠF BI
Ġship ping
M il
ĠÃ ł
ĠMidd les
ĠE k
ĠD ud
Ġgra v
ĠTasman ia
ed e
D T
ĠBas in
et ics
Ġbankrupt cy
Ġend ors
Ġsk ull
viron ments
r ina
Ġon wards
Ġsimilar ly
Ġd anger
ĠD iet
ĠGl obe
ul ous
ia z
Ġsudden ly
Ġmyth ology
Ġin ject
Ġcont ribute
Ġsix teen
Ġrecon struction
r ill
ĠLanc aster
Ġfeed ing
S eries
l ast
ĠB etty
Ġb er
Ġag es
ĠBar nes
Ġart if
ĠCab inet
Ġprest igious
ĠP ine
Ġcl ient
Ġro bot
ĠWind sor
ĠL iv
ĠF actory
ĠF am
m ember
Ġbur ial
ĠC and
art a
ĠD iana
ĠPhys ics
v as
es ar
Ġgener ations
Ġt ag
ĠStr at
ĠN ame
ĠN adu
Ġgovern ed
L es
az ar
Ġbass ist
i ad
ĠBey ond
eng ers
Ġrec re
ĠR ee
ĠNew foundland
ĠTown s
ĠPop ular
ĠRoy als
ax y
ĠParliament ary
ĠSpec ies
Ġcons ec
ĠPatri ots
ar am
ĠEx cell
k ers
Ġtrans form
ĠCr iminal
Ġserious ly
Ġvol unt
ant es
m ay
Ġdec e
Ġtransl ator
c ap
ĠS ett
iv ities
East ern
Ġmidfield ers
Ã± o
ĠCar m
ov es
Ġpriv ile
ĠTw ins
O l
Jo e
Ġarch ive
Ġbi ology
Ġ183 7
Week ly
ore m
ed ar
Ġconduct ing
ĠM ast
irl s
Ġrenov ated
Ġp orts
ĠC anton
ĠOri oles
m ons
Ġm igration
ĠD ylan
ĠAl pha
ĠK urt
ĠW inner
ĠTh ings
Ġhon ey
S ource
h ot
ĠP aper
Ġprom ised
B ad
o an
Ġrow span
Ġ1 17
Ġst aged
est rian
Ġcust omer
Ġcelebr ate
om ys
ĠL eop
d em
h alf
Ġlegend ary
Ġski ing
el ong
ĠPh yll
Ġsc andal
ĠWes ley
ĠM ater
Ġjud icial
ĠB rom
Ġd in
ĠH off
at aka
ĠC rystal
ĠKenn y
Add itional
ĠL ink
Ġ3 60
Am ong
Ġm ic
in is
ac iÃ³n
all ow
Ġmy stery
Ġmer ely
ĠW ake
Ġbe am
ĠMar ion
ĠAberde en
Ġaccess ed
ag ne
Ġauthor ized
L ord
ĠM uk
er os
ĠF ant
Ġsol utions
U P
ĠO val
que z
Ġdram at
n ai
ĠTh an
ĠFil ipino
ble m
Ġden omin
ĠNever theless
Ġb old
Ġserv ant
h ops
d u
un al
Ġmission aries
Ġinteg ration
ĠBl u
Ġadd ressed
Ġl ie
Ġr idge
ard e
Ġf ract
Ġsp an
Ġprof it
Ġind eed
ard ed
. ;
U k
han ced
Ġa ims
ĠN intendo
Ġinv ented
Ġs id
ĠRe id
Ġmat rix
ĠRev ival
Ä Ľ
Ġkill er
ĠM old
G N
Ġstory line
ĠC ert
ne z
S M
st age
ĠFellow ship
t itled
Ġex ile
ĠHaw ks
Ġrain fall
ĠTanz ania
rid or
ĠS H
Ġcre ates
ric ia
Ġs unk
Ġeng age
ĠClass ical
ĠSab ha
J ul
Ġmy sterious
Tur k
ĠF antasy
190 1
Ġequ ation
Ġflo ors
ut ing
Ġvol cano
Ġpop ulated
Ġdub bed
Ġmans ion
De velopment
s u
ip her
ĠB end
ĠT D
Ġ( #
ĠL ah
Ġch ronic
Ġprov isions
Ġvar ieties
iv ided
ist o
ĠB erm
ur ai
ri um
Ġinc umbent
Ch ris
Ġperson alities
g io
Ġ1 16
Ġper mit
atri ates
od ing
ĠBron cos
op le
app a
ot ted
15 0
clus ive
Ġt ier
Ġadvoc ate
Ġ Âł
Ġh ometown
Ġbusiness people
ĠK ang
ser ver
exp ected
Ġleg it
ĠN orton
Ġdoct ors
ĠC lear
Ġre ver
T oday
Ġent ries
ĠL etters
attal ions
. ).
ĠAchie vement
Ġs le
aw ks
Ġterrit orial
Ġencounter ed
ĠG em
ĠK ann
Ġsepar ation
Ġsign ature
ĠWol ver
ĠM umbai
ĠMal colm
ĠGriff ith
Ï ģ
Con struction
can ic
uls ion
Ġ18 12
Ġnickn amed
od on
Ġel ite
Ġimm un
Ne igh
F ar
ract ed
ant le
ĠOr lando
ĠA th
et ter
Ġcon ferences
ĠCap itol
ĠE arn
âĢ ¦
ĠB ody
oc hem
Ġlow land
Ġ1 14
ĠVik ings
ĠI TV
Ã °
B ut
Ġbre ed
Ġimpress ive
Ġref uses
ĠPak istani
Ġsequ ences
Ġtack le
Al so
ĠF iji
Ġinter vention
ĠCont inental
ĠAlb any
ars ity
Ġstrugg led
Ġf ate
Ġdecre ase
Ġal tered
] .
Ġor al
Ġf ran
s l
Ġwithd rawn
ak o
Ġt ut
ĠU tt
ĠM ales
al ter
am on
Spec ies
L E
erm o
) -
ĠM ats
an an
ĠS earch
J eff
up e
c ats
ĠSpring field
f old
he nd
Ġd ying
ĠN urs
Ġâ ĪĴ
t es
ĠD awn
onn ell
Ġc uisine
N P
ĠEm b
ĠMaced onia
st op
ĠEm ily
th ro
P ier
ĠZ amb
Ġgu idance
Ġspe aks
ke leton
M ill
war f
Ġc ens
ig ate
Ġfor b
Ġob sc
Ġdev ast
it ory
ian e
Ġkn ows
a que
Ġor b
ĠAmer icas
ĠBul ld
Ġcommit ment
Ġinsc ription
Ġconj unction
A z
Ġc otton
Ġte a
Ġdoub t
Ġencour age
ĠLithuan ian
Ġv ital
Ġrest ore
ĠWy oming
ĠP s
ĠP Ã©
Sp ace
ĠConstant in
Ġwa it
ĠT i
Ġal tar
Ġpr ayer
ce pts
art z
ĠPorts mouth
Ġcol ours
ĠPro f
sk ins
Ġstri king
sc reen
B ook
Ġexplos ion
Ġse ized
Ġvar ies
Ġmilit ia
osaur us
Ev ents
B ecause
d ays
Ġre join
ĠL ogan
ĠUS S
B oston
y ards
Ġcomp act
ch ant
ĠH ave
th ree
ĠNot able
h ou
Ġcolon el
Ġclos est
ĠPres byterian
ĠCarol ine
ĠFer dinand
Ġabs ent
ĠB irds
Ġmar sh
Ġrecogn ize
ĠPro ducer
Ġp ush
ĠMon roe
ĠIn side
Ġteam mate
Y oung
ut z
S er
Ġthe olog
ical s
Ġ184 5
ĠEd ge
Ġsymb ols
Mart in
Ġens emble
Ġenroll ment
h as
Ġh ub
Ġfollow ers
Ġcirc ulation
ĠÄ Ĳ
Ġ1 12
Ġl anes
inn ed
Ġdiscrim ination
H E
ĠCraw ford
Ġsh aped
Ġaut umn
quarter ed
Ã¡ ndez
ev ille
Ġdesign ers
Ġtransport ed
ĠAlexand ria
ĠT ank
ol ith
M ax
Ġpriv ately
cha ft
Ġcl ay
Ġrev ived
ĠI g
ĠN in
ĠB ord
Ġcrit eria
Ġh az
Ġmut ual
G P
le en
Ġb ore
Ġh itting
Ġg rants
velop ed
Ġpot entially
Ġobserv ation
ĠSoft ware
ĠMar itime
ĠCar lo
190 3
C O
ĠBl air
bre v
Ġf iscal
Ġperson ally
ount ain
Ġflu id
ĠP aint
ĠS tern
Ġrad iation
d istance
ĠH appy
Ġro okie
ĠMc D
so le
ĠInt eg
ĠBir th
Ġconcent rated
om ar
erg round
Ġident ification
Ġmat ure
am as
ĠH IV
Ġpres ervation
ĠJul ie
S outhern
ĠAr n
D own
ĠG ir
Ġsail ing
l oss
ĠA str
yl um
Ġant icip
H y
ĠS qu
ĠM oss
ĠCh oice
yn ch
ĠTest ament
h of
on o
Ġper former
Ġscreen writer
Ġrevolution ary
ad al
, âĢĿ
Ġex chang
ĠBe a
ĠUS SR
l ied
ĠC lement
ipl oma
Ï Ĥ
ace ous
iss ued
Ġbr ig
C ivil
Ġ1 21
ĠKn ox
ĠJam ie
M id
na issance
Ġp ink
pen se
l ies
ac ular
ĠK aw
ĠSh im
Ġhon ored
Ġdiplom at
ĠK ot
ĠW ord
Ġapp rent
gr and
ĠBur ke
ĠR NA
Ġen vironments
ĠCour se
ĠFif th
Ġstr ings
atter y
J on
Ġre ass
Ġn erv
et es
com plete
Ġsurre nd
b les
Med ia
ĠWednes day
ĠNe igh
ĠJohn ston
ĠD ry
Ġst int
Ġco ord
Ġmet ab
Ġrefer ee
ĠBel le
E ach
Ġdem anded
ĠEston ia
b oth
ĠArch diocese
Ġ183 2
Ġcal endar
Ġrival ry
l ore
ĠSup erman
ĠR ules
ĠW aters
ri o
g i
ĠM ile
ĠK erry
ĠMar tha
A ut
Ġs ulf
ĠB A
ĠLe af
Pr ivate
an che
Ġsuggest ing
ĠMar ian
Histor ic
Ġant ib
! ,
ortun ately
ĠS ikh
il us
Ġm ail
yt ic
ĠC ool
Ġcl ients
Ġexp atriates
Ġc ir
Ġinter red
Ġ10 2
au f
B ir
ĠTer ror
ul ates
Ġam munition
Ġagre es
ik er
190 4
Ġassass ination
um en
oot ing
ĠGreat est
ĠD j
ĠHug o
Ġpl ates
ĠÄ Į
L uc
ep pe
ograph ies
ĠTe h
c ane
Ġter rain
end um
Ġro d
Ġopt im
G od
ĠG at
ĠRed skins
b irds
Ġder iv
ĠB ased
all a
S ide
ĠE in
Ġsl opes
it ious
ĠV III
Ġrock et
ĠBC E
Ġexp anding
yl on
Ġo ct
Ġhop es
ĠHay es
ĠSk i
ĠR BI
d an
Ġsp ac
Ġm a
Ġabsor bed
ĠC ash
Port ug
Ġsuburb s
ĠInsp ector
g eme
ll er
Ġdr ag
Ġs aint
be k
Ã©t ico
ĠTri p
AT O
ĠR T
Ġconstant ly
im ony
ĠStr ateg
Cal ifornia
Ġqu e
Ġpsych ological
ard y
Ġep it
Ġfind ings
at oon
Ġw aves
F ree
ĠR up
Ġun em
Ġhom osexual
Ġh ier
ĠP ied
ĠJo el
Ġmon ks
Ġshel ter
ĠColon ial
ĠLud wig
r ights
ĠT ennis
ĠN ote
ĠApp eals
ĠLiter ary
Ð ¹
Ne ill
Ġth orough
ch urch
ord inary
Ġth rown
he ss
Ġen abled
s elling
ĠRh ine
Ġhydro gen
ĠN ass
Ġshe ep
Ġexper ts
ĠBo hem
Ġj ack
Ġcan cel
g art
ĠF ergus
Ġspec ified
ĠSouth west
Ġbank ing
ĠS pl
ĠJ ourney
Ġde als
Ġjournal ism
ĠEll en
P enn
ak ov
B attle
Ġmed ian
Ġaud iences
Ġreve al
Ġf ires
ep p
add le
al bum
ĠI stanbul
S a
g ang
ĠGen eration
s ince
Ġbroadcast er
Ġ es
all i
ard ment
ĠCol lect
ĠH oll
Ġinter im
Ġs hed
id an
ĠCop enhagen
Ġdepos its
ĠChron icle
c r
c us
fl ies
Ġf irms
Ġc oc
Ġh ung
Ġtrav elling
Ġle ase
e ur
ĠTh ames
Ġpar as
ĠGu ang
ĠFace book
ĠE t
U T
Ġun anim
duct ive
Ġsouth western
Ġcatal og
ĠHeavy weight
Ġ184 4
Ġc er
ĠM ail
ĠEp isode
Town ships
P ass
Ġtra ils
ĠRaj a
Ġcreat or
ĠF an
V en
ĠI N
ĠAg re
y u
Ġacqu ire
ĠPant hers
190 2
im an
ĠO F
oc ity
Ġup set
un i
ĠGen eva
l is
en ic
cl ub
Ġper pet
ĠI L
af ia
Ġsec ular
Ġwrest ler
H ot
ĠM Ã¼
Ġcle ared
s ay
ĠCom plete
Ġeduc ator
x i
ack ing
Ġfrag ment
Ġqu oted
ĠLy on
Ġc osm
ĠCo hen
Ġtownship s
j ud
ĠC ut
Ġed ges
Ġtarget ed
strument al
Ġa uction
Ġp ump
Ġnational ist
ĠNob el
Ġalign ment
Ġconsult ant
Ġ18 0
Ġstat istical
ĠD ew
uct ure
let cher
Ġsp ar
en ary
ĠB rent
Ġpurs ued
ĠFranÃ§ ois
ĠC os
Ġ184 1
on ing
ĠMan or
Ġnation wide
Ġw ww
Ġmin eral
ra its
A mb
ĠHard y
7 00
Ġbe aring
ĠForm ation
Ġs weep
ĠI BM
wa it
) ||
ĠK end
Ġsit com
Ġen able
Ġcongreg ation
Ġp ig
Ġnorth western
ig rant
ĠAlb anian
P ak
b red
Ġsole ly
as ium
ad ors
sh i
Ġanth ology
C R
Ġread s
u ate
ust y
Ġconsid ering
F a
b eck
omin ated
commun ications
ann ah
ink i
ĠHer oes
Ġtalk ing
Ġrenew ed
Ġunivers al
ĠHe at
v iv
ĠC ul
ip ur
ĠH our
ĠInter ior
ĠRepublican s
Pl aces
Ġoccur ring
ĠRom ans
ag ogue
ĠTun is
ĠD ow
ĠRock y
ĠV ij
Ġl ar
Ġcol span
w ill
Ġsac red
Ġor bit
ĠSy rian
ĠTr uth
Ġreview ed
Ġrot ation
Ġshall ow
Ġaccompl ished
ĠM oor
ĠW is
Ġfl av
Ġhost ing
ash tra
ĠRecord ings
Ġmathematic ian
y cl
ĠC ock
urs day
at as
ĠY osh
ĠOb ama
Â ²
Ġab brev
ron ted
ri ans
che m
L ocal
ĠF erry
Ġtrans p
ĠNew man
ĠR andy
ĠHol ocaust
Ġcou pl
ĠDor othy
Ġd ella
Ġsett le
ĠMur der
Ġen zyme
ĠC od
ern er
Ġdecl ar
ĠSic ily
ĠP ere
Ġst ability
Ġdis orders
An t
ia e
n ov
Ġm arri
Ġter restrial
atern ity
ĠB ent
oun ce
cast er
ĠThrough out
Up on
Ġcollect ing
c ut
ate ver
ĠV ision
ĠCamer oon
rit z
V irgin
ĠP am
Ġsn ake
Ġgar rison
od or
ĠJud a
Ġdeep ly
Ġl ac
ĠS leep
ĠD E
Ġaccident ally
Ġdevelop er
ĠN u
Ġwild life
Ġthe ology
ĠF alk
ov ed
Ġrele asing
189 0
ĠM ake
Ġdem ocracy
Ġper m
189 5
Ġboard ing
ĠG y
Ġreg iments
rib e
Ġ10 3
che z
ĠBro ck
An th
Ġkit chen
n orm
ĠT ask
ay e
Ġut ility
Ġtorn ado
Ġw ound
ĠI z
Ġ15 00
Ġb eneath
Ġcor poration
Ġn aming
play er
Israel i
å ¤
ĠWill ie
Ġimpro ving
Ġemer ging
B oth
Ġre actions
ĠB alk
Ġ183 8
Ġbe er
man s
arth y
ĠChar ter
Ġse al
Ġvary ing
E lections
ĠAn imal
Ġmagn etic
W ild
Ġ183 9
Ġre opened
Ġman or
Ġconfig uration
ĠMat hematics
ĠT yler
ĠCop a
amp h
Ġ14 0
ĠSuff olk
F ellows
raf ts
Ġw elfare
ym es
ĠB ee
Ġrep airs
Ġl os
ĠNik ol
Ġbul k
ĠAgric ultural
Ġlit erally
ĠD olph
eg ie
ĠWals h
Ġs ew
eed s
Ġmass acre
Or iginal
ian i
Ġproper ly
Ġweb s
A rab
ĠM ing
pe z
Ġcur ve
s ix
Ġh ull
c ourt
ect ives
Ġmin imal
ĠD erek
ĠV iv
b est
Ġal umin
Ġforest ed
w heel
Ġg amb
H uman
Ġalgorith m
ĠG ospel
ĠPrincip al
ĠAdd itional
erg arten
Ġcr im
Ġb apt
ran ger
ĠW eather
pl ane
Ġl ux
Ch arl
ĠChile an
am ount
Ġprin cess
Âł Âł
ae a
berg er
Ġd ense
Ġstar ter
Ġr uf
Ġinterpre ted
ĠPap ua
in ite
ĠD eg
oc ate
ĠSil va
Ġhop ed
Ġtro ubl
Ġ10 6
W eb
Ġbox er
Ġcul min
ic ol
in ating
Ġmess ages
il ogy
Ġsc hem
Ġair ports
Ġdecre ased
ĠH il
al id
h ow
Ġburn ing
ĠRe in
ĠSof ia
as aki
Ġdec ommission
13 0
ĠT oo
ay ers
Ġnot ing
ĠLeg al
ĠPhil harm
Ġd uration
Ġdistingu ish
Ġ184 3
R od
ĠSal em
Ġc ock
Ġb alls
Ġwhe els
ĠD id
ĠZ en
ĠSouth ampton
Ġmeas uring
ibl ings
Ġcar ved
omet ime
P rem
Ġf atal
ĠCar pent
on el
ĠThe odore
h ttps
Ġsubmar ines
Ġod d
it Ã©
ĠIn stitution
ĠS quad
ĠR oma
ĠK ad
igg ins
et ric
Ġtrans formation
1 20
io let
ĠMar ÃŃa
ĠL il
Ġra pe
struct ed
ĠG ul
ĠVisc ount
W R
Ġcompris ed
ĠP all
en ess
ĠS hen
ĠD ee
Ġst roke
Ġest ates
Ġcom une
ĠBuddh ism
ĠProv idence
Ġrom ance
D es
ar ity
em por
Ġl ung
ri pp
ĠPot ter
ing ers
as is
ĠS ugar
ĠBad en
ĠL af
Ġsen ators
C ert
Ġ ic
ĠV ick
Ġh ook
ĠG ur
Ġcap abilities
itor ium
Ġconqu est
Ġeas ier
Ġgener ate
Ġpra ise
ĠVict ory
ato es
Ġform ats
Ġperform s
189 9
ĠU FC
ĠA ce
Ġdors al
Ġannounc ement
uv ian
ĠDr agons
Ġcust ody
ane ous
Ġvirt ually
ĠJerem y
ĠS ed
Ġrail ways
Ġam alg
ĠMid lands
ĠPop ulation
Ġcl othes
Ġterror ist
ĠChe ss
ĠSant os
Ġsk y
S om
ĠCom b
Ġrel uct
ĠBer ry
Ġacknowled ged
ĠPri est
ĠMap le
Ġvic inity
cl air
Ġactiv ated
ĠD uchy
ĠPack ers
Ġv ir
ĠMar co
ĠIndust ries
Ġar bit
Ġproceed ed
Ġc ass
os al
Ġdraw ings
establ ished
ro ft
Ġsurn ames
Ġcirc ular
an us
Ġen cl
Ġsl avery
ĠE ducational
d imensional
is i
ident ial
com es
Ġtour ists
Ġbut ton
Ġsurf aces
ĠLeic ester
Ġthe or
Ġ10 4
Ġstrong er
ĠGust av
ĠH ack
Ġdep ot
ĠL ap
ul ine
ĠStr ong
Ġconc urrent
ufact uring
ĠT at
Ġlin er
b f
ĠW C
Ġoff ense
se at
t el
Ġk iss
Con c
Ġj et
A L
ĠRes c
Ġdraw s
M inn
Ġair ing
C amb
Ġtrump et
ĠChar leston
Ġflood ing
ĠUg anda
ĠTrin idad
Ġreg ister
ĠCh in
Ġfort ress
n umber
Que en
Ġimp osed
ĠGuatem ala
he ng
leph ant
ĠAtl as
ĠSp ac
att y
ĠÅ ½
Ġz ones
im ity
art e
Ġwar bler
ĠCont in
ĠP ret
ev o
Ġpros per
Ġra pper
ĠMalays ian
Ġgod dess
ĠPar agu
Ġm ask
Ġs in
ĠP ars
Ed ward
Ġsub urban
ĠLyn ch
O x
ĠV at
Ġv acc
Ġrec urring
ĠP ione
Ġsc orer
c al
im i
ĠMy stery
Ġfl own
orient ed
ĠBut ter
Ġspot ted
flu ence
zh ou
I ran
ven ile
ĠColomb ian
Ã ²
Ġdo zen
Ġback ed
mar ine
Scot land
Ġsp ir
Ġbu ff
Ġfoss il
ott om
T w
n ick
Ch ina
ĠDisc overy
Ġhead quartered
or ers
ĠPr iv
Ar ts
Ġreb els
ĠM are
ĠH ost
ĠLe Ã³n
imens ions
ĠSh am
ĠQu artet
m itt
ĠG ates
Ġf ights
Ġinter actions
Ġkilomet res
Ġfurn iture
Ġar ray
ĠAlb ion
ĠR iv
Ġal gebra
Ġr ider
Ġcollaps ed
ĠUrugu ay
ev iÄĩ
ile e
Ġex terior
anc ement
SC O
Ġland mark
Ġarm ies
A D
Ġrem n
Ġtro phy
Ġcor on
ĠCurrent ly
ĠRif le
Ġin clusion
Ġch assis
A mer
ĠCong reg
ev e
Ġdi oces
idel ines
ĠSacram ento
wid th
l ass
ĠOs lo
Pac ific
Un ion
ĠAcadem ic
Ġfar mer
ĠS ister
Ġsc out
Ġp aying
Ġ184 2
ĠTrib une
Ġfe els
I ll
erv ille
ĠTh ing
Ġn ose
ĠCh oir
Ġh ol
aw k
Ġpan els
L ine
ĠH i
Ġdanc ers
ĠBud apest
Sing le
m ile
ĠC ay
Ġautom atically
ĠC apt
ĠM atch
Ġw reck
Ġs amp
Ġmon uments
Ġcopy right
Ġconf usion
Ġassign ment
ĠNapole on
Ġcon stitute
ĠSc ots
ĠSy rac
Ġtri ps
Ġdestroy er
Ġb ones
cess ion
ĠSchol ars
aur us
Ġcons ort
ĠAnn ie
Ġadvis or
ĠR id
Ġprec ip
Ġdisapp oint
ĠGriff in
ĠKazakh stan
as an
Ġhand led
ell ar
ĠCommun ication
Ġover w
ĠM ys
Ġorche str
art ime
ĠY uan
ember g
ĠBudd ha
Ġbad ly
Ġinteg ral
Ð ¼
ree ks
AA F
Ġwatch ing
Ġcompens ation
Ġ183 6
ĠK ane
Ġtre as
Ġs its
G reg
Ġunc lear
ĠSt ore
ĠS M
Ġl ying
Ġv ulnerable
Ġnob ility
ĠR ever
Ġpoor ly
ĠLegisl ature
en za
Ġimp ressed
Is lam
ĠP GA
ĠT able
ĠWander ers
ĠP itt
mid t
S ound
ĠH ert
ĠF ur
ĠBre nd
ĠN ed
ĠBe ing
ĠR oc
ĠInd igenous
Ġmonitor ing
. -
ĠF em
th ird
Ġtrain er
Prot ected
ĠSac red
p olit
Ġal phabet
Ġeng ra
ĠL ed
ĠAd ult
Ġs a
ĠKle in
Ġphenomen on
ĠOther s
ĠCorn ell
ĠAndre a
l as
ĠO pt
Or iginally
Ġb ag
ĠB order
ĠMax im
w alk
Ġs aints
Ġp in
ar re
Ġf inger
Ġpl um
ĠSuper ior
ĠS Ã©
ĠK eep
ĠNord ic
Ġshe et
Ġh ind
189 8
ĠTre k
uk h
Ġless er
Ġassemb led
ansk rit
Ġde gr
K ey
Ġcab in
Ġem br
Ġlog ic
r ÃŃ
Ġregist ration
j in
le um
Ġbul let
ĠG av
ĠCrit ics
P it
d aughter
Ġsup porter
the m
Ġinter act
ĠK ab
Ã¨ s
Ġ ur
og ram
ĠParad ise
Ġp el
ip edia
ĠTe en
Ġmot if
uzz le
ĠJul ius
act ic
Ġatt itude
th is
Ġfinal e
ch ard
Ġsculpt ures
ĠG w
Ġpart icles
sh a
ĠRos a
ĠJes se
ĠSyrac use
ĠÅ Į
Ch ildren
ĠKarn ataka
ĠGr aduate
r one
it ely
R P
Ġhe ter
habilit ation
Ġprompt ed
Ġninet eenth
ĠSc outs
Ġh ide
ĠG an
Ġl eng
red it
Ġmanusc ripts
Histor ical
ĠT ext
ĠH ul
hard t
ĠL ip
and i
S ar
oph on
ĠS ag
Ġm ud
K en
Ġaccord ance
N ow
ĠT ow
Ġneigh b
Ġf ees
Ġdoct rine
ĠPl ain
aff e
bl ack
Ġconsequ ence
Res earch
Ã ®
abl o
ĠBul let
ĠHein rich
Ġn ights
ĠAd olf
ĠCour ts
Ġexplan ation
ig el
Ġinvol ve
Ġconv oy
ong o
Ġline back
ĠP S
ĠL inn
ĠSan ct
h uman
olog ically
ĠBal let
ĠElect ronic
ĠH ank
c in
l ord
ĠJ ake
Ġfeat hers
Ġlay ers
'' '
ĠW ilm
Ġpl anted
ĠGreen e
Ġr amp
Ġlect ures
u o
Ġscreen play
it ative
Ġsc attered
ĠBo eing
Ġdem o
Ġbre ad
Ret urn
ĠE y
ĠNic ol
Ġbus h
ĠFl ash
Ġregard less
z burg
ĠGard ner
s burg
Ġ10 7
yl ogen
Ġexpl oration
ip zig
Ã§ a
Ġo m
ens ed
Ġjump ing
Ġg rain
ĠAr ctic
Ġord ained
ĠN ATO
ĠFre eman
Ġmemb rane
ĠLet ter
St and
ĠEnter prise
Ġcent ered
Ġsynthes is
Ġt rick
ĠRel igion
Ġa est
ĠCol ony
Ġaut hen
Ġir regular
Pro v
ĠK C
et hel
ĠAdvis ory
ĠH ampton
Ġpre f
he rent
ain ted
ve ill
ĠAcc ount
Ġblock ed
ĠEd win
.. ."
ĠC IA
ĠEx hibition
Ġdiscip line
ĠE lection
Ġprox imity
Ġdr ives
Ġmanufact ure
ĠF ont
ĠAn im
Ġpubl ish
or ate
om atic
Ġ18 35
ĠEm ma
ĠBalt ic
Ġflag ship
ĠSerge ant
iffer ent
ĠS E
Ġe ating
ĠF ast
Ġun w
ace ut
ĠCl aude
ĠChe shire
rown ed
an mar
ham med
R oy
ĠSher man
Ġwick ets
K e
Ġt une
Re view
Ġmed all
ĠS V
ch ar
Ġ16 0
ĠHur ling
Ġsepar ately
Ġsy mm
ĠL LC
ĠF o
Ġv ine
ĠMes a
op ic
ĠSe oul
Ġess ays
Ġmom ents
Tex as
ĠSpe aker
ĠS uns
Ġafter math
hold er
189 6
Ġprepar ing
og h
ĠStre ets
T rad
Ġcomp anion
M us
Ġpract ition
u um
ĠG ian
ĠJ al
Ġsuccess ive
el ic
Ġround ed
ĠN uclear
Ġtr act
Ġox id
ĠAl leg
Ġph on
r ud
ĠG ross
ĠT otal
umb ers
ĠOr t
ĠBeg inning
Ġobserv ations
Ġgod s
B as
b ad
Ġrul ers
merc ially
ĠS ever
Ġ3 50
ĠAlb ania
orne o
ĠMar cel
led on
Ġdyn amic
Ġag gressive
ĠKrish na
b rown
v ine
Ġkn ocked
ĠHonor ary
Ġac claimed
ĠEast er
ĠEston ian
ĠD up
udd y
Ġv oyage
Ġup coming
N R
ĠS ard
ĠH MS
ĠHaw k
Ġfre estyle
German y
ĠDream s
en er
Ġopp osing
power ed
Ġr ushing
Ġcomm anding
Ġinstruct ions
Ġm ontane
les h
ĠChurch ill
ĠMy anmar
ĠFl ag
j ust
Ġd iving
ĠD rew
Ġexp elled
B BC
B rian
ĠF i
mod ern
Ġorient ation
ĠE ar
Ġ18 20
ĠEuro vision
ew ise
Ġhorizont al
field s
Ġs iblings
Ġprohib ited
ĠPro s
orm s
CA F
stra ÃŁe
Ġdef unct
ron ics
E F
F ire
Ġback up
Ġspons or
Ġsc ar
ĠCol ts
om al
Ġequ ally
Ġs or
Ġstep ped
Organ izations
ig ins
lic ation
ĠL ay
ĠVern on
cent ral
Fran c
ry n
Ġun expected
ast on
Ġinvest ors
pr int
Ġmin im
elf th
ĠGar cia
Ġt ertiary
as por
Ġtrib al
Ġundert aken
est ock
Ġd inner
ĠBeat les
Ġadopt ion
Ġpromot ional
am en
com be
Ġpar ad
ĠBald win
Ã¶ l
N ame
Ġthe sis
ĠT yr
Ġh oles
ĠSing er
Ġc ant
Ġg ameplay
Ġpre lim
Ġc ounts
Ġentreprene ur
P P
Har vard
ĠCo ch
Ġpen et
Ġm isc
Ġconsider ably
Ġhe ct
Ġpropos als
A sh
ĠC i
red its
ĠHol ly
ost ic
pher d
ĠQ ing
Ġpoll ution
ĠAgre ement
ip es
C H
at ible
ĠD ock
ĠCole man
ĠĠĠĠ ĠĠĠ
Ġconvers ation
ced es
Academ ics
ĠDyn asty
Ñģ Ðº
her ic
K h
ĠT actical
Ġl over
Ġcoordin ator
ĠCom mercial
ĠNorth ampton
S y
ber ra
veill ance
Ġc arn
Conn or
Ġd ish
and in
ĠExcell ence
ĠCh o
ĠT yp
Re al
Ġconv ey
Ġlater al
h orse
am oto
unn els
ĠF eel
Ġmar ble
Ġ ion
Ġth roat
In c
Ġmark ing
Ġinaug urated
ĠWeb b
ĠL it
Ġconf idence
ĠDirect ors
mark et
Ġ {
Ġp enn
cl iffe
Ġprom ise
ra z
ĠLa ur
Ġinterview ed
Ġdepict ing
min ton
ellig ent
ĠC ave
Ġem igrated
Ġw alks
B R
Ġp ine
Ġlong time
ĠMe h
ĠRoad s
Ġdes ired
ĠGar c
Ġa ster
ut on
Ġlov ed
Ġr ational
Wh o
Ġwithdraw al
ĠHear ts
r s
ĠUlt imate
as ian
ĠN ico
Ġconsp iracy
if iers
T ony
any a
Ã¡ l
Ġconf irm
ĠDet ective
ĠT rent
Ġtop ic
Ep isode
ĠCzechosl ovakia
Ġrefer endum
ĠRos en
Ù Ħ
Ġd well
Ġref uge
ĠBulld ogs
ĠEm il
ĠInn ov
Ġcomment ator
ĠS utton
ĠM ud
Ġwood land
Ġthe orem
Ġin fer
Ġm ild
ch annel
Ġpres um
Turk ish
ĠBra h
ant an
Char acters
ĠV it
ĠH ond
ĠH ale
Ġsimul cast
Ġv ector
we iler
Ġaut onomous
ĠUs ing
Ġc rypt
Ġworks hops
im p
ab s
ĠNAS CAR
Ġf ier
ĠChap man
Ro ad
L ee
ass adors
ĠNic ar
ĠM eyer
b illed
sh ine
ĠSant o
ag ara
otyp es
ĠL ines
iz ers
Ġest imate
Ġacc idents
ĠOs aka
Ġev ident
Ġto pped
188 5
ĠP ond
Ġfl ute
ĠFalc ons
ĠĠĠĠ Ġ
ĠAle ks
Ġ1 18
ĠR ip
abl ing
ĠB j
ĠE lev
ig u
ĠCh arg
ĠMarin ers
ĠCl ara
ĠWin ston
ĠY uk
Ġbomb s
ĠBull s
z el
ĠU d
Co aching
Ġinstruct or
Ġab stract
ĠCon stitutional
ĠD ixon
ĠY ard
Ġed iting
Sc ience
Ġp alm
Ġsw ing
Ġn erve
ĠV eh
Ġpen insula
ah i
ĠSh i
g overnment
he ars
ĠPr ide
Ġconsid ers
Ġgather ing
ĠP owers
ik k
ĠJ orge
Ġclimb ing
ĠLeban ese
ir ical
lin ary
Ġcomp rom
Ġcruc ial
Ġan at
Ġten or
Ġcust oms
lo o
S ection
Ġp ounds
Ġcou ples
ĠSt op
Ġland sc
Ġo ak
ĠPrim era
ĠPro cess
Ġless ons
189 2
Ġcl oud
ĠMon ument
the l
Ð¾Ð ²
ass ic
Ġins ect
ĠPet ro
ÈĻ ti
ĠR out
ĠWh y
Ġaut o
ĠMerc ury
B eg
Sim on
ĠH ed
Ch ap
ĠHon ey
ocol ate
ĠJen kins
m us
Ġbacter ia
st en
com m
Ġcritic ised
Ġab bey
Ġfre ed
br anded
ĠF letcher
ĠEmer gency
ĠC T
ĠPasser iformesFamily
qu is
ĠCh ancellor
co le
h ouses
ath ing
Ġdef ic
op l
Ġposthum ously
ĠJuda ism
ĠPr ussia
Ġgradu ates
osa urs
ĠFull er
Ġun ve
c ot
os ystem
ib an
ĠCal ed
Ġdep ends
Ġl ob
Ġphys ically
ĠStep han
Ġl ord
ĠCher ry
ĠK Y
Ġdem ocratic
Ġ ).
ĠV erb
ĠMun ster
Ġconsequ ences
ram er
ir s
ri ke
Ġdr unk
Ġstri ker
Ġexhib its
Ġproport ion
S un
ch an
ell es
Ġprob ability
ĠL ives
Ġdist ant
Ġautom obile
ĠMon ica
Ġremov ing
Ġd ent
ĠSebast ian
ĠAt hen
Ġw ake
ip el
189 7
Ġstri kes
Ġwood s
ĠDerby shire
ĠAlger ia
Ġw are
Ġor th
Ġatt ribut
ĠFrances co
Ġb ind
M iddle
n is
et us
ight y
Ġf Ã¼r
ĠCarn egie
Ġflow ering
I mp
Ġsp ur
ĠField s
Ġkind s
Ġk in
Ġt uber
ĠTol edo
al ong
Ġad equ
ne um
Ġfavour ite
Ġest imates
Ġver b
ĠG ol
ĠAss y
ĠRel igious
Ġun ited
ĠErn st
ĠBol ton
Ġs ou
ĠG ott
Ġpron ounced
Ġrecre ational
ĠA G
ge ons
Ġg ates
Ġte lev
Ġdis k
ĠCor por
C at
ĠM Äģ
ĠK yle
Ġren t
ĠL on
Ġpred ict
ĠMax well
Nor wegian
ĠC umberland
ĠW id
Ġdiagn osed
ear ance
Ġpres c
O K
Ġexerc ises
ur ities
st ral
st ones
un ar
N G
Ġprem iership
if olia
osp ace
ĠProgram me
h ampton
Ġge ographical
ĠWork ing
ĠHam mond
r ity
s eries
ĠS ind
Ï ĥ
Ġst abil
Ġd ressed
it ated
Ġsk iers
ett o
k l
ĠB agh
Ġsk aters
Ġdis agre
W C
ant is
Ġdis abled
ott age
Ġacc us
W here
Ġb oot
Re v
ĠE le
Ġexpl ore
if a
Ġt el
ĠM VP
ĠIns urance
A p
ĠH ok
L ight
Ġsens itive
itt ers
B eh
en stein
ĠVolunte er
ĠH ours
Ġdet ective
ĠQu in
th al
amb o
Ġep ic
H ouses
ĠBo at
Ġartif acts
Ġrel ie
ĠC yp
ipp ing
m unicip
s w
Athlet ics
M B
os o
Ġl ip
Ġleg ally
V er
Ġa rose
ri que
Ġind ie
ĠPat rol
Ġsal v
ĠFalc on
ĠHous ing
Ġdirect ing
Ġind irect
ĠFl oyd
189 4
ĠRo x
c ur
ĠL och
ĠB onn
Ġdirect ions
r t
Ġbo ost
ĠMarsh al
ĠZ ion
ĠC osm
ĠJackson ville
Â ½
Ġhum or
Ġgu ided
Ġconsid eration
ĠBoy d
Ġfil ter
P I
ĠM ilit
Ġst air
-- --
N ick
ĠLe one
ethel ess
Ġb icycle
Ġintrod uce
Î µ
D ave
Ġr ally
l ich
Ġs ab
ĠD ors
Ġde er
ĠAnn iversary
ĠC airo
ĠSh aron
ew ide
ius eppe
n ian
ĠD ong
ĠHam mer
Air ports
N BA
ool s
ĠThom son
rell a
ĠNor wich
Ġt ent
att i
ĠMore over
ĠAl g
Ġacc redited
Count y
Ġrecon naissance
im ar
Ġdeter ior
Ġin land
ĠD re
und ers
ĠFel ix
ig ger
ĠConc ord
Ġconce ived
ĠÃ ĵ
ĠZ ero
Ġsur geon
ĠR ex
Ġsquad rons
Ġnatural ly
c s
Ġcontest ants
ĠHispan ic
K ar
d ad
D ar
Ġt ables
ll i
Ġstrateg ies
Ġt urt
Ġcontin ental
Ġvol t
Ġdep icts
Ġdoctor ate
Ġoper as
Ġp aved
ag ger
ĠBe ast
Ġabsol ute
ĠDep ression
Ġwebs ites
P rim
Ġb le
to ok
ĠHels inki
ill iant
imb ledon
Ġlif estyle
Ġprov en
Ġgrand mother
ĠDar win
Ġemb arked
Ġ å
Ġmat hematical
ĠPhilharm onic
1 10
old s
ĠSport ing
ĠP R
Ġhypothes is
an ing
Ġreal izes
k el
is odes
Ġc ere
ĠF est
ĠF ear
in ster
ist ence
ĠJack ie
Ġt et
Ġa mp
Ġresc ued
b ill
Ġcom mercially
Ġf are
ĠRhin eland
ĠSt rait
ĠBeng ali
opt ers
ach y
ĠZ oo
ĠJane iro
Ġoverw hel
ĠEd u
fol io
Ġb attalions
Ġdef ine
Ġconsist ently
ĠUnd erground
ĠResc ue
ĠT ell
Ġhot els
Ġcerem onies
Ġdim in
at ur
ĠN em
Ġ18 15
Ġas ide
H ealth
O b
Ġpast or
it he
Ġqu arters
Ġmos que
Ġcount ed
Cl imate
Ġsy ll
ĠĠ ĠĠĊ
Ġres emble
Ch urch
Ġer rors
ĠSev enth
ĠSumm it
Ġimp ression
amm al
c u
land ers
ĠFor bes
Ġrespons ibilities
ĠR az
) (
Ġwe aken
Ġunsuccessful ly
ĠS ep
ĠJ i
av ers
Ġdestroy ing
Ġinters ections
mer e
Ġlect urer
Ġob vious
Ġsum mar
ĠBundes liga
z on
ty mology
s im
ĠSt ring
ĠUtt ar
Ġarg ue
own er
Ġh i
ĠE is
ew ater
ĠOk in
Ġs ends
lik ely
ĠAg u
E G
Ġb out
Ġcons ensus
ĠP M
Ġcycl ing
ĠM its
Ġhand ball
ĠBor is
ĠX box
Ġrecon c
ĠK ais
Ġcertain ly
ual a
ĠRober to
Ġfound ations
Ġw ishes
ĠW en
ĠAng ola
an as
Ġin ning
Ġinter fer
Ġdif f
ĠMot ion
Ġfilm maker
Ġserv ants
Ġproceed s
ĠD unn
Ġloc als
Ġacadem ics
Ġsuper hero
ĠAut o
ĠL ing
row th
Ġdisp uted
ĠEven ing
ĠD art
ĠM iy
Ġsub stance
Ġgen res
ĠIs ab
w ana
c ies
ĠCoal ition
Ġthe oretical
ĠConf ederation
Ġep id
s chool
Ġc af
ĠL R
ic iary
Ġp ace
ĠRe formed
L L
Ġ ~
at ial
ort ic
Ġprelim inary
ib ald
ĠPresident ial
ĠLad ies
Ġtact ics
ograph s
Ġanti qu
ĠVis ual
Ġc ub
Ġdevelop ers
ĠRe ference
Ġf ed
ĠS amp
Ġclass rooms
ray ed
ĠD oc
ĠPh arm
Ġfr uits
ĠU m
18 80
Ġbox ers
ĠCas ey
ĠOri ental
ĠT win
Ġillust rations
n orth
Ġroll ing
ĠD ion
Ġmiss iles
Ġdis gu
Ġtherm al
Ġresear cher
ĠTr acy
ĠTel ugu
ĠVar ious
ĠConstantin ople
Ġhigh lights
Ġsk etch
ĠG ao
C roat
t re
ĠH ew
Ġsurrend ered
ä º
Ġto uc
ĠI st
Ġspect rum
Ġfold ed
Ġk ids
yn es
ut i
ĠMar ri
Ġunder lying
ĠPark way
Ġjoint ly
Ġagre ements
ĠV ery
ĠSh ire
ĠB oss
R og
ĠD uff
Ġcre st
Ġen hanced
F K
ĠRep orts
Ġmechan isms
by e
ĠCast ro
189 1
P rom
m ain
le af
Ġtw entieth
An ti
ĠQu inn
Ġhold er
Act resses
S ix
Ġpres idency
ĠSand y
ĠL ect
Ġv ig
Ã¨ res
ĠW on
ogen ic
C ricket
Ġ ×
ar ra
Ġsp ite
Ġpol ar
air d
Ġinter ven
Ġreun ited
ĠGre ens
Ġc rop
ĠM orm
tt emberg
Mex ican
T am
ĠG M
Com m
miss ions
h ydro
ĠBe au
bf b
u en
Ġsett ings
O D
ĠAg ent
ĠJosh ua
ĠB le
Ġneighborhood s
Ġm aj
Ġcollect or
ĠBeaut y
Ġmanif est
Ġl aser
S pring
ĠEmp ress
Ġopt ical
189 3
football er
Un til
ĠJeff rey
Ġm oon
ow l
V an
ĠTh ursday
ĠPar ade
Ġto b
Ġdeploy ment
Rel igious
Ġnurs ing
Ġlim estone
ĠDemocr acy
E s
Ġit em
ĠInd o
v ik
Ġ183 1
E tymology
utt gart
D er
Ġbow l
oc ide
188 9
Ġcru ise
M ic
Ġr ings
j iang
sh ot
C ur
ĠAm Ã©
Pier re
ag ic
ron ts
Ġ u
Ġinters ects
ĠD ul
av el
Ġarm or
ĠEst abl
L o
V N
g ood
ast eries
Atl antic
al though
io x
ys ical
ok en
ĠEv il
Ġassess ed
k al
or rect
ĠC risis
R NA
Ġpurs uit
Gold en
ĠH ook
Ġob st
ide a
H ind
ĠV ed
V ar
ĠAn alysis
Ġcur rency
ĠDown town
Ġtr ucks
ĠB olog
ĠP eg
ee le
Ġprem ises
ĠB ast
ĠInd ividual
ĠRol and
Ġfacilit ate
Ġcondem ned
Ġbas ement
Ġinnov ative
ĠB un
Ġn urse
art on
ĠBed ford
ĠB ooth
feat uring
ĠH utch
Ġsc ales
ĠChem ical
Ġpreced ing
iling ual
ĠAssoci ate
em ia
Ġkn ight
Ġelect ro
ĠFergus on
Ã¼r ttemberg
ĠT in
ĠL al
ĠStrateg ic
ĠApost olic
f ried
ĠH undred
ĠR as
ĠTun nel
P ower
Ġc ater
ash ing
Ġremark able
Ġprofessional ly
Ġl ady
Ġquestion ed
Ġbound ed
elect ric
ĠLe ipzig
Th ough
on c
Ġcur ves
are l
ĠU z
Stud io
ĠE ra
Ġall ied
Roman ian
Ġac ids
om eter
Ġbal let
ĠSh an
Ġsp elling
ĠY emen
Ġnav igation
ĠR iley
Ġtr adem
Phil adelphia
l io
Ġpresent ing
Ġclass room
ĠBrew ers
ues day
Ġsal ary
ĠS ally
uk es
Ġnecess arily
Ġunder go
ĠA I
Ġlo ans
ur ia
ib ia
ton e
Ġcre am
ĠStef an
ĠCl aire
Ġcap ability
Ġwrest lers
ĠCan berra
ĠNiger ian
d ep
k ir
ĠH ipp
ĠK ul
Ġspons orship
is ure
Ġn avy
Ġbelie ving
ĠC lem
Ġ183 4
he e
Ġquant um
Ġch ains
ĠChem istry
I l
Ġcl im
b ol
Ġr ises
the tic
ĠBr ady
Ġra w
Ġinvent or
od ium
other ap
eal ous
Ġc reek
ĠCol or
Ġinvestig ations
Ġcontinu ously
ĠPat ricia
Ġtransl ations
aren ts
ĠHy de
Ġ 00
Ġadv ised
Ġ10 8
ĠH ast
ĠDavid son
ĠBrun o
f fer
ĠL iz
ĠW ade
Ġ9 00
Ġsuperv ision
ĠSav age
C ard
ĠI ch
Ġfin anc
atern al
ĠFitz g
Ġp orn
ĠAp art
Ġra ids
ĠDund ee
rib le
On ce
ĠDev ils
ĠHart ford
Ã¡ lez
C E
Ġg entle
Ġle ather
Ġpre val
ĠPad res
Ġdr agon
ip le
Ġcl erk
Ġthrow ing
ĠW itch
Ġvar iab
T ri
Ġout come
Ġcell o
ĠTit le
Ġem issions
Ġbr ut
ec o
ĠGarc ÃŃa
L ab
Ġm ad
Cy cl
ĠT ropical
Ġpol o
ys c
Ġac claim
Ġco ok
pl ant
t ers
ĠUC LA
ĠF L
ĠMon astery
B N
ar f
Ġqu ad
... ]
Ġt ales
ĠP om
ÃŃ s
Ġne ur
Ã¶ m
emet eries
Ñ Į
Ġcam eras
ĠMahar ashtra
D ev
U R
i ade
ĠM inisters
ĠF resh
M G
ĠW er
av ior
aged y
cat cher
Ġc ro
are z
k ind
ĠEvangel ical
qu i
ri ot
ĠD uck
ĠV augh
ĠBry ant
ĠTr acks
head s
Ġveter ans
ĠAl berto
Th ird
H ere
Ġrev olt
H ong
ĠEns emble
Ġass ert
Ġfair y
Ġauth ored
ch ildren
ins k
Ġap olog
Ġdiscuss ions
lem ish
Ġt ong
is ive
ĠS ara
ĠCl an
F ield
Ġsur pass
ĠEx eter
ch air
os ely
Ġterm inated
ĠHum ph
188 8
ĠK ok
Ġres erved
sp ective
ĠMon ster
Ġvac ant
ĠPhys ical
ĠCly de
at u
ĠR C
Ġder ives
Ġpubl ishers
Ġfle e
uras ian
uc ci
Ġent ities
d esignated
o os
ĠV ocals
G al
ĠS it
ĠT ul
ĠCamb odia
Ġmolec ules
Ġtick ets
Ġplan es
op p
10 1
ĠM ant
us hes
ood y
m our
ĠSm art
an ions
Ġfort une
Ġhum id
E r
F il
Ġw artime
Ġsub str
ĠLaw s
Ġcost ume
Ġmasc ot
Ġb ike
ĠZ ar
re is
ĠL und
ĠSt range
Ġcommission er
Ġp av
Ġhuman ity
ĠJess ica
Ġa uxiliary
ĠSl ovak
Ã¢ te
a ft
ĠT et
Ġcommit tees
Ġd orm
ĠD ate
agon al
Ġ183 3
Ġhar sh
Ġle ased
pro ducer
i ating
ĠM orton
Ġhar vest
Ġimport ed
Ġread er
ĠTor res
Ġinvestig ated
n ational
ĠAst ros
ĠSub sequently
Ġs aving
B ern
ĠPatt erson
ĠI X
Ġrock y
em y
Ġqu it
Ġnar rator
Ġlov es
Ġavail ability
ĠT ucker
Ġar ist
Ġst amp
ĠInd oor
ĠPl ains
ap o
Ġconsum ers
D et
Ġcare ers
ĠM ist
ĠFront ier
ĠMad h
ĠLis bon
ĠAtl Ã©tico
og ie
188 6
Ġth read
Cert ifications
L ake
w rights
ĠMar athon
ern atural
aren ce
ĠCorn er
M ean
as ma
ins ki
ĠTur in
Ġsm allest
Ġspeed s
P ark
ĠBr andon
M Hz
ĠMcC arthy
ĠL arge
Ġs izes
ill i
Ġsail ors
od us
ĠCast ile
Ġprevent ing
Ġfact ion
Ġbond s
ĠS anskrit
b u
ĠH ers
ĠL ig
Ġpur ple
ĠWor cester
Ġ" ...
Ġ10 9
ĠP red
ĠL ima
ĠS ue
ĠM und
ĠH arri
Ġpe aking
ow itz
Ġrend ered
ĠSloven ia
abit at
is or
Ġm oll
Pro gram
Ġp ic
hood s
ĠN R
Pl ayer
ĠPl us
ĠBerm uda
Ġam id
k t
le ague
ost a
Ġeight een
P G
raph ic
ĠWhit ney
d ate
Ġs us
M aster
ad ic
Ġprov ider
Ġdisp utes
Ġprior ity
ĠCreat ive
Ġcrit ically
NE SCO
Ġax is
S oft
ch ild
ĠAl m
ĠSh arp
Ġvol canic
Ġmater nal
Ġce iling
ĠBuck ingham
Ġwitness es
Ġdece ased
W alk
ĠMon ter
ets u
Ġproceed ings
Serv ice
Ġsl ope
unning ham
al ore
id ian
Ġlast ing
Ġhar ass
ĠCr u
ĠRaf ael
c ross
ĠH ak
Ġdest inations
ĠConc erto
ver age
uc c
vo iced
ĠMong ol
Ġtr igg
Ġelder ly
Ġcontroll ing
ran k
ĠAssoci ated
Ġhar bour
Ġb acks
Ġb eds
Ġg ly
ult on
Ġattract ive
ĠBeaut iful
ĠGaz ette
N ight
f ortunately
ure ate
Ġb arrier
Ġm eter
Ġenl arged
Ġelabor ate
T R
Ñ ĭ
Ġpromin ence
Ġprot ecting
d el
Ġtr uly
Ġpred icted
er oy
ĠMid land
ĠWik ipedia
ĠBron x
Ġcont ents
ull a
ĠOl iv
S ign
Ġup ris
ĠT oul
Ġcrown ed
ub ble
Ġcontract ed
Ġb omber
Ġdec ree
ĠMick ey
ch ing
ĠPol y
aul ts
f i
ĠB ac
ĠW ire
ĠQu int
gl ass
x x
ĠThe ological
And rew
Ġdeleg ate
K ore
orn is
ĠWill is
Ġsocial ist
ren ts
ind ed
Ġwhe at
ĠTour ism
ĠM ell
ĠTim othy
Ġpropag anda
ĠP ale
ĠTri o
ĠH ors
op ol
Ġse ating
agre b
ĠGeor ges
Town s
ĠAub urn
Ġm m
ĠMichel le
Ġeval uation
Ġsacrif ice
edd ed
Ġancest ry
ail able
ĠO S
ĠE rie
ĠAsh ley
Ġtest imony
p ace
Ġt aste
ĠWeb ster
B att
Ġt allest
j ani
ĠS K
Alex ander
Ġf o
ĠTreas ury
ay ne
R on
ĠSh ak
He art
ĠAr ist
ort ed
ĠBel t
Ġvel ocity
T E
Ġd imensions
Ġst range
Ġlo ose
Ġcorrespond ent
Ġcalc ulated
duct ions
ĠSl am
L S
Ġsub stitut
ok i
Ġille g
ĠShir ley
Ġsc r
un o
Ġreb el
Pr ince
d ec
am ination
ĠB ess
ĠP apers
Ġbatter ies
ĠAnd es
Ġphysic ist
Ġres ides
Ph ot
Ġunc on
Ġrub ber
F eat
ĠM ini
ĠV ald
Ġmon ster
s an
ĠU se
ĠTor ah
ust ain
Aust rian
ĠTit ans
arg est
ĠLeop old
ĠA ra
ĠF ri
olith ic
ĠCh al
Ġmedal ist
ĠClass ics
O ur
Ġarg uments
L D
Ġcor p
Ġdemonstr ate
d f
ĠAugust us
Art ists
ir ate
Ġaqu atic
Ġgram mar
L atin
ind ers
C orn
Ġn as
ĠL uck
ĠCl iff
ĠVal encia
Ġachie ving
ĠBer ks
Ġp ier
ĠB attery
Ġintro ducing
ĠTerm inal
ĠH ang
oph yll
Ġconqu ered
ac io
St arting
Ġroll er
s il
L iga
ĠEl m
ĠDen is
ĠDe al
ĠNE AT
T O
Ġtr unk
ĠKos ovo
Ġt ap
ue b
Ġsum mon
Ġconv iction
Ġsl ot
Ġworks hop
Ġ1 11
ĠP ole
ĠGeoff rey
Ġdecommission ed
L ast
ĠPro gress
ĠPsych ology
ĠW H
ĠV ista
Ġbomb ers
ĠHe y
Ġobject ives
Ġev angel
ĠW ong
ĠK ob
P resent
ĠId ent
h aul
Ġb arn
ĠTon ight
ĠCh urches
Ġhealth y
ĠHann ah
ĠSt ark
ba um
ĠH onda
ĠWilliam son
r ays
s ize
rit ion
ĠLead ership
T em
ul in
ĠDra ke
Ġund ers
Ġde alt
erm ark
ĠP ip
Ġbr anded
be it
ĠAngel a
Ġcateg or
Ġsecret ly
Pal atinate
val ue
Ġcontest ant
ĠVat ican
Ġsee ks
ĠIs les
ĠCare y
ĠR ule
Ġpar ade
Ġadm ission
Ġpay ments
Ġmarg inal
ĠA ug
ĠR ise
Ġang ry
ĠV ocal
ĠAnd hra
Ġmerch ants
ĠK od
ort e
Ġaver aged
R en
ĠPied mont
unt a
Rel igion
Ġmeasure ment
ĠP seud
Ġdrain age
ĠR ising
Ġball ot
f ig
Ġdep ictions
Ġhur ricane
ĠN iel
ĠY ak
ĠSid ney
he ed
Ġtob acco
P D
Ġmarket ed
ĠC areer
ĠW yn
Ġfact ories
Ġaccompany ing
ĠW ave
Ġref urb
ĠObserv atory
M R
rop olis
ĠR ider
ip se
ĠFore ver
Ġelectron ics
ĠLin ux
ĠSh ane
Ġbr ass
ĠTre vor
um ont
ĠPer cy
I d
ĠTit an
n ie
esc u
ĠSteel ers
Ġmob il
X X
ĠTe legraph
Ġaccur acy
Ġint ensity
Ġen closed
ĠHand book
Ġexha ust
ĠB ug
ĠD ial
ĠNorth western
let ter
Ġ ech
ĠC ell
ĠT ale
Ġe agle
Ġrec reation
wer p
ĠH ollow
Ġdevelop s
Ġp ipe
ugg ed
Ġrespons es
Ġcert ificate
it as
ĠB io
sp apers
Ġing red
ĠJ agu
om bo
Ġorgan ize
y ar
Ġaffili ation
Ġpossess ed
Ġen orm
ĠC rom
ĠPer forming
Arch itect
ĠL ands
ĠAr lington
Ġnew er
Ġteam mates
Ġput s
ic ola
Ġrel iable
bour g
Ġpod cast
ĠB orneo
ĠK urd
ĠJan et
B and
ĠCov entry
p ark
pro v
J ournal
Ch art
ĠPier ce
Ġtr ace
ĠEd en
ĠI RA
Ġinher it
ĠWin chester
un ched
Ġan arch
raf ted
ĠCar son
Ġknow ing
V I
Oper ation
Ġpar ody
Ġ3 000
ĠCor on
ap or
Ġlo aded
Ġovers ee
pres ident
Ġinv aded
gr ass
ĠH ick
ĠBerg en
Ġab olition
188 7
' "
es que
ĠH R
os ion
Ġopen ly
ĠSpac ew
ey e
Ġsm art
municip ality
Ġsen ator
ĠPer iod
Ġarc ade
T re
Ġc ement
ĠT ouch
asc ular
Ġmem ories
H op
ĠJ ub
arn a
ĠTh irty
Ġvers es
An ton
Ġd ock
urrect ion
Ġfr ames
Ġarg uing
Ġarch ives
Ġconsec rated
Ġ12 8
Ġseem ingly
ia k
ĠUS C
Ġnom inee
ĠG iant
? )
M ir
w rote
Ġcert ification
is eries
ĠIn iti
ĠH uss
ott i
olk ata
yt echn
Ġmotor way
ons on
ĠPh antom
gen eral
ĠAtt ack
or pe
G ar
ach a
ik os
oy e
Ġover come
Ġdet ection
ĠParagu ay
ĠOffic ers
Belg ian
Ġall ocated
ĠNob le
ib al
Ġe uro
Ġdon ations
Museum s
th y
S u
ĠC ove
ĠM t
ĠL ep
ank ar
Ġcl uster
ĠLat via
ĠHawai ian
Wel sh
H el
Ġinter rupted
Ġh iding
Ġprop ri
et ian
rox imately
Ġmod es
Ġaccept ance
Ġconscious ness
M ov
ĠAlexand ra
urg ical
T yp
keep ing
Ġhang ing
ĠLoss es
b ing
ĠPr ussian
ĠMy ers
s ort
ĠTur ks
ch ron
Ġsp elled
st roke
Ġexpl ored
back ed
Eng ine
F inn
it uary
ĠS D
ĠR ide
ĠR A
ĠW R
Ġj ersey
ĠGonz Ã¡lez
ĠPro gressive
ĠCec il
keep ers
ĠBur ma
c amp
Ġl ighter
ĠP ool
Ã¨ ne
Ġresemb les
Ġh oly
Ġwitness ed
uls a
Ġch a
ick er
Ġmir ror
Uk rainian
Ġsem in
Ġin ver
pro duction
ir ling
em i
ĠEl is
or ic
Ġf usion
ĠC ry
ĠT ah
ĠB otan
Ġup grade
ĠChe ng
ĠCl aus
ĠSt yle
in qu
ÃŃ o
ĠDud ley
P ers
ul ance
Pres idents
ĠEthiop ian
Ġdecor ations
Î »
ĠMer cedes
Ġchalleng ing
W S
Ġsol ve
Ġfrag ments
Ġtub es
record ed
Amer ica
Ġautob iography
Ġmechan ics
Ġenter prise
et i
Ġthe aters
ĠI D
ĠSt uttgart
ĠGl ad
ĠCarl ton
ĠHerman n
Ġcomplic ated
it le
ound ing
Ġs keleton
re ens
il ateral
pl us
Ġsp y
anc o
On ly
ĠW ords
ĠBr uins
Ġkick ed
ĠRap ids
ou ds
ĠM IT
Ġn an
ugh t
af a
ĠAbb ott
lo aded
Ġreb ounds
Sc ient
Ġt ension
ri ka
ĠGen esis
ĠâĢ ¢
Ġaud ition
ro duced
le ading
so ver
Ã³ pez
um ann
Ġinc orrect
Ġob s
Ġboy friend
Ġaccommod ation
Ġhapp ens
Ġrecommend ations
unc iation
Ġadd s
Ġp owder
ul ia
Ġlik es
Ġed it
ĠSol ar
Ġvariab les
Ġiniti atives
j ee
s pring
The ir
irc raft
ĠS v
ĠC otton
iz on
d et
Ġd ys
it ively
ĠM illion
J ones
Ġl ens
ĠInter est
ĠJoy ce
N et
ĠN ou
Ġover th
Ġpubl ishes
ĠCh ambers
ĠFitzg erald
clud e
ĠIll ustrated
Ġcreat ures
rif ied
Ġm es
ĠZ agreb
Ġorgan isms
ĠF rem
ĠRe ad
its u
Ġadv ocated
ĠT usc
sh aw
ĠSt ro
ould er
l op
ĠMid night
ĠVer de
ĠPhill ip
ĠOkin awa
Ġ icon
ĠT aj
act ivated
Comp et
ĠB enson
ĠBar ber
Ġser ver
ĠHon our
Ġan x
Ġmod est
arm ed
Ġcouncil s
Ġlif ted
ĠS ib
ĠMc Cl
Ne il
Ġo re
ĠCon rad
van ces
run ning
k ok
eng ine
Ġund ef
ĠDaw son
p ret
lim ited
song writers
Ġspr ings
Ġt onn
ĠG iro
Ġst aying
Ġor phan
E ll
anc er
fr ame
G E
ĠCol ogne
ĠCal der
Ġfac ts
ĠPra irie
v ian
ĠSch war
Ġab ortion
ĠBuch arest
end orf
Ġd up
ĠT rial
Mag azines
ĠMatthew s
ĠF ow
ĠT ou
ĠBomb ay
Step hen
ric ular
ĠLoren zo
ĠSimilar ly
ĠReserv oir
Ġres olved
ĠD res
ĠJo han
Ġret riev
ĠIm age
Ġf ails
arn ation
ĠClub e
ĠK rak
ĠBas el
ĠSupport ing
Ġpen alties
ĠB ard
ĠC ore
ew ood
ĠPort o
k ill
iv orous
Ġst ats
tt i
ĠEv olution
Ġsemif inals
so on
Ġbow ling
Ġsustain able
S ummer
ĠP ablo
ĠJ enny
ĠIn ver
sp ect
Sp ain
ĠGo es
ĠG ymn
udd in
188 4
ĠIss ue
M arg
yt es
Ġcrew s
B all
ĠC ret
Ġillust rator
ĠDub ai
Ġcir cles
ĠHol iday
Ġkeep s
bra him
ĠR ao
ĠG unn
ĠÃ ĩ
ĠÄ °
ĠReb ecca
Ġpro claimed
ard ing
ount ers
Ġg ig
ĠBox ing
Ġnarrow ly
ĠSpacew atch
ec hes
Ġinv itation
Ġdro pping
ĠSte am
Ġposter ior
Ġg arn
Ġlic ence
n ame
Ġplum age
un ion
ĠApp lied
Ġimm igrant
Ġaccount ing
ige on
r il
Ġge ographic
ĠB rett
Ġnot ion
ĠCol leges
Ġsm oke
Ġo live
ĠSc andin
Ġdemonstr ation
Ġto m
ĠN um
Ġvill ain
f ts
Ġs ad
ÅĦ ski
L ists
ĠA ston
og e
ĠEld er
ast ered
b ass
18 70
Ġtr aces
ĠSt ones
ĠLiber t
Ä Ļ
ĠL ocated
spec ific
Count ry
F O
ĠD oor
Ġmel od
ĠS iber
Ġc ig
thro ated
C ra
ul ator
Ġass ume
Ġdet ention
res cent
å ħ
ĠCirc us
H ill
iol a
D anish
Ġc rafts
ĠL Ã©
Ġfa ult
Ġun likely
ĠHigh lands
ĠWrit er
ĠSt a
Ġdeleg ation
ipel ago
w al
Ġl as
Ġcommand ers
ĠMaur it
ĠEsp a
Ġb ark
ou st
Ġdec oration
Ġext ant
Ġstat ewide
ĠRom ance
ud ed
K ansas
or an
ro zen
ĠBrit t
ĠR ough
Ġg ains
Ġfin ishes
uther land
Ġir rig
Ġmet aph
ĠBu ilt
ĠR B
Ġro de
n ell
Ġ18 14
Ġhero es
Ġshort ened
Ġmill ions
Ġwat ts
ĠRec reation
Ġreview er
W V
Ġm ills
ĠY as
Al bert
Ġnav ig
ĠS iles
ĠP ike
ĠHel ena
heim er
Ġt rom
ĠP ain
Ġs acked
Ġin cl
Ġdescend ant
H arry
ĠB ec
ĠJo ey
v ae
ĠVen us
Ġfavor able
Ġmart yr
Ġreflect s
um per
ĠSch midt
Ġenc ounters
ĠAugust ine
ĠPet erson
Ġ umb
Ġh urt
ĠN othing
ĠCom ic
Ġutil ized
Ġschem es
ĠDuc hess
Ġl ane
inc k
ĠAv iv
Ġgar age
al ach
os itions
ĠP on
Ġde an
Ġdeclar ation
R os
ib us
N L
ĠBuc cane
it ational
Ġprov iders
Ġint ens
Flor ida
Ġinnov ation
ĠD ram
Ġtort ure
Ġliv estock
ĠWe in
Ġmar itime
ĠKy iv
oura ble
A ud
ĠSix th
ĠB it
Ġpat ch
ĠLat ino
h ang
Ġhost ile
Ġelim inate
od ont
ĠMay a
Ġcompl aints
Ġbutter fly
ĠB ally
ac cess
ĠBolog na
L oc
Ġinf ected
ĠLincoln shire
Ġannex ed
ĠM aking
ĠWil ts
Portug uese
i ator
Ġbox es
Ñģ ÑĤ
Ġsh rine
Ġport raits
188 1
u ana
ĠOr igin
Ġpregn ancy
ĠLank an
B ank
c onn
Ġcelebr ity
ĠF ol
ĠB rem
Ġbus y
ĠArab ian
ĠChe v
Ġflo ating
Ġc ord
eb ack
sh an
Ġlack ed
ĠDolph ins
ĠPract ice
H D
ĠLe igh
Ġtra pped
ot us
Ġc ryst
ĠPear son
Ġdiagn osis
ĠG os
Mar ie
Ġce ase
Ġ à¤
Ġs aves
ul ata
to ine
oll ah
Al tern
P et
ro kee
ac i
us ement
Ġphil osophical
ĠW ine
New s
L y
ĠC ities
Ġg est
ĠSand ers
ĠPatri arch
ol ves
and ez
Ġterror ism
Ġhealth care
187 8
Ġwalk ed
Ġtra p
ĠJ as
opter a
Ġpost p
Ġc aves
Ġspect ators
occ up
em ann
ĠTra v
188 2
ĠClay ton
o ise
Ġto ugh
ĠM og
Ġgovern ors
Ġec clesiastical
ĠAud io
n ership
ĠD S
Ġfre eway
En vironment
ĠM s
og ene
ĠQ atar
ne ider
Ġdeleg ates
ĠCarpent er
Ġw itch
ĠG und
Ġre formed
ĠSh ot
ĠK amp
Ġs ectors
ĠC over
ikh ail
Ġwaters hed
n ar
eon ato
ub an
ĠC it
ĠA in
Ġinsp ection
ĠInt roduction
ĠP ag
us ually
ay at
Ġc ra
as ants
ĠS unn
Ġphilos ophers
Ġgeomet ry
her ty
Ġtermin ology
Ġin complete
ĠP end
ĠJacob s
Ġsk illed
Ġins isted
ĠD oyle
oc can
Ġcont rad
ĠP emb
ĠL uz
ong a
Ġbu ying
ĠPr int
Ġdem olition
F S
In s
Ġrelig ions
ĠTeh ran
ĠL amp
Ġlin king
Ġdef ines
ĠCitiz ens
ĠM I
ĠMong olia
en ia
ĠW et
Ġf itness
Ġb is
ĠK ai
azz o
Ġpro c
Ġobtain ing
a uth
ĠW ak
ĠV and
Ġdesc ended
Ġchart ed
Ġs ued
Ġst rain
ĠB Ã©
ĠShe ll
Ġpian ists
Ġunve iled
ack er
Ġn it
Ġpl ural
An cient
ad vant
ĠG ob
ĠGal way
nd on
ĠF rost
Ġdet ain
play ed
Ġsearch ing
E ric
ĠCar mel
Ġte aches
Ġcast ing
Ġdes per
Ġloan ed
ĠAm anda
Ġf res
iv isions
ĠN ixon
Ġrem ake
Ġviol ation
Ġfin ite
Ġmast ering
ĠN otes
ĠOil ers
Ġdis hes
ĠMad onna
Ġcrim inals
Ġcl oth
Ġmon k
Ġpres erv
ĠChrist ie
ĠS uk
ĠG iuseppe
Ġ18 25
Ġfood s
Ġavo ided
au k
ĠT ate
rad or
Ġvolunt ary
ĠGand hi
ĠImp ro
Ġmagn itude
Ġshell s
Ġprom ising
Ġ[ ...]
ĠC ivic
Ġan terior
Ġph ases
Ġer upt
W ales
ĠDeuts che
Ġjudg ment
Ġd Ã©
ĠU NESCO
ring e
ĠStand ards
Ġtro op
f ar
Ġin ception
ĠG ould
Ġmet all
Ġrank ings
end ra
z ens
ĠK oh
Ġhelic opters
east ern
Ġfeed s
Ġthin ks
D VD
ĠR ag
ĠGr ass
ĠEx tra
ĠN H
B alt
ĠSt arting
Ġadv ancing
Ġins urg
ograp hed
Ġclar inet
D etroit
ĠB uk
sh ort
ĠMo hammad
Ġbord ered
ĠFed er
el ius
Ġ æ
id y
ĠC yn
Ġint act
uj i
Ġadvent ures
Ġrout ine
e aux
ĠChrist ine
ĠEP s
ĠCros by
Ġmach inery
Ġcatal ogue
ĠSt ad
ĠY ah
ilk enny
ĠKu wait
J ackson
Ġd ining
et ches
oin ing
Ġrequ ests
Ġlect ure
Ġabund ant
T s
Ġs ometime
ĠCount ies
188 3
d ou
le ted
ch w
Ġt actical
Ġ q
ĠBl ind
Ġconstitut ed
ine es
ab ar
V C
S anta
ĠW imbledon
Ġ18 29
Ġbig ger
ĠIr ving
eat ing
Ġcontin ent
ĠPart ners
Ġcult iv
Ġprol ific
Ġhighlight ed
Ġinter ference
sh ima
ĠBar rett
p ublished
Ġv ault
Ġun released
G et
in en
Ġsynd icated
Ġnot iced
Ġsucceed ing
Ġs ect
ĠEuro pa
Ġorganiz ing
B ay
M u
O k
Ġt ends
lic ations
Ġd ust
ob y
ĠCan cer
Ital y
ar ound
ath s
ĠNew ark
ĠPerson al
ĠM k
Ġco oking
ĠGl oria
ĠRes ults
Ġequ ations
T a
g ren
Ġfem inist
ĠLib ya
ĠRav ens
ĠA IDS
ĠMar i
Ġmet eor
ĠSh awn
ĠJ ays
ĠV inc
ĠIb n
A k
ĠB ates
Ġ18 28
ĠNational s
Ġsimilar ities
h p
ĠCol legiate
Ġob l
ĠAct s
Ã ¬
ĠG ov
Ġor ch
Ġcol ored
Ġin ches
ary a
ĠLev i
Syn opsis
w on
Ġs ank
Ġd ens
Ġdiv ine
ĠLind say
eg u
ough ton
ĠB res
cy l
Ġball ad
Ġscreen writers
Ġcorrespond ence
Ġf iber
ĠH ydro
Ġresp ected
T en
or io
act yl
ĠLeg acy
ĠCongress ional
L ost
Ġpl acement
l ings
ay ed
ĠGu j
Ġpot tery
Ġw ished
Ġcelebr ations
ĠMo hammed
ĠR onnie
phib ious
ĠS ales
od ied
ĠHol t
L R
Ġcoin ed
Ġwat ched
C ong
un ner
Ġexam ined
ĠTob ago
Ġinv ested
Ġec osystem
Ġview ing
ordin ate
Ġcomput ing
C redits
ĠP ok
ĠH enn
im edia
it ate
Ġenh ance
S H
Ġsh r
Univers ities
ver n
ĠCount ess
oper ative
u ition
ĠC unningham
ĠCom ment
ĠMic he
Ġdream s
Serb ian
U EFA
ĠR iding
ĠK olkata
br ates
P aint
Ġw orse
ĠToy ota
ĠC ounsel
m are
ĠLight ning
ĠRain bow
Ġre per
Ġsupposed ly
186 5
Ġbl ast
Ġgall eries
Fore ign
Ġcontribut or
Ġcarri ers
it one
ipper ary
Ġbr ack
Ġl oses
ĠW are
B rad
ĠC ult
ĠA us
ĠT ud
ĠK atherine
C as
ĠS erg
ĠSal is
em on
ĠPer uvian
ĠPh oto
anth a
vey ard
ĠCar men
Ġrob ust
Ġdiss olution
st orm
ber n
Ġstrugg ling
th ouse
ĠCam den
m ant
Med ical
ĠNicar agua
A h
ham a
ĠV es
itt a
Ġpass er
ĠR aven
Ġhe ating
Ġm ice
Ġhect ares
d rama
g uez
ĠF ry
ĠU A
unct ions
Ġproject ed
Par is
ĠPe er
or ah
ĠM anning
Ġdet ect
Ġcogn itive
pur pose
n as
uc ed
Ġpitch ing
Ġenact ed
ĠImp act
Ġbe ings
Ġcont acts
Ġconv ince
h ole
Ġp ocket
od i
ment ed
aj o
Ġlist ening
st a
Ġpolit ically
ĠSw ord
Ġinst ances
Ġmist aken
ĠD ex
Ġult imate
ov ic
ĠNeg ro
Ġancest ors
Ġflow ing
ĠR ally
os ity
Ġ18 21
ĠSh o
Ġcreat ure
Ġde ity
ĠPeng uin
ĠRever end
Ġpart icle
Ġseason al
Ġdet ected
ĠHow e
Ġper ception
Ġout lets
p he
Ġdark er
Ġvill agers
ÃŃ k
Ġconc ur
ob ic
es i
am us
the re
bre aking
Ġsubstant ially
Kn ights
ĠV ander
Ġscreen ing
Ġp neum
Ġresid ences
ĠRou ge
ush i
ĠMy th
ĠBi ology
Ġl ion
em ption
com b
ĠMed ieval
Ġstat ues
Ġd il
ĠL Ã³pez
il ot
lin k
Ġeduc ators
Ġinv as
Ġeconom ist
ĠW an
ĠM aid
ra id
orn o
ari at
Ġcapt uring
Ġpil grim
Ġdefeat s
Å ĳ
ĠD esc
ĠM ate
ach ute
ĠS ens
Ġover time
ĠAn s
Ġcountry side
Ġinf ant
ĠMad ras
ĠGl ory
Ġpath s
Ġs ings
ĠK ens
Ġcor rel
Dist rict
Ġf ox
ĠC hes
Ġrel ax
ell ation
Ġel ong
Ġkid ney
Ġ ump
Ġh alls
ĠL ights
ĠG entle
ĠPal omar
Ġpreced ed
Cap tain
ĠJ et
ĠSol o
Ġauthen tic
Ġpri zes
ĠNe o
ĠL O
Ġse greg
ĠB ills
ast han
Ġany where
ili ation
Ġsex ually
ĠDec ision
R a
y Åį
Ġre feren
N ear
Ġst om
str ing
ĠDo ct
ar as
Ġlik ed
ĠD ocumentary
ĠG A
ut ers
ĠValent ine
ĠE rik
ĠCol t
ĠCa esar
ĠTibet an
ĠW B
iss ues
ĠK ell
ĠJes uit
ĠS ail
Ġpresum ably
Ġman eu
ĠG el
ĠLex ington
ĠS aid
Ġart ic
ĠAd ri
anc ock
ĠX avier
ĠBra in
Ġc av
ĠA AA
ĠPer fect
Fac ilities
B ulg
ĠRivers ide
ĠMiddles ex
ĠCal d
rÃŃ guez
m atic
ĠT il
Ġreve aling
ĠBark er
Ġcancel ed
Ġvolt age
Ġc ivic
ĠIn ner
az on
T I
Ġc it
ĠG ior
ĠCons ult
D ivision
Ñ ĩ
est ion
Ġprec urs
eg an
he art
ĠT ay
Ġcon sole
Ġcom merce
Ġac cepts
Ġinsc riptions
ĠVeter ans
im eter
Ġphys icians
Ġwarri ors
P rop
ĠCon vers
ĠHer c
ĠRick y
haw k
Ġt ender
Ġdif fers
ĠLe inster
od el
ĠO v
Ġexplicit ly
ĠBrig adier
cl amation
ĠHa iti
w ear
Ġdial ects
Ġwh atever
ĠAn imation
Ã¤ n
Ġcruis er
V is
ĠA ve
pr ising
Ġgl ob
Ġrecept ors
Ġstrict ly
K evin
M O
ess ing
Ġuniform s
Ġnom inal
Ġmag ical
ĠVik ing
Ġge ography
p ot
ĠAr b
ĠFle ming
186 7
haw ks
lean or
B on
S und
Ġs oprano
ĠB ri
ĠP oints
Ġcomb ining
ĠChen nai
Ġcould n
ĠB in
186 8
a ic
Ġex pense
Ġ18 18
Ġinter active
ott ing
Ġstrugg les
ad ri
ĠDon na
Ġelim ination
ĠL ob
ĠEx c
ĠDr ug
H al
ĠIn ternal
Ġstri ps
wing ed
Ġunem ployment
re present
ĠL ars
ĠE van
ĠPh ase
ĠTw itter
ĠGu est
Ġregul atory
Ġsw ept
Camb ridge
G i
ra pe
art ney
ĠRome o
Ġ18 10
Ġfund ra
S on
Ġbroad er
d ong
ad ar
Ġis n
ĠE b
Ġport al
B al
ĠT uc
ĠP up
ers e
qu a
Ġconvent ions
F ive
C all
ĠH ag
ĠSh annon
Ġpseud onym
M os
Ġs ear
ĠC BC
ĠI k
ĠDors et
C S
ĠI SO
red itation
G overn
re qu
12 5
b led
ĠDem on
abul ary
Through out
at ched
Ġlux ury
ĠCh rys
Ġsh ark
Ġlin ed
ĠC e
ĠBy r
pl an
esc ope
ĠAltern ative
Ã¨ ge
Ġd ances
Ġmon asteries
Ab out
Ä ĵ
ust ace
Ġtrans mitted
ĠCan on
lyn n
A ircraft
Ġb itter
ĠCh ak
rit ic
ĠDe leg
Ġris ks
Ġdestroy ers
Ġtr im
ĠInd y
Ġadvoc acy
j ord
w y
ĠC el
Ġste ad
Ġdim ension
at an
s ome
Ġschol arly
Ġmet re
Ġcycl ists
ill as
Ġdes k
ĠAdminist rative
Ġbaron et
ĠT uesday
Ġun ity
eb e
eb o
ĠBow ie
k le
Ġre issued
ĠD over
ĠRob ot
War ner
Ġin quiry
Ġprot ocol
Ġpersu aded
ĠMÄģ ori
T urn
og ues
ung a
ĠGen oa
Ġsl ender
Ġpl aque
ĠBas que
Ġwarn ed
part y
Ġcomplex ity
Ġpeak s
ĠConserv atory
at ore
ĠL atter
P L
Ġw ounds
ĠM iz
Ġlack ing
9 00
B ang
ĠP ill
ak is
ĠMag dal
az ing
ĠJer ome
ĠKash mir
ĠF res
Ġport folio
Ġcult ivation
C am
ĠB ax
ĠAnth rop
ys ics
ĠBes ides
J es
Ġt rem
Ġl ymph
erne ath
Ġ18 26
Ġf u
Ġbl acks
ĠSom alia
Ġpros ecution
B uff
Ġt ar
ĠG erm
Ġmel ody
Ġnerv ous
Ġal ly
ĠAnt werp
Phil ip
ĠF uk
ĠDr um
ĠMac Donald
ĠSin clair
H ou
cent ric
ĠMon k
ĠRud olf
l ake
ĠT ac
as us
ps wich
Ġhop ing
Ġbes ide
et ed
ĠBlack burn
ĠLow e
ÑĢ Ð°
p ol
N I
ĠTh ur
ald o
ĠHast ings
im on
com ed
ĠBaronet age
he id
ĠO le
Ġmin ers
ĠSe ah
Ġaffili ates
Tor onto
Ġl ighthouse
ib i
ĠShe pherd
John ny
Ġcomplic ations
Ġparam eters
Ġcolumn ist
C leveland
ĠCol lier
ron es
ĠNov el
ist ically
Ġst ip
rit t
Ġph ylogen
ĠMan ch
ĠMe eting
atch ing
ĠBet ter
ĠCalc utta
Ġw ool
ĠL ump
ĠAg nes
Ġt unnels
et al
ĠH ands
ag awa
oc us
S and
Ġcons erv
ĠMir ror
Ġsurpr ising
Ġst ems
ĠSy nd
Ġimm une
G O
ĠP ow
Ġher b
ĠJenn ings
om ial
us el
ĠRiver a
187 6
ud s
ĠEn c
Ġopin ions
Ġsur veillance
udd ers
ĠHond uras
h on
n eck
bro ther
Ġfolk lore
H o
ĠC edar
ĠM ald
Ġam endment
ĠLam bert
Ġs ights
Ġshoot s
ĠC able
P ast
se in
ĠRun ner
Arch ae
ĠMoz art
w ara
Ġun official
ĠLab rador
Cont rovers
ĠRan ch
ĠI ber
Ġt a
ĠR CA
son ian
Ġdom ains
Ġrein forced
Ġtal ented
mill an
le et
Ġen abling
Ġ18 24
Ġh ab
ĠMorm on
or ie
ud er
ĠY et
Ġterm ed
Ġtrans actions
R om
Ġcom eback
U nd
Ġcon g
ĠC aval
ĠAl c
ĠC umb
ĠDr ag
am ma
ĠEm irates
ĠPhot ography
ĠT ap
ĠVal le
Ġreal m
ĠCr im
Ġlineback er
Ġe y
ĠJ iang
Ġsil k
Ġcard inal
Ġd warf
Ġ18 16
ĠM afia
end e
ĠZ ach
K ent
Ar m
L GBT
l ate
ĠH un
ĠR Ã©
ĠF K
Ġcl ips
Ġthough ts
ĠAmÃ© rica
Ġs olic
rd u
ĠFranc isc
Ġam ino
ĠI de
ĠSch les
E ven
ung le
ĠIniti ative
ĠEl s
ĠG one
ĠJ ah
Ġg ren
ĠGeorg etown
ĠZ am
al and
Ġcass ette
ov Ã¡
Ġplay wrights
Ġmy st
ĠHaw kins
H ard
Ġpres idents
ĠReb ellion
ram id
ĠCl ar
ag in
ĠO mar
ĠM ih
Ġsn out
ĠAut om
Dist ricts
Ġ13 5
ĠN un
ĠK err
Ġw onder
ĠA val
f an
å ®
Ġto oth
Oh io
ĠT arg
B oys
F ull
en ko
ĠSt oke
Ġinv ention
ĠFI BA
187 9
ay ana
Ġdist ances
Ġchar itable
ĠTra vis
l ance
ul ative
ex cept
Ġtask ed
18 60
Ġequ ity
ha o
ĠMart y
ĠP f
ĠL ub
ĠUn fortunately
ĠH omer
iz ards
Ġstop ping
Ġinstitut ional
William s
d ish
Ġbas eman
ipl ines
ĠF CC
Ġcont ing
ĠStafford shire
ĠM ons
Ġen erg
f s
pl ays
om ore
ral tar
Ġinter rog
ĠBro oke
ĠVo ices
H all
inn ings
Ad am
Ã¸ r
Ġteach ings
Ġrevers ed
ĠS ain
op ot
Ġfe ast
Ġloyal ty
S ax
ous and
ĠId ol
Ġmeasure ments
Ġinstall ations
ĠFly ers
Ġenorm ous
Ġsusp ect
ol om
Ġval ve
ĠHan over
ĠR ash
Ġsh irt
ĠAm ar
ĠSal am
Ġhi atus
it ian
ic ion
ĠC rew
187 4
Ġmon key
rel s
Ġball ads
ĠRang er
ĠKy oto
ĠF ram
Ġgu idelines
Minn esota
ar ine
ĠA yr
ĠL uk
ĠE MI
Ġremn ants
Ġh aul
ĠN J
Ġcommercial s
Ġspir its
ian ces
Ġab d
Ġwh it
Ġad vances
ze k
ĠAssoci ates
Ġign ored
ĠBerks hire
Ġ >
Ġfilm ography
ĠInter mediate
olec ular
Ġmonarch y
Ġbe aches
Ġsanct uary
Ġcons c
ĠGlou cestershire
Ġbo om
Ġpath way
ĠDiv ine
Ġwire less
geme inde
ĠD ana
ĠMar ina
Ġfin est
Ġsubd ivision
K im
Ġag gress
Ġhand ful
Ġsuper intendent
ĠPhilip pe
ĠA u
Ġre hears
ra ul
urb s
Ġher ald
ĠTom orrow
og enes
Ġbl ank
Ġcompet itor
ĠRh ythm
Ġment or
ĠB ian
Ġfinal ist
Al an
direct or
g ender
Ġa ided
Ġex cluded
ft en
Ġunder took
Ġmod er
Ġorigin ating
Ġkidn apped
Ġappl ies
Ġcompar able
Ġteen age
ĠN est
ĠE gg
Ġupris ing
M icro
Ġat he
ĠClif ford
ĠL ug
Ġres ided
ĠRap id
D ark
Ġfac ade
Ġmod ifications
ĠWild erness
Ġrepe at
ĠJ ob
ĠPr att
ĠSoph ie
S erie
ie le
E mb
Ġaddress es
Ġfresh man
Ġmines weep
ct ica
Ġat omic
Ġrev ision
hn e
ĠW ife
Ġship ped
Ġtox ic
Ġac cent
ĠCarl isle
ĠSwan sea
Ġpartn ered
ĠHold en
ĠFeat ure
ĠKann ada
Ġmist ake
ĠBuccane ers
ĠJ ain
ĠCal vin
ĠMart ÃŃ
ĠInter active
ĠProper ty
ĠWilts hire
ĠT ren
Ġjew el
s ometimes
ĠB oot
D O
Ġd ign
ĠF landers
ĠHor ror
Ġmig rated
int age
Ġins ert
Ġinstitut es
Ġc um
Ġrepr inted
N ever
Î ¼
vel ation
C op
187 7
ĠBullet in
omet ric
Ġins u
ĠPar amount
Ind ust
ĠGra ves
S umm
Ġre ef
ĠPur ple
Ġundef eated
R ol
T ake
å Ń
Ġg ifts
ic ides
ĠC ran
Str ucture
ĠB oul
ric anes
ĠPre viously
ĠBas ic
Le on
ĠApp eal
Ġcat ches
ĠPars ons
Ġline age
Ġappeal ed
Ġadvis ory
ĠSalis bury
T ype
Ġdu et
ĠConc ern
W alter
Ġsc rapped
er ical
ĠK Åį
ĠY i
od d
ĠRe agan
Ġteen agers
Ġrif les
Sil ver
ï ¼
Ġchrom os
Ġmet ric
Ġconsolid ated
z one
il ight
Ġkn ife
Ġunder water
Ġcolle ague
Ġunder way
ĠSold ier
B urn
res hold
Ġr ides
ĠD ix
ĠD erry
Ġd ome
Ġfre ely
Ġsuff ix
Ġcoordin ates
ĠSt alin
ĠAl ess
ĠWorld s
ĠAugust a
Ġbr illiant
her ry
Ġreg ulated
Ġdec lining
ĠChe rokee
Ġeth ics
M F
Ġpl atinum
Ġen z
Ġreg ained
Ġsent ences
Ġqual ities
is o
ĠT ad
rit ies
Ġche ese
N umber
ĠK O
ĠUn cle
ĠTr uck
ĠSw ift
yric s
ĠRod ney
Techn ical
Ġv est
ĠV on
ĠRod rÃŃguez
Ġt ens
Ġp ent
ĠMart ine
Ġcann on
Ġcampus es
Ġse as
Ġcommun icate
Ġprec ise
ck er
Ġsp aw
omin ation
Ġoccup y
ĠHon ours
aceut ical
Ä ĳ
Ġl augh
Ġnot orious
K al
Ġcons on
Ġ17 89
Ġsm ugg
ĠBudd y
ĠPort rait
ĠInvest ig
ĠEnt ry
Ġexpert ise
ĠH BO
ĠV ia
Ġsl ide
Ġimpro v
Ġendors ed
h yd
or iginally
ĠCatholic ism
B ishop
ĠD ise
Ġtri umph
ich t
Ġcult ivated
Ġz oo
T ok
Ġdifferent ial
Ġc inemat
ĠK uala
Ġ18 01
Ġpoly mer
Ġnucle us
R est
Ġpe ers
) ",
it ivity
ĠC ic
ĠR ost
op en
Ġoff shore
Ġpsych iat
Liber al
l ide
Ġw ards
ĠRand olph
ĠS ew
ĠH yp
Man ager
ĠHy der
Ġsevent een
Ġsh adow
oth ic
Ġsm oking
rain ts
ĠPubl ished
Ġsand stone
Ġtradem ark
Mean while
isl av
Broad way
Ġcouncill ors
ĠK ras
for th
Ġsurpr ised
Ġesc apes
187 1
Ġharm ony
Ġspec ially
ĠVenezuel an
ans on
ĠJud y
f est
bo ats
Ġphilanthrop ist
inn ess
ĠWar wick
ipp on
ĠWe ap
Ġtra ff
at l
ĠÎ ±
Ġmot ors
H and
ĠHer r
Ġurg ed
Ġtrack ing
Ġpeace ful
Ġt iny
ĠS as
ĠAll ison
Ġmodel ing
Ġgener ic
Reg ional
ĠCharg ers
Ä Ĺ
ay ama
ac ia
Ġcol legiate
ĠCh op
ytechn ic
Ġp etro
Ġr u
Ġj ockey
Ġtw elfth
Ġopt ed
Ġgovern ance
Ġdisch arge
f aced
ĠH ip
Ġret aining
be ing
Ġmand atory
Ġeat en
Ġexcess ive
ĠPione er
ĠCh ip
Ġexpl aining
Ġdam ages
Ġteen ager
ut ory
ĠX ia
H aw
ĠK ak
18 75
T ro
t ec
Ġl oud
Ġcor ridor
L ew
ĠSey mour
Ê ¼
ip linary
ĠComp anies
Ġw ears
ai res
edd y
ĠG uru
th orpe
Ġch aired
ĠCl ose
ĠCl oud
Ġ Ø
ĠC ron
ĠSat urn
ĠN igel
Ġun t
I O
ĠN HS
ul ent
ĠMay o
ĠN T
Ġpage ant
Ġcomm ands
Ġinform al
al on
ĠTe achers
Ġextra ordinary
O p
im id
Ġimpl ies
Ġr ic
Ġdispl aced
ĠM oy
Ġtri angle
ĠJul iet
Ġsed iment
ĠF ors
ĠSt ream
ĠBever ly
sp ace
ung s
Virgin ia
L i
n or
Ġ2 20
ĠD ogs
ut an
os us
Ġyear ly
ĠMaced onian
ĠB old
ĠH os
ĠEarn ed
Ġtong ue
Ġr ush
cul osis
ĠBagh dad
r ust
Ġn ec
Ġfav ored
Ġac ute
ĠRec on
ĠGro s
Ġbur st
uj a
Ġappro aching
H or
R ace
ic ap
ĠWar rior
Ġaff ecting
R ick
he ll
Ġe ase
Ġmin iseries
Ġactiv ation
Ġancest or
Ġju venile
ĠRodrig uez
ĠM Ã¼n
Ġl od
ĠM use
ĠSh iva
ĠMir anda
l v
mer ged
Ġ18 23
Ã¡ d
ĠDep ot
Ġanal ys
amb ique
Ġmark ings
Ġint elligent
ĠEc onomy
ĠM uss
Ġstrong est
Ġsubd ivided
t ures
ious ly
ĠCl arence
ĠBe aver
ĠRen Ã©
ĠDres den
U D
Ï Ģ
Ġap ost
otherap y
ĠGra f
Ġswim mer
Ġst uff
ĠHold ings
Ġl unch
ĠD raw
Ġal pine
Ġswim mers
ent er
ĠTe ams
m art
Ġk een
ĠAir ways
Ġplant ation
Ġaccept ing
187 3
Ġsw ift
Ġtax i
ĠBuch anan
Ġper f
ĠGu adal
ĠL ance
ĠAll Music
ĠDep ort
Ġprin ts
ĠN om
Ġlingu istic
Ġsec uring
f ax
ĠD il
ĠWest on
agon ists
ĠStar r
Ġprof its
ĠGlou cester
ir able
Ġ18 17
D ie
ĠT ipperary
ĠEd it
Ġequ ality
D a
Ġexp ired
ĠOl ive
ĠSt eele
Ġbre eds
Ġinvestig ating
Ã¢ n
F ederal
Ġr ushed
Ġpart ition
B arn
L ate
ipe i
ĠG ap
itt y
ĠSen egal
Ġupd ate
g rave
ĠAr row
Ġpre ference
ĠG Ã³
Ġpup il
Ġattribut es
ĠL yd
own ers
und erb
ĠAn ch
Ġshow c
al om
ĠFl at
h ana
ĠS eal
Ġthrow s
L im
G irls
en bach
ĠP BS
music ian
ov al
Ġre ly
id ium
Ġgran ite
Ġsett ling
ĠInvest igation
N D
F i
z b
ill ian
ment ioned
Stat istics
S ol
ba hn
pro file
Ġdyn amics
ĠHans en
Ġles bian
Ġwh ale
Ġsub family
Ġgu err
Phil ipp
ĠHes se
ĠH ancock
Ġso ils
ĠShe ikh
E lection
ĠG le
Ġrepl ied
ĠBart on
ĠC ors
Ġhom eless
ĠS EC
Ġ18 22
ĠPer kins
g reat
ar ro
Ġatt ained
ĠWe iss
Ġcoll ision
Ġunc ons
Finn ish
Ġ18 03
Ġviol ations
N a
Ġcl usters
ĠC ounter
Ã¡ z
Ġsim ulation
Y ellow
ĠR um
turn ed
ul atory
Ġsh aft
Ġm ock
ĠF ischer
Ġar tery
Ġfin ancing
Ġcorpor ations
Hung ary
ĠU P
ĠAr agon
ĠRes olution
ĠOri ent
ĠS my
ĠF lemish
ĠBy ron
Ġlar vae
Ġa ug
Ġdem anding
Ġmar ched
ĠH imal
Ġdeal er
Ġgamb ling
Ġtr aced
ĠChar ity
Ġisol ation
ĠL ans
E gypt
Ġco e
ĠNo ah
J am
up a
ĠSw imming
ĠSim mons
ĠWheel er
ĠSp y
Ġmar athon
With in
ĠWolf e
Ġover view
ĠM ikhail
ĠR im
ĠSh u
Ġsing ular
Rec ent
Ġgra vel
ĠBeh ind
gu itar
ĠLim erick
Ġrejoin ed
arri ers
Ġext ract
Ġkey s
Ġb ol
ac as
ĠK ilkenny
ĠEl ite
ĠRuss ians
ex pl
Ġz ool
, '
ar ina
Ġp istol
Ġtot ally
Ġm im
ĠN er
ĠBang kok
ĠRand all
ĠAndre as
ĠPÃ© rez
B illy
Ġtax a
Ġtend ency
t em
ĠN ights
10 5
ih ar
Ġfoss ils
Ġm ate
ĠMar se
echn ology
ĠS eth
ers ion
Ġlength y
ĠInvest ment
ĠC ats
Ġcommemor ate
ĠRe leased
Ġportray al
ang an
Ġreal ize
Jim my
ĉ ĉ
Ġtr ilogy
ona uts
ĠEx amples
1 13
I G
b ay
Ġto y
ĠP ius
ĠD ro
Ġfl ies
F emale
Ġ18 27
ĠVirt ual
Ġb a
Ġm otto
ĠF unk
ĠV ince
ĠNag ar
ĠG ore
Ġun m
n ear
Ġrece ivers
ĠMill ennium
Ġcounter part
g iving
Ġbe et
Ġannounc er
ĠR ita
A round
Ġbreak down
ĠMah m
ung en
ĠHav ana
r ar
ow ay
ĠG reeks
M M
Ġl ords
ĠP ig
ĠExpress way
ĠMem ory
st ick
ĠM ugh
iz u
Ġdef ault
Ch ile
Ġche er
ĠF arn
ep per
ib e
Ġen ables
Ġcur ved
ĠCar s
D eb
ĠN one
ĠLiving ston
omot ive
G ary
Ġeffect iveness
ĠOrgan isation
Ġlisten ers
at isf
Ġb arg
AR T
Croat ian
ĠL ily
Ġr aced
Ġpublic ity
Ġadequ ate
M em
N O
Ġc arriage
urn ame
Rog er
ogn ition
ĠT ran
ĠGr im
ch y
ĠAr cher
Rec urring
ĠWild cats
Ð½ Ð¸
O t
Ġp our
10 2
Ġident ifying
Ġo val
Ġemploy er
I r
h om
ĠD iane
ĠEv a
udders field
ĠThe ss
Ġsp are
Ġsy mph
Ġsix ty
Ġmed ic
ony ms
Ġinteg rity
ĠC oy
Ġevac uated
u ine
Ġj oy
Ġcomb ine
Ġred uces
Ġaut onomy
ĠTal bot
B ased
Ġf ever
Ġste ady
tra k
N K
ion i
Ġbi ographical
186 1
o za
ĠGib raltar
Ġb ust
count y
Ġdis advant
ĠSam oa
Ġcomed ians
ĠAntar ctic
Ġf eared
Ġpred ators
b ins
Ġins ign
enth al
orth y
Ġrep ublic
ĠDar ren
ĠBren nan
Ġl ocked
Ġconduct ors
Ġexplos ive
Ġpip eline
ĠT ram
ĠN ut
ĠSc ript
Ġgener ating
vent ions
Ġfrequ encies
ĠFound ed
L ow
ĠP omer
ig ma
ter dam
Ġcont empor
Ġapp eals
ĠInnov ation
Ġgarn ered
or is
ĠC ot
us z
Ġ18 13
Ġquant ities
Ġp m
ĠW ii
Ġwar rant
ĠR FC
Ġdocument ation
Ġconsult ing
ĠC ull
ĠSh ap
riz z
187 2
Ġlimit ations
ess ment
Ġdesc riptions
Ġthe ological
id is
qu el
ĠRes ort
ij k
Ġinvest ments
Ġne o
Ġsoph istic
ĠS ob
os i
og ens
Ġlocal ities
May ors
Ġovers aw
g ames
Ġreason able
Ġ ?
ĠIn tern
Ġ4 50
10 4
bre asted
ĠChand ler
ĠBar th
Ġdisc iplines
ĠSch u
Ġcat cher
Ġfrog s
O ak
Ġd iox
Ġgrav ity
st at
ĠOcc up
ĠNurs ing
Ġf ant
Ġbro w
ope z
Ġopt ional
ĠV ie
Ġtrans action
Ġspons ors
Ġ17 90
ĠAlf onso
ĠVij ay
Ġre habilitation
Ġapp lying
oth s
asc al
ĠM eck
ĠJ up
rit e
ĠAng us
ĠPay ne
Ġsuggest ion
as u
ĠF ind
Ġorgan s
ies el
d ivision
ĠS ource
ist e
ĠLand marks
ĠNic olas
ag us
ĠMid west
Ġprogress ed
ĠCO N
Ġmod ule
ĠGe ographic
Ġevery day
len burg
ath lon
Ġcyl inder
ĠS ept
amp ed
ĠQuarter ly
Business people
ĠH ague
ceph alus
g t
Ġteam ed
erman ent
Ġamalg am
G ameplay
Ġm ood
Ġre branded
ĠStrike outs
ĠUnivers ities
Ġeng aging
Con stitu
ĠN Z
is chen
ĠCom ing
ĠGal axy
Ġl ith
ĠF ate
air craft
Ġtra iler
ĠF ashion
ĠM ouse
ĠN ad
educ ational
ĠWal ton
ĠY ar
ĠExp os
ĠNatal ie
or ian
Ġded ication
D in
Ġtw ins
Ġswitch ing
ĠT ian
ĠH ogan
f rey
ĠS utherland
Ġm asters
ĠLu ft
ĠSter ling
Ġday time
Ġdi agram
ĠOw ens
Comp uter
lar ation
ĠMonth ly
Ð ·
Ġsup ers
g ars
ĠG C
ĠN ice
Ġwhen ever
L ady
æ ľ
it ches
ĠE asy
for ward
ĠZ ur
Ġdiscuss ing
Ġquant ity
Ġtransc ription
Ġtonn es
ĠSt o
ĠAl ps
ĠBomb ardment
ĠV y
ĠTra ffic
Ġoverwhel ming
Ġpresent ers
Ġrad ius
ĠPil ot
oll a
ĠJose f
as co
ĠN ina
Ġ12 3
Ġdeep er
Ġri ots
ĠC ategory
str Ã¶m
Ġexpl orer
ĠInt el
ĠE sk
ĠY oko
ung al
ĠHass an
Ġ1 19
ec onomic
Ġle uc
ĠTh anks
Ġdown stream
Ġread ily
c up
ĠC um
Ġdecor ative
ĠExper ience
Ġout s
Ġdon ation
Ġcool ing
ĠCN N
Ġfemin ine
ĠEmb assy
ac ies
ĠL ucky
Ġelev ations
ĠNaz is
Ġow l
Ġrect angular
ĠT ill
ĠT ina
Ġfront ier
Ġsculpt ors
ĠFig ure
ap le
ĠB ash
Ġch im
Ġdis qual
ĠC ey
ĠS ale
ra j
Ġa unt
ĠÃ ħ
ĠFl ames
ĠH aj
ĠN iss
inn y
H abitat
Ġund erneath
ĠStev enson
Trans l
S ty
oun ces
og i
Ġed s
ĠSa unders
Ġgra ves
Que ens
Ġt ips
Ġv ibr
Ġsleep ing
Ġadapt ations
Anth ony
ts ch
Ġpod ium
Ġtelev ised
R acing
roll ing
Ġinst ant
Ġpass port
ĠSe j
Ġcons umed
ier a
ae k
ĠMer chant
Pit tsburgh
Ġcerem onial
ĠBM W
Ġ( âĢľ
Ġcour age
f und
Ġsh ar
cl er
iz able
Ġt an
re ach
ĠWater loo
ĠCh am
Ġb anner
Ġm aker
Ġsurvey s
ĠGran ada
n ance
ĠC hern
Ġfaith ful
ĠDaniel s
ĠT omb
Ġexp enses
ĠBro ken
ĠPart nership
Ġcoupl ed
Ġplant ations
W F
ĠAll ies
ĠĠĠĠĠĠĠĠĠĠĠĠĠĠĠĠ ĠĠĠĠĠĠĠĠĠĠĠĠĠĠĠĠ
ĠG n
Ġbl amed
ig on
Ġep onymous
number ed
C old
ĠB ishops
Ġscreen ed
ubb ard
Sm all
Ġlegit imate
Ġsurv ives
Ġf illing
Ġlaunch ing
c urrent
Ġham mer
Di ocese
w icks
Ġo wing
al one
ĠL ec
Ġintrod uces
Ġin mates
Ġp ac
ĠA ster
Ġcl ause
Ġreport ers
186 4
p ike
ĠB ury
ĠI R
Ġadd itions
P s
ĠAut onomous
ĠD ais
After math
is ans
ĠGu er
Ġleng ths
v re
ĠGreen wich
ĠMans field
ĠH ess
ret to
Ġcomb ines
il ers
rol ogy
ĠTro op
R am
Ġt amb
ĠK ara
Ġincorpor ate
L ev
Ø ±
ik awa
Ġbel ly
ĠRub y
Ġinfer ior
Ġf oster
Ġg ospel
road s
b rough
Ġd os
ĠC annon
Ġse aled
unk er
t w
it ra
Ġb und
Mount ains
v als
Al bum
Ġlo osely
Ġval ued
H ip
ãģ ®
Ġhe aven
ich te
ĠCh ick
hen y
Ġcapt ained
Art icles
Cons ervation
ĠF urn
ri eg
ep er
Ġex amin
Ġsup ernatural
Ġpione ering
Ġres on
Ġj ealous
ĠHy per
ĠNorm andy
ĠS uccess
Ġm eth
ĠW ien
ull s
ĠQu Ã©
ĠIceland ic
ĠVol ks
Ġinsu fficient
Ġoccup ies
ĠAbd ullah
N ob
Ġh orm
ĠP rel
Ġv end
Ġ18 06
18 50
186 2
Ġvalley s
at ia
ĠHuman ities
ĠAustral ians
C ome
ct urn
ĠV est
we ed
Ġpro ud
ĠNorth umberland
Ġparticip ant
ĠGer ard
ĠMos que
ĠTal iban
ĠLeaf s
Ġm ars
Ġred esignated
ĠWe ber
auth ored
it ism
ĠJ ing
Ġhur ling
Administ ration
B T
ĠT alm
im us
Ġrem arked
ĠNo el
af i
to ire
ĠStep hens
ĠKir by
ĠLeg ends
Ġreflect ing
F R
ĠS ach
a qu
ĠMer cer
d eg
Ġphr ases
Ġrec ycl
ĠEl vis
186 9
int eg
Ġec ology
Commun ity
ĠM O
Ġmetab ol
c ery
Ġpup pet
ĠKnow ledge
Ġsynthes izer
Ġrecommend ation
ess es
Ġassoci ates
ols he
ĠZ Ã¼
Ġincorpor ating
Ġ18 19
186 6
ĠP ueb
ĠV og
Ġsp ider
Ġcontin uation
Char acter
En ter
ĠW ey
ĠV ac
ell ites
ĠAr r
Ġ12 7
ĠLauren ce
Ġinc ons
Ġfact o
Ġphys i
ĠWW E
P arl
ĠB ram
ĠH iggins
ĠD ancing
em outh
Ġexcept ional
aspor a
ĠW ise
ĠA id
Ġst ance
ade qu
Ġ16 00
bell ied
ec ute
Ġpractition ers
Hou ston
D igital
1 15
ĠR uns
ĠF ork
ĠBrit ann
Ġspread ing
Î º
Ġc ran
ĠM ai
ĠK ick
ĠF eld
ire n
ĠDr ums
ĠTechn ologies
Ar men
Ġrain forest
ĠChron icles
Ġto ile
and e
aw an
ĠRaj asthan
Ġconsequ ently
Ġdeterm ining
Ġrelie ved
Ġ( $
ch us
Wind ows
C T
ĠSc r
F iction
Ġ12 6
Ġant enna
Ġfor um
ĠF ulton
Ġnever theless
ĠPiet ro
H an
ĠW o
ĠCh u
ĠSp ot
Ġ17 0
Ġfarm land
Ġens uing
Ġstream ing
Ġwel comed
h ara
Ä ħ
ac ey
ĠSc ulpt
amb oo
Ġincorpor ates
ĠJu vent
S us
Ġsaf ely
Ġl ots
ul am
Ġb inary
Ġre struct
ĠK oz
Ġsk ate
ĠArch itects
Ġrein forc
m ov
ĠC oc
ĠS ometimes
Ġ17 98
Ġthreat ening
Ġfore cast
ĠE up
Ġch icken
ĠReg ular
ĠBur lington
ĠZamb ia
ĠI pswich
Ġpl ac
r uz
ĠN r
pp ers
ĠJama ican
Ġknock out
Ġreg ards
ĠCl imate
Ã¡ il
Ġtechn ological
O tt
ter a
Ġab norm
Ex amples
ĠReg ina
ĠÅ ģ
T rees
ĠC redit
are th
ĠDw ight
1 17
as o
Ġschool ing
Ġpurs uing
Ġri ot
Ġcompet es
ĠTa ipei
Ġprecip itation
ĠComp anion
cont rolled
ĠY o
at y
rop shire
ĠBlack pool
Ġuncons cious
ĠMan ual
ĠEll iot
itro gen
Ġdisc ography
Ġdoub led
Ġd rops
ad ays
ĠH itch
Ġrem inis
Ġcare fully
ĠSun shine
1 000
Ġch ase
Ġsh oes
ĠCon sequently
ĠRock ies
F ood
i oc
Ġsoc io
e er
ĠDirect ory
Ġbare ly
ĠNico le
ĠFow ler
ire ment
onna issance
ĠG wyn
Ġim per
ĠJournal ism
Ġhaz ard
p ecker
ĠM aps
ut ic
ĠGl ac
Ġaccept able
T otal
ĠAn ita
ar ie
ĠBel ize
Ġburn t
Ġpret ty
Å ¼
emb ley
Ġgen eal
ĠComm odore
Ġmod ification
ĠCra zy
ag her
Ġcycl ist
Ġmonarch s
Mount ain
Ġexpect ations
ĠH of
Ġemb ry
Sub family
Ġd ivid
end ments
Ġsp ear
Ġmon op
ĠCas ino
Ġh ors
ĠN ue
ĠC ir
ĠSt am
sk irts
ed in
Ġpre vention
ĠFlow er
Ġh iking
ĠY ong
Ġveget ables
ĠLif etime
Ġspac ecraft
Ġnational s
ĠSc hed
yn amic
Ġarm oured
ĠEvery thing
ĠT ulsa
Ġun related
Ġac et
ily n
Ġcompl ained
D ick
il ib
Ġdo zens
Ġcomp uls
Common wealth
ĠSlav ic
Ã¢te au
W inter
h alt
Ġbe ats
Ġun named
u w
Ġw age
Ġs her
ort al
ĠMar vin
Ġqu artet
anc ies
Ġrecon structed
ĠB ant
Ġdec isive
Ġtra its
Ġnumber ing
ĠAfter wards
ĠRot terdam
M ixed
Ġhe aling
ours elf
ĠMon aco
ĠUz bek
s ec
Ġt ensions
Ġrenov ations
ĠSuz uki
Ġfulf ill
Ġto ys
Ġd ull
ĠBh ar
ĠDown s
l Ã©
m u
ĠS lo
Ġsub mit
Ġmet als
Wh y
Ġpref ix
ĠThe ology
ge ant
Ġcl iff
Ġmark er
Ġceleb rities
ĠFerr ari
ol ulu
Ġcont rary
ĠMel an
he a
Ġsc reens
Ġsp ells
Ġpost season
Ġsomew here
ĠTh ink
Ġmasc uline
e ous
ĠR ath
Un like
ĠWat ts
ãĥ ¼
ĠG aul
ĠSc ore
Ġelev enth
ard on
ĠBe ir
ĠD A
ĠL Ã¼
Ġplan ets
D ream
ĠChrist church
me z
Mar vel
Ġrow s
Ġan ger
Ã§ Ã£o
Mal ays
ĠNam ibia
ĠHab sburg
Ġp aired
ĠS onny
Ġdr inks
Ġpurch asing
t ax
Ġun ified
ĠKar achi
Ġcompl aint
ĠB am
Ġper ipher
Ã« l
amer ican
B os
Ġo g
ig hest
ĠVar iety
Ġconcent rations
ĠDyn amo
W inner
i Ã¨re
ent in
ĠIn st
Ġun common
Ġcap ped
ĠPres ervation
d ict
ĠSe lect
Ġlo ading
Ġhuman itarian
Ġinn ocent
ĠGab ri
St ars
Pl ants
ĠMalay alam
ĠReg ist
Ġant is
Ġencour aging
ĠH M
Ġgen ocide
ĠAre as
Ġemb edded
it ial
ĠCon way
ĠDist ricts
Ġ !!
ĠI brahim
id ia
lo ok
d ig
ĠM ega
Ġsystem atic
ĠHar lem
ĠEurope ans
Ġsu ite
Ġc rystal
ĠG ret
Ġcon ced
Ġle v
Ġhold ers
Ġin equ
Ġl acks
I X
Ġbet a
ĠBrand enburg
Ġresol ve
P a
sh ow
Ġgu y
ĠF ritz
ĠE leanor
ty ard
ĠC asc
el is
art y
Ġmusical s
Ġchem ist
ĠL anding
Ġapp ar
ert ation
ĠProv ision
ĠFair y
Ġinstruct ed
ĠThorn ton
Ġf ears
ĠS ieg
Ġat op
Ġcol oured
Ġcame o
agn etic
Ġd iab
port ant
Ġec ological
ĠGovernor ate
Ġcho osing
Ġtheat res
Ġh alt
sp aper
Ãº s
iz za
Ġsc rub
Ġc ats
ĠV ert
Ġt in
Ġtrend s
ĠQual ity
Ġn ests
ĠJud ith
Ġarch bishop
Ã¤ t
ĠCongress man
Ġflood ed
Ġcooper ative
ĠKais er
ch in
eat s
ĠDe er
Ġcontroll er
wicks hire
Ġcomp atible
Ġ12 4
Ġcr uel
ĠAl am
Ġpre fect
m ag
an ol
Ġleg ends
ĠSk ating
Beg inning
ĠHerc ules
Ã ¹
ĠRob bie
ĠSol id
gu ard
Ġprot ective
ĠLand mark
Ġ ell
Ġam ended
ĠTer esa
Ġmort g
ĠMoz ambique
Ġvow el
n ica
ĠHe ather
osp here
Com mand
ĠNe uro
D ata
ĠS iege
Ġex empt
aus es
ik u
ĠGuj arat
ĠWol ves
is ely
ĠW ent
tt a
Ġobserv e
Ġre pt
ĠPle asant
ĠR M
ĠL lan
um ar
Ġout let
ĠLenn on
ĠNiel sen
Architect ure
ĠK iller
ĠIs abel
ĠNi agara
Ġtum or
ĠC M
ĠN il
V iet
uk o
Ġsh apes
Ã¼ ss
Ġmatch ing
Ġemot ions
Ġmac ro
Ġwick et
ĠIsab ella
A FL
H aving
ul ing
ors che
Ġexcept ions
G ray
H T
ĠGar rett
Ġpers ecution
Ġmemor able
ĠTunis ia
r acks
ĠW ah
Ġ12 2
186 3
ĠRena ult
Ġstom ach
ĠGr up
ĠRo le
yn a
Ġconf ined
ĠC Ã³
Ġspec ulation
ĠProgram s
F r
W a
Ġs our
Ġmet ro
Ġb ells
Ġim aging
f aces
ĠÂ ½
Ġsoft ball
Ġarm ored
Ġstadium s
ny der
ĠRecord ed
Ġreper toire
rict ion
Ġlandsc apes
fl ight
Ġphot ographers
ĠLah ore
T ai
th ia
Ġwarri or
ĠF rog
ĠLe h
Ġenthus iast
C lin
ĠL ester
Ġj aw
Ġtit ular
Ġsk ater
ĠMer cy
Georg ia
Ġrep roduction
Ġsymb olic
Ġp ension
ran ged
ĠDirector ate
Ġsqu ir
Ġmoment um
Î ·
Ġm ere
ĠM ask
th rop
cyl inder
V ulnerable
ĠT T
ĠL up
Ġhe ated
ĠĠĠĠ ĠĠ
ĠHaw th
Ġvot er
F er
ĠSmith sonian
Ġbreak through
ah ar
Ġdeliber ately
Ġc itation
ac ity
Ġover haul
Ġpast oral
ĠLev y
Ġn ave
ĠSign al
Ġid ol
Ġf ake
ĠAss am
Ġsp ans
ĠCoast al
ĠSanct uary
A le
ip t
oul os
Ġaud itorium
c roft
est o
oun ge
ĠGen us
Ġamb itious
Ġ Ã©
ĠC oss
ĠD D
eli hood
ĠD aughter
Ġcontact ed
ĠWorks hop
Ġ ul
Ġro s
ĠSeah awks
Ġre election
ĠP az
ĠFl int
ĠL akers
ĠGreen wood
ĠIr vine
ĠExpedition ary
ĠHoff man
ĠNass au
h ak
Ġst amps
Ã¼ d
Ġarm our
ĠGibb s
ĠM E
ĠThe me
Ġrep aired
ĠF ury
Ġout skirts
ĠX II
B ol
ĠTh reat
ĠLump ur
Ġm elt
ot is
Ġres ist
Ġ á
ell ular
ĠWor cestershire
Ġbes ides
St age
Ġcalc ium
D om
Ġaccount ed
T ele
Ġsp anning
ĠDh aka
ĠCauc asus
f u
Ġafter ward
ĠBr at
Ġcorrect ly
Ġsurg ical
Iran ian
Ġm eg
ĠN L
op ed
ĠV ampire
Ġsp o
Ġd uck
ĠD ill
ĠNet works
ĠP asha
ĠEm erson
icks on
Ġpromin ently
ĠE ck
ĠMcC artney
B at
at ine
ĠHel m
Ġear s
Ġdram atically
ĠSax on
otyp ic
ĠX u
ĠByr ne
ĠB org
ĠR ather
Ġdec iding
gu y
ĠSom ali
Ġspok es
Liter ature
Ġad ul
ĠFar mer
ĠStat istical
Ġdioces es
el man
ĠAb ram
Ġcomfort able
ĠHyder abad
r ade
am ura
US S
ĠSi oux
Ġt ern
ĠL ik
Ġbar b
Ġnight club
ĠAv engers
ĠUr s
Ġun rest
ĠAb s
ĠFort une
ĠM B
ĠN O
American s
ĠBe er
Ġm osa
ĠL ore
ip ment
ĠMon key
Ù Ĩ
ut ely
Ġsw amp
ĠDod ge
v oy
at hetic
ĠJ ump
ĠSt anding
ĠBrown e
al p
ob ia
ĠG ale
Ġres ide
ĠMartÃŃ nez
ĠMac millan
U M
g irl
ĠT ot
ĠG ent
Ġpool s
itch ing
Ox ford
ĠW i
ĠCor inth
orough bred
C hem
ul o
iod iversity
ij uana
Ġadj oining
ĠWolf gang
Ġweak ness
g on
Ġend e
Ġsuccess es
roll er
b illion
an za
ĠB iblical
ĠW embley
Ġnational ism
à ¹
in z
Ġrob bery
ĠCol lections
ĠPro ceed
Ġmag net
ĠLaf ayette
w elling
ĠC ao
Ð ±
Ġe leg
ĠAl pine
Gr ade
Ġstri pped
ĠIm ag
Ġemb assy
E arl
ĠCh orus
ari os
Ġflag s
Ġmicro sc
ĠCele br
S n
Ġdel ays
an ey
Äģ n
T unes
Ġcivil ization
Ġliber ation
ĠWa it
ĠElis abeth
end on
ĠAl umni
Ġwhere by
Con f
ĠBah rain
Pat rick
oft en
ĠConstant ine
Ġdiox ide
r ug
ĠH ub
ĠR ak
Ġdoll ar
ĠBrem en
Ġsp here
........ ........
ĠSett lement
ĠL opez
Ġpr ide
Leg al
O m
ĠH yd
Ġal beit
18 59
Pr ime
Se a
er en
Al ong
Ġsubject ed
Ġl umber
Ġacqu iring
Ġesc al
Ġdeterm ination
R ad
ou b
ĠM W
ĠSh ropshire
ĠRo okie
Ġexcell ence
ĠAnim als
l ayer
Ġm aiden
Ġdesign ing
ĠGood man
Ġfort ified
imm ers
ĠRic ardo
ĠN ay
Ġde pr
w ave
Ġal b
ass i
Ġwork force
ĠE vel
Ġent ert
f ur
Ġw ives
Ġd ental
ĠArab s
Mc C
ĠVaugh an
Ġpl ed
ĠD ag
Ġguarant ee
ĠT KO
Ġprim itive
l at
ric o
Ġtheolog ian
ar oo
Ġun h
Rep ublic
ĠN aw
ipp ers
ym met
at ile
ĠS idd
ĠSch neider
Ġtreat ments
Ġdramat ists
E rn
K a
ĠS W
ĠGu am
eed ing
ĠPal ermo
Ġpress ed
ĠW ere
AT A
ĠProduct s
Ġhom eland
Ġansw ers
ĠSt irling
Ġrac er
ĠTyr one
S weet
à ²
Ġatt ain
Ġprom ises
Ġfly catcher
Ġhar bor
Ù ħ
ĠT C
ĠBirth day
Ġb iblical
ĠCons ort
pat rick
p oints
p uts
Ġg ast
ĠCh ung
ell us
Ġnomin ate
G olf
j et
ĠK Ã¶
ry an
ĠGod s
he res
Ġv it
ĠAn k
ĠPh i
ĠLa urel
less ly
an al
ol ve
Ġch ip
ĠUn ity
ĠAl most
ĠSh Åį
ĠAF B
ĠD harm
op ping
Ġmot ivated
ley s
ĠKrak Ã³w
Ù Ĭ
ĠR w
ans en
Ġsyn agogue
Land forms
y am
ĠO aks
ĠMag gie
1 21
ĠTe acher
Ġve in
Ġflex ible
Ġbotan ist
Ġnon profit
Ġdecl aring
H R
ĠJ ury
ĠUr b
Î ²
ĠB uild
Ġar che
ĠDec laration
ĠDark ness
ĠTaiwan ese
J azz
Ġto es
ĠM ighty
Ġfeed back
Ġgymn asium
Ġmarri ages
ĠCongreg ation
Ġfres co
b aseball
Ġs inking
und o
Ġ15 5
ĠMy st
Ġtim eline
y ang
ĠK ant
aus en
Ġtrad ers
ĠG ert
ren s
st ud
ĠRes ource
Ġautom ated
ĠD ear
ĠAl ive
ĠIsland ers
Ġexcav ations
ĠOut side
ĠDest roy
ĠG AA
Ġqu arry
ots wana
Ġmer ge
Ġtemper ate
Direct or
l argest
ĠTw elve
Ġprepar ations
J ason
ĠMarc os
Ġw ages
Ġdi ary
Ġcirc a
Ġan onymous
Ġv arsity
Ġtri angular
Ġsyn chron
Ġevolution ary
chang ed
B aby
ĠN ames
Ġv iral
ov sk
In formation
Ġderiv ative
ĠAl to
Ġpost al
cont inental
us ky
uct ive
ĠSu ite
Ġintercept ions
L O
ĠVen etian
Ġbott le
Ġnegot iated
ĠAT P
Ġreun ion
p al
r ath
ĠV era
Ġro pe
and an
Ġsup ermark
ĠBl acks
Ġposition ed
ĠTim ber
H ay
ĠMe et
ym ru
ĠKh al
M as
h aven
ĠN ab
ĠV FL
g el
ĠFlow ers
Mic hel
Ġ14 4
Ġens uring
F all
ĠN ish
Ġgroup ed
Ġmag ist
v ic
ĠP eck
Ġg reet
Ġdis abilities
ĠAust ro
ĠPol ytechnic
ĠSund erland
Ê »
ĠAnt io
Ġencompass es
Ġa ka
ĠI CC
Penn sylvania
ĠM ey
Ġbank er
Ġc and
Ġfunction ing
ĠArmen ians
K C
ĠB ound
Ġr er
ĠV or
D M
Ġhold ings
ĠI B
ĠR ous
ĠApp alach
ĠJul es
Ġastronom er
Ġcoord ination
Ġreal istic
ĠMarket ing
Ġsovereign ty
b ir
am orph
Ġpl asma
Ġorche stral
ĠCret aceous
z ier
ĠAn al
ĠRes istance
Ġdef ining
ĠEm manuel
ĠBrid g
S V
ĠH oy
Ġpriv at
Ġfire arms
Ġwant ing
ĠL od
ĠK ub
Ġtre asure
Ġhorn s
L ithuan
ĠAl v
the y
ĠJub ilee
Ġdeb ris
Ġcost umes
ro kes
d d
Ġhom epage
EE E
us ive
Ġtext ile
Ġ18 02
sy stem
Ġreorgan ized
S hip
re lease
am el
ĠTur t
ed itor
il ations
lo qu
Ġtal ents
ĠTerrit ories
ĠPas o
t ry
re x
ol ation
ĠRah man
1 12
Ġb urg
Ġr ay
Ġpres umed
Ġide ology
ĠS aga
Ġdem ise
ĠK T
eb an
atri x
ĠSal le
ĠSat an
Ġm i
ĠB arri
ig hed
ĠCharl ton
< /
S yd
Ġh ymn
Ġloc ks
Ġspec ification
Ġpract icing
Writ ing
ĠRest oration
Ġpure ly
Ġevac uation
c op
Ġt ally
ing a
ĠE ighth
end ale
atter ing
Ġcast les
ĠCey lon
Ġcontract or
ĠBrid ges
3 50
as ures
Ġadvis er
flow er
Ġfinanc ially
ĠS ites
ĠB anner
Ġbr ide
Mar itime
ĠTrad itional
k aid
ĠP oor
ĠCar th
13 5
ĠChrist ina
ĠHunt ington
ĠD ip
ag han
Ġtr igger
Ġsub merged
Ġprom otes
P oint
uck le
Ġspecial izing
w hen
ind on
Ġnatural ist
ĠW erner
ĠV ul
und y
Ġ18 07
Ġ17 94
Ġinf ections
Ep isodes
Ġrout ing
es y
ĠK ost
ĠWilm ington
ĠL oth
Ġst ew
Ġmid night
N BC
P O
Ġf ingers
ang s
Ġup stream
Ġass et
Ġrecept ions
ĠP erm
Ġmin erals
Ġvis itor
ĠFlor a
Ġs acks
oz o
ĠÎ ²
Ġp aternal
Ġrel ied
Ġconf isc
ĠHon olulu
Ġflood s
ĠAntar ctica
n h
Ġbl ade
ti enne
ĠDex ter
ĠW ide
Ġcon fluence
ĠCar rier
Ġadm iral
ĠPass ion
Kore an
Ġprecurs or
Ġt ab
ĠTerrit orial
ĠO ss
Ã¡ k
ĠSup erv
Ġcollect ively
Com ics
l c
Ð ³
ĠW itt
Ġabbrev iated
Ġn aked
Ġch ances
urg y
Ġplate au
ĠC umm
Ġre actor
Ġsl ogan
b uild
ĠS ug
ĠGu ill
Ġair s
Com mercial
ar h
ol ades
ĠBarb ados
Sam uel
{ |
ĠV ig
Ġsub way
ĠSat ellite
Ġc alm
Ġmand ate
Ġnurs es
Administ rative
G T
ĠPan ch
Ġsusp ects
ĠH ole
ij e
Ġphenomen a
ĠTe aching
Ur ban
ĠW elfare
L at
Ġs andy
ang ers
ĠBh ag
F ound
R oss
Ġer osion
ĠM ixed
ad Ã©m
ĠZ ool
Ġ17 80
Ġinf ilt
Ġclear ing
Dep artment
ĠBeir ut
ĠC ory
Ġun n
St ory
ro b
ĠW att
if th
Ġ17 76
Ã³ s
D ance
Ġdis ability
ĠEd mond
ille m
Ġunanim ous
Ġaster oid
1 14
R iver
ĠElect ronics
Ġmarch ing
ĠMeck lenburg
ĠM ord
Ġlad ies
ĠS abb
ĠH ilton
Ġun aware
ĠLaw son
Ġvac uum
ĠS L
ĠG oss
Ġemploy ers
Ġvac ancy
otten ham
ĠF eb
red ible
Ġclean ing
Ġaest hetic
Ġres iding
Ġsyn thetic
Ġsu ited
Ġadvoc ates
ĠRabb it
C a
ĠCom es
ĠSh arks
ĠEnter prises
Ġborrow ed
Ġm akers
ach im
ĠLor raine
Ġcon cludes
oir s
ow ment
ĠE z
ĠRod gers
ĠEp ic
st ation
Ġl odge
ĠD iss
ĠJ ill
Ġaff ects
Ġb ab
ĠS ounds
Ġd ug
Ġund is
Ġrem arks
ĠK ild
Ġqu ot
ank a
Ġde ities
Ġtim ing
J ay
ĠSt ur
fl ict
G overnor
Ġ uran
ĠL un
Ġit al
Ġoffer ings
Ġemploy s
ĠBos nian
Ġwh olly
ed u
Ġint ensive
Ġirrig ation
b ara
i Å¡
Ġf ut
Ġr am
Ġadminist rators
comm ittee
Ġcan cell
Ġnational ity
Ġr ats
ĠSav oy
Ġholid ays
in ho
Ġb ip
Ġm alls
ĠM ou
ĠAl one
ĠAct ing
Ġacqu is
Ġsuperv ised
P ed
ĠH ubbard
An ne
Ġdoctor al
Ġmolec ule
S ac
Ġb ail
Ġthr ust
ĠCre ation
ol son
Ġex empl
ĠEss ays
g one
j as
ĠE h
ied er
Ġcell ular
Ġpossess es
b is
K enn
ĠT ut
ich ita
Pro file
CC FF
p rop
ĠE ly
Ġcy t
Ġb its
ell an
duct s
Ġhier archy
ĠT up
Ġwh oles
10 6
ĠTrib unal
Ġaccus ations
c ode
ĠBr ide
Ġl ibr
Ġair lines
Ġple asure
ĠMagn us
Ġout comes
Ġspecial ty
Ġreb uild
Ġexcav ated
Ġover t
ĠSh ri
Ġgr ace
Ġsw orn
Ã¡n chez
D omin
N iger
Univers al
Ġguarant eed
ĠG us
Ġout law
Ġcr ack
mount ed
h ann
ĠD ug
a eda
Ġqu adr
Ġg aming
ass ed
Ġsk etches
Ġinstitut ed
Ġinfl amm
Ġspr int
ĠClif ton
Ġanticip ated
Ġm ammal
ĠW ash
Ġcomm issions
ĠChamber lain
Ġkind ergarten
Ġchemical s
Ã µ
ĠMar ilyn
18 0
Ġadm its
Ġscreen plays
isp here
ĠMÃ¼ ller
Ġin adequ
ĠL j
Ġcomp rise
Ġfact ions
ux e
Ġdisp osal
ĠAur ora
Ġan them
ĠK and
Ġ18 05
ĠPaul a
Ġcho ices
Ġimag ery
F air
Ġo l
og l
Ġover night
Elect oral
ĠB rick
em at
ĠW ond
ĠPr ayer
sy ched
Ġalgorith ms
Ġlac rosse
or ax
ab ria
Ġ12 9
ĠMc Gu
O ffic
ith m
ĠJ R
idd ing
Ġre issue
Ġdeliver ing
ĠEver ton
Ġfre el
Ġpilgrim age
ol ving
ĠH C
ĠF actor
Ġten ants
Ġsyn th
ra il
Ġassist ing
Ġpar rot
ĠH ouses
Ġsus cept
Ġin comp
ĠCh atham
Ġtransfer ring
ĠElect oral
Ġinherit ance
A re
Ġc uck
ĠS ut
ĠQu ant
ĠLo op
Ġatmosp heric
ĠPl atinum
ĠX III
Ã©n Ã©
B ell
ĠD ust
ĠÂ «
Ġord in
Ġcontrovers ies
ĠWrit ten
ĠFern Ã¡ndez
1 16
S N
r ush
Ġ17 75
Ġcollect ors
Ġforb idden
S her
r ically
st rom
Ġass im
ĠNich ols
ĠAnti qu
d ated
Ġgen ome
ĠCond uct
ĠT ip
ĠPol es
Or igins
Ġassass inated
I an
Ġt s
Ġd ur
ĠG iles
Ġren ted
ĠCar bon
app ropri
ĠFort y
ogenes is
* *
Ġf ins
Ġm ont
ĠM ining
ĠL us
ĠAdvent ist
ĠGuy ana
W all
ĠP aw
ĠJ ab
ĠMich a
ĠSyl via
b ilt
ic hen
Ġcart ridge
Ġsax ophon
Ġmedall ists
est ro
ĠComp ar
Ġadvant ages
ĠNorm al
R ussia
Ġnew sc
Ġass erted
its ch
ĠLa os
à¤ ¾
oss a
Ġdis mant
ĠH are
ig uous
ĠHor ace
ĠS ustain
te acher
Ġped estrian
ĠM T
per ed
Ġcycl one
Matt hew
ers ch
ĠT es
ĠB enny
ĠCor v
pro t
Ġth reshold
F ox
ang i
ĠMus k
ĠOb server
ĠThe res
ff in
In ternet
y i
ĠR ig
Ġ18 08
Ġreg ain
Ġcorn ers
Ġreven ues
ĠArchae ological
cy cles
ĠElect rical
ĠYank ee
Fa una
Stud ent
Ġinject ion
Ġdwell ings
Ġt ails
ĠC app
Ġme al
ĠCanad iens
row span
work ing
7 50
ĠN es
ĠRe formation
omb ie
l ot
Ġh urd
are a
10 3
Ġoccur rence
Art icle
ĠCann es
Ġprosp ect
ot on
Ġsl aughter
in ition
ĠR uther
ĠD ante
ve z
ĠPenn y
ĠAv on
Ġcompl iance
Ġretro spective
ĠT ick
ĠM olly
ĠL anguages
ĠRel ief
occup ied
so lete
Ġbi as
Ġcart oons
ĠPl atform
uel a
Ġmake up
Jos Ã©
ĠHert fordshire
Ġm apping
ĠW K
Ġdomin ance
ĠB ott
ered ith
ĠMcC oy
ĠSc i
ĠCongress es
Ġover d
Ġshe ets
ĠFl ood
ĠG ord
Ġpro se
Ġdet ained
ĠAut umn
Ġcan oe
ĠGo ing
ĠAnth ology
ĠPa olo
th am
Ġimp acts
ĠOxford shire
ĠL SU
ub en
eg o
ĠLat vian
Ġclin ic
ĠMarqu is
Ġavo iding
ĠT ao
ĠVol leyball
Ġspe eches
ĠKn own
ĠStr as
ĠTh underb
old t
Ġviol a
Cons ervative
e ight
ling en
Ġrecogn izes
anth us
ĠRey es
ĠZÃ¼ rich
Ġw ast
ĠZh u
Sim ilar
Ġchief s
Est abl
ĠM GM
art hen
man i
Ġsong writers
Ġminor ities
Ġingred ients
Ġcomm od
ĠChe ck
Ġimpl ied
st ated
ĠS au
ĠM ental
id as
Ġg ol
ad an
et he
end en
pe x
ĠPrem iership
ĠGovern ors
G I
v iol
ic um
Ġhe x
ĠUn known
ph ones
Ġlabel ed
B obby
Ġthe ft
ĠF og
Ġexpl oring
ĠAngel o
H u
Ġs odium
ins ular
Ġ17 93
Ġbas al
Min or
h olic
Ġover head
Ġam en
ĠApp ro
ĠBax ter
ĠZ immer
ĠZh ou
ĠHob art
onduct or
Ġr ack
Ġext raction
Ġrede velopment
J R
oc arp
uff s
ym ns
Ġemer gence
ĠUnivers idad
Ġfier ce
ĠMarri age
ĠB R
j un
ĠG ear
ĠX in
Ġcor rupt
l ost
ay o
Ġpro long
Ġhel met
Ġred dish
Ġcontinu ity
ĠPeng uins
ĠMartine z
ĠZ ap
Ġste ering
Victor ia
Ġl amp
ian us
18 58
Ġpoint ing
ĠBre ton
ĠT orn
ĠE uc
ĠV oy
ĠY es
Ġoff spring
ĠBeng als
ic ating
ind y
ĠRe ader
oll s
Mich igan
B ow
ĠCrit ical
b as
Ġn ode
ĠL augh
ĠV A
inal d
ĠRich ie
Ġritual s
Ġsufficient ly
ĠN umbers
Ġst ern
Ġins erted
Ġgra pe
Ġ13 6
Ġdram as
ĠCert ificate
R uss
g il
Ġret ains
Ġbad ge
ĠPep per
Ġt ended
Ġf ence
ĠB ing
ĠBar row
Ġaccompl ishments
Ġsophistic ated
S ched
b etween
Ï ħ
av our
Ġdiscuss es
Ġoverlo oking
T el
ĠI rene
Ġreb uilding
ĠBord eaux
raul ic
Ġfort ifications
ĠTrust ees
ĠSum atra
en b
ĠG ators
Ġst uck
Ġsh orts
Al b
Ġcollabor ative
Ġpasser ine
W olf
c am
ĠCh att
ĠOld ham
Ġrac ism
Ġacquis itions
Ġemphas ized
Ġcomplex es
ĠCumb ria
up on
Ġsc ripts
ĠEd o
Ġaff ection
Ġcapt ive
Ġrecruit ing
ĠSchles wig
Ġuran ium
ĠK ilm
ĠK ramer
low er
ort ex
Ġpl ains
Ġrec all
Ġlicens ing
18 57
ĠLuc ia
u ity
ĠP urd
Ġcelebr ating
ĠRec onnaissance
Ġref lection
f alls
it ri
ĠP ure
Ġat oms
ight on
Ġag ing
ĠHu bert
ĠCitiz en
H ur
R aj
ĠG uns
ĠTre asure
Ġcounter parts
ĠLomb ardy
ĠTalm ud
A BC
D u
O rd
o ids
oc y
S occer
ĠR ust
ĠMor occan
min or
ĠVo j
ĠKun st
Ġh ire
Ġh unter
Ġsong writing
Ġdiv ide
Ġg astrop
fess or
the med
esp ecially
ĠH aus
Ġpol yn
Ġvoc ational
Br uce
Ġdisch arged
Eth nic
s igned
Ġrenew able
Ġansw ered
Ġconcur rency
Ġw olf
art ments
ĠHer b
Ġconcent rate
dr iven
ĠSpl it
ĠL ia
Ġpap al
f al
it on
ĠD ent
ĠCh ance
ĠCal v
ĠCD s
ra per
Ġdis cl
ĠDan ube
Ġtarget ing
Ġfert il
ĠArchae ology
ob i
Ġreminis cent
Ġin herent
ĠM ines
ĠV ishn
og ist
ĠDom ain
Ġ18 11
Ġ1 200
ĠM oody
Ġpaper back
Ġheav ier
A rizona
M iami
d ar
ĠL L
Ġ14 5
Ġextinct ion
ĠImm igration
ĠMilit ia
U t
es ley
ĠE ch
ĠPriv y
if lor
ĠCl ive
Ġdet achment
f ull
Ġin cent
ĠVer lag
q i
Ġd rought
ili ated
ĠAn toine
ĠCor rect
ĠSund ays
Ġwel come
op f
ĠItal ia
ns ic
Ġenz ymes
ĠG iven
CA CAF
Ġni ece
ĠPeter borough
ĠLion el
Ġout fielder
ĠBr ass
De ad
c ars
ĠW ish
ĠK inn
Ġsup reme
ific ent
ch io
T win
ĠH in
ĠN iz
Mar sh
Q ual
Ġt ang
ib o
pr on
inist ries
Ġconst raints
A chie
a er
ism o
Ġmass es
B ron
M aur
ĠBr une
ĠElect ions
Ġalt ogether
ĠMult i
Ġpost ing
Ġreferen ced
O H
Ġn ig
Ġex iled
ivid ually
Ġident ifies
ĠJung le
Ġf ond
ĠP oin
G ram
ĠSp in
ĠS essions
ĠSc ene
Ġche ap
ĠPlate au
Ġunder going
ĠRot ten
F est
J unior
ĠM itch
Ġfr ust
lo e
ĠAbb as
ĠP ens
ĠU rdu
ĠSur v
Ġlog ging
d n
ĠK ou
ĠY un
B ishops
Ġneighb ors
B P
H art
ĠD illon
Ġgolf ers
Buff alo
M un
ĠC W
ĠP iper
Ġn atives
ĠR ocks
ak in
ess el
Ġpre historic
Ġexplo itation
Ġd airy
Ġhe ll
eb urg
ĠSuper intendent
Dav is
ĠC ris
ĠK ern
ĠIn to
Ġind ef
ĠMad ame
Ġcomment ators
Par ks
idel berg
Ġal ike
ill ary
Ġex cer
Ġmountain ous
ĠRest aur
ĠSe lected
ĠRom antic
ĠR iders
Ġsub mission
ĠFa ust
Ill inois
ĠB uildings
Ġar ter
Ch ild
ĠDo om
ĠCommission ers
ening rad
b ours
Ġst atic
Pro ject
ĠFif ty
p ublic
ĠH ence
Ġmut ations
ĠB uzz
th alm
Ġatt achment
ins p
Ġ7 50
Ġf als
ĠCh or
Ġj am
st aff
ĠR F
qu ist
t ier
Ġph ones
c io
ĠD iploma
ĠG esch
Ġelect orate
Le od
ĠSt on
ĠY ok
ĠAs c
Ġcompos ite
Col orado
Ġprogress ion
á¸ ¥
ĠCarn ival
M ission
ir atory
Ġ18 09
ĠRup ert
D J
Short ly
ul er
ĠZ a
Ġdispl acement
Ġtribut aries
ĠLauren t
om ans
ĠR amb
ĠJ ensen
Ġarran ger
Prem ier
P ur
Ġin duced
um my
ph oon
Ġrabb i
ĠTransl ation
G R
Ġmel an
h it
Ġrel ates
NE T
ĠT ort
Ġco aster
ĠMe adow
Ġec l
Ù Ī
Ġpl atoon
ass a
ale igh
ĠWe aver
Ind ones
Ro ads
ĠCon an
met re
ĠJup iter
Ġt on
ĠW izard
Ġinter ception
ob o
N Z
Ġout right
ĠSh adows
ple ments
ble ms
Ġab rupt
Ġgovernment al
Ġcomprom ise
Fil ipino
Ġt iles
ĠS ank
im ov
ĠGe ological
ĠUl tra
ĠAdmiral ty
Balt imore
Ġc ros
ĠH ild
Ġsh ocked
ĠSc ream
Ġ17 95
ĠPres idency
Ġpossess ions
ovi ets
B es
Ġf ont
eat on
El izabeth
B ird
co e
ĠBab a
quer que
ot ive
ay as
Elect ric
Ġsp iders
Ġsteal ing
u il
Ġh atch
Ġred ist
Ġmort ality
ĠJ aw
Ġdemonstr ations
ĠW ex
ĠY us
Ġtest ified
Ġpione ers
Ġhab its
ĠW igan
Ġsp or
Ġsign aling
ĠCatal an
à §
und i
Ġstat ute
het to
Coll ins
R ain
and r
Ġcour tyard
Ġenter prises
Ġp unct
Ġmat ched
Ġemer ge
ĠBav arian
ĠSej m
ĠEd ith
ĠSav annah
B ridges
Ġh ap
ĠB is
Ġtr agedy
Ġ17 00
ĠBea umont
Ġas ylum
Ġsc rap
Ġwood ed
And y
Ġrig id
G er
ĠI w
ĠChar acter
umm ond
Ġgymn astics
Ġcon form
Ġro bb
ident al
Ġaver aging
ĠDev i
ĠS uf
ĠG erry
Ġ17 58
ot ional
us er
olog ic
Ġam phibious
lin er
gen eration
ĠOd ys
Ġorn ith
j ana
v ill
ĠBritt any
ĠC af
11 1
ra ined
Ġconf ronted
Ġtransl ators
Ġoccup ying
Col omb
Ġdetain ees
ĠCh ong
ug er
et ically
qu ire
Ġ5 000
Ð½ Ð°
Ġtuber culosis
L ieutenant
Ġt att
ĠMay er
ĠWar wickshire
Ġ13 3
Ind ependent
ĠHind us
C omb
id on
Ġ13 8
ĠRos es
ĠGi ul
ĠD ell
Ġcy cles
ĠC I
ĠD ir
Ġal k
se ven
w omen
Inter view
Franc is
four th
Neigh bour
Ġhe d
Ġloc ate
ict a
Ġtrust ee
ĠCob b
Ġnut ri
ilib rium
ph al
ĠInd eed
unct ional
ĠMon mouth
ĠMcG ill
ĠA V
ĠV ari
igg ing
Ġsummon ed
ĠAd vert
year s
Ġg ym
ĠAf ro
iro s
ĠÅ ļ
L ocated
ĠCon st
Ġ24 0
Ġsem inary
Ġvolcano es
H om
S et
w aters
ĠB T
Ġfr aternity
Ag ric
ĠCaled onia
as so
us ions
ell aneous
M CA
ĠP hel
ĠAs p
ĠRec ent
Col onel
Ġancest ral
Ġmob ility
ĠAt ari
N ative
ro sc
le in
ĠRock et
Ġsurround ings
ĠSher idan
Ø§ ÙĦ
S eg
z ew
ĠHall ow
Comp osition
ĠUSA F
g s
Ġb ure
ĠCorn ish
ĠK ish
ĠRo ch
Ġf ountain
ĠH unting
Bro ok
il in
ĠOr n
ĠGr ac
ĠArch ibald
b ral
Ġc inem
Ġhost age
Ġvict orious
th ood
ĠWeek end
il and
ĠV HS
Ġj ungle
iss on
Ġfin anced
ĠNor ris
Ġmus cles
s mith
worth y
ĠT Åį
Ġem ail
sc ill
ĠL ingu
ons ored
f air
v ous
ĠP ages
ĠS nyder
Ġd irt
ĠG ut
Ġins ight
ĠTy ne
ĠT av
Ġl uc
Ġran ch
Mad ison
iv ism
ĠG es
Ġge ological
ĠAssy rian
ĠSain te
ac ritic
ĠSil ent
V B
W ell
op ia
Ġhalf way
Ġdig it
Ġpatron age
J uan
Ġinc arnation
Sax on
ad en
Ġdis rupt
ĠYoung er
ĠRun ning
Mex ico
A bb
ĠMar ks
ĠMar ino
Ġorient ed
ecut ed
John son
Ġorigin ates
ĠSoutheast ern
F ig
ĠL iang
ĠN amed
ab an
aw ak
erman n
Ġbirth place
Ġrailroad s
ĠWake field
ĠH ep
Ġr ust
ĠMarse ille
ĠD iplom
Ġentire ty
Parl iament
D un
uc o
Ġatt itudes
Ġ13 2
Ġspecific ations
k as
ĠM au
ĠHu ang
Ġannounc ing
direct ed
c ter
w affe
air n
Ġtransl ates
Ġe lephant
ĠG Ã¼
Ġsl ip
ĠS Ã¡nchez
ĠSold iers
ro let
Ġview er
ĠMat hematical
Ġvirt ue
Ġcomp ression
ĠAn and
Ġtreat ing
Ġexpress ing
ĠAmaz ing
Ġcoordin ate
ĠGav in
G il
ĠAl s
Ġsub ordinate
ident ified
new s
" /
est a
Ġdecre asing
Ġo ath
it ud
Ġst unt
air a
ĠNor se
Vol ume
Ġweaken ed
H O
st airs
Ġp amph
um ption
Ġar ise
ĠRev en
Ġrecover ing
Ġm ourn
Ġtreat ies
ĠPre par
Ġs am
ĠG uth
Ġun e
ĠSh ock
g ov
it les
ik en
ĠBe an
Ġabund ance
L ess
U A
ign y
ten ham
Ġi Tunes
Ġrever ted
at ro
Ġse iz
Ġcomp ass
ĠRep orter
och ond
Environment al
ĠL una
ran ces
Ġr ays
ĠDar ling
Ġclimb ed
Ġtra vers
Ġexp end
Ġem blem
Ġgrand daughter
ĠSand ra
ĠEver ett
Ġdenomin ations
ĠEdu ardo
b ishops
Ġnames ake
Ġannounc ers
Ġextens ions
ad ation
ab h
Ġsw allow
ĠWend y
oc ence
ĠMac au
ĠHel ic
ĠSoph ia
a a
un it
Ġsp erm
eth oven
ĠSup ply
Rec ords
Ġrad i
Ġsn akes
l arge
à ¯
Ġsimilar ity
ĠSom ething
oven ant
Ġpass ages
Ġjud ged
Ġintent ions
Ġbats man
ĠO ften
ĠWater ford
Ġfeud al
Ġstead ily
ĠK ro
Ġsens or
w ife
Ġproport ional
ĠPul itzer
apur am
ĠStephan ie
Ġnorth ward
G ames
Ġd olph
iv ian
Ġ13 7
? ,
c row
Ġinter val
ĠN eal
Islam ic
Ġcirc uits
ĠBow ling
ĠBang alore
Ġp ec
Ġpre view
Ġcorrespond s
å ı
ĠC lean
ĠG ilm
Ġst ays
Ġviol inist
bl ue
ĠD ed
ĠLa uder
s ing
all o
Ġres ume
Ġbre ach
ĠSar as
ce ans
ell ate
Ġle x
pl ate
uck et
ĠAer ospace
Ġic onic
Ġd ip
ĠO C
ĠGroup s
Ġp iv
Ġdisp atched
Ġreluct ant
d og
ĠSch olar
ĠSerb s
Ġn itrogen
ĠR I
Ġsh ores
ĠRem ember
ĠN eb
che on
ien e
ĠGl am
is dom
um ing
ill us
ep ort
Ġconcept ual
A qu
v ara
st orey
ĠM int
ĠPr as
Ġbuild er
ĠPre c
Ġturt le
ĠProvision al
is se
ĠS ie
Ġbar racks
ĠC rane
ĠK uro
Ġdeb ts
ĠGo a
Ġdam s
sch ule
pop ular
W W
ed ited
Ġsp atial
ew ays
Ġcar b
Christ opher
ate ful
m berg
ul se
18 55
ĠPres ents
D allas
P seud
n ard
Ġ17 92
Ġref using
Cl ark
Ġlif elong
aph ael
Ġbes ie
ĠT R
ĠF amous
em aker
Ġfac ial
medi ately
Ġsav ings
F uture
S av
Ġb arriers
ĠH uddersfield
10 9
e in
s ided
Ġl av
Ġren umber
ĠDayton a
M ember
ĠS ession
Ġretail ers
ĠL au
pl aced
al u
Ġb ot
ĠO R
18 54
ĠWil kinson
I raq
ĠS ok
ie ves
ĠTud or
H ugh
ling er
ĠStr and
Ġstrip es
ĠHiro shima
Ġware house
ĠB aj
aur a
ĠConn or
Ġadvertis ements
Lew is
Syd ney
10 7
Ġple aded
Ġpul mon
ad j
Ġsoph omore
K S
i ov
Ġl uck
em er
ĠB aku
ĠP ing
18 56
Ġmodel ed
Ġstret ches
Ġpharm ac
Al fred
Ġdepos it
ĠB iz
ĠH ide
ĠZ ak
Ġgl oss
ĠRus so
P T
ĠB ourn
Ã³ d
ĠNev ille
r ach
Ġtrans fers
Th om
ĠMass acre
Ġrepro ductive
rews bury
Y ugoslav
ĠCh ow
rol ley
don ald
Amb assadors
Ġw ax
ĠV ine
Ġar ches
Ġdisc s
à¥ į
r ash
ĠCon stitu
ĠCross ing
ĠBet a
ĠWolver hampton
i aries
18 00
ĠCÃ³ rd
H ey
om ac
Ġon set
ran n
Ġsh rew
ĠPav ilion
Ġl aying
urn ames
ĠDirect ed
Spe ed
ĠT rem
ay am
th us
Ġpath ogen
Ġhal ted
Ġal gae
Ġcl ip
Ġrabb is
T y
V o
ad as
ob il
ĠSch a
Ġinform s
b ore
} }
ĠChar adri
Ġbroad ly
Ġsound tracks
Ġf lesh
ĠJud icial
Ġpack aging
Ġnegot iate
ĠPant her
ĠCart oon
w at
Ġan kle
ush ima
rab s
ĠOliv ier
ĠKey s
Ġalumin ium
Ġp its
Ġdec ent
Bl ood
ĠP yth
Ġhe red
ign e
Ġc ry
ĠAm trak
esh iva
Ġens lav
Ġadvertis ement
Ġpostp oned
v oice
Ġ18 04
ĠJon as
ĠTrib e
Wil son
S i
Ġe ject
ĠW edding
ra red
oc ols
Ġcomm uter
ĠFor g
Ġhum orous
ĠBras ile
Ġmother s
ĠT ub
Ġmax im
trans l
Ġscen ario
Neigh bor
Ġt issues
ĠA mp
Ġh ist
T aylor
o op
ar um
ĠP eel
ig l
ĠHigh ways
ĠMal awi
an u
Ġp ear
ĠAl ien
ĠSal zburg
New spapers
ĠVolunte ers
Summ ary
n ius
ĠM ae
qu isition
Ġpol yg
ado res
ĠLy ons
ĠBerg er
z t
en eration
Ġm aid
ĠP ull
ĠAna heim
Ġgol fer
Ġvac ation
Ġgrass land
ĠS oviets
ĠProceed ings
F oss
Ġillust ration
ĠDom ingo
or h
it te
ĠTe a
Ġdel ight
Ġviol ated
od ian
d ed
ĠR ama
ug awa
Ġpreval ent
S even
y ou
Ġs au
ĠP BA
un til
Ġprofess ors
ĠEst her
Sound track
ĠVeh icle
Ġp unt
ĠG aines
Ġnot ation
ik an
rib es
ĠB otswana
Ġf raction
Ġfilm makers
ĠT rom
Ġsp ark
ĠBo om
ĠCup s
Ġweek ends
ĠMarl ins
Ġst ained
Ġrepl ica
ĠSam my
ĠMac c
Ġd ictionary
ĠK av
Ġdet on
ĠDomin ion
Constitu encies
m ese
le ader
ĠW IS
ore g
urg ery
L ear
Ġst er
g ment
y x
Ġo ch
Ġpl ug
Ġ17 96
Cont emporary
ĠHarri et
Ġp unch
Ġv ampire
Ġvill a
Ġphot ographic
ĠFort ress
Ġpartnership s
ĠSchw artz
P en
in to
Ġdis asters
ĠQu ick
Ġcompuls ory
ib u
18 48
âĢĻ ,
Ġprop he
Second ary
Mot or
ĠR ays
Ġcomp anions
ĠMa o
Ġdiscover ies
Ġmer it
Ġb obs
Ġcont ests
Ġproduct ive
Ġutil izing
Ġinsc ribed
Ġdepos ited
ĠUt recht
Nor man
à ´
ĠC z
ĠWat kins
Ġemp ower
an ter
Ġch ocolate
Ã©d Ã©
Ġm ang
Ġh ollow
Ġ( .
ĠB B
Ġpromot er
C incinnati
an j
Ġin ability
up p
ĠPro duced
ĠN I
aj evo
ĠL iam
Ġfin ed
icular ly
Ġcapt ivity
ĠKurd ish
A irl
ĠL eningrad
Ġprocess or
w agen
Ġw ored
Ġb og
Ġp ushing
ĠCanad ians
ĠAir borne
Ġimm igrated
Ġclear ance
Current ly
d iv
ĠB olshe
ĠMaj esty
ĠAl ley
ĠEl ena
Ġsex es
ĠCons umer
Ġc ure
ink er
Ġinf ect
Ġeight eenth
Ġimpr int
) ".
J erry
ad ena
Achie vements
N ik
v ir
Ġorganiz ational
Sen ior
ĠBohem ia
ĠPeer age
st ep
is al
Ġm ys
ĠL ighthouse
em in
ĠOs borne
ĠCy ber
Ð¾ ÑĢ
vol ume
D am
Ġinter mitt
Ġtra uma
Ġdocument aries
Ġquarter finals
Ġemb arr
Ġsubstr ate
Ġs we
Ġturb ine
ĠGerman ic
ĠGu err
ĠBab ylon
ĠSh oot
Ġam mon
ĠAb ove
Ġastr onomy
ĠS uit
ĠF eng
Ġsn ail
ĠPrin ces
ĠHod g
ĠW E
Ġcon ferred
ĠSt atus
ĠMugh al
u ating
ĠN ile
18 40
Ġgl uc
Ġconfront ation
opot am
ĠDr iver
Ġro wing
ĠMon arch
ĠClub s
Ġbattle field
F resh
âĢ ĺ
ran ked
ey ed
ĠLeon ardo
ĠM eredith
Se attle
L I
L T
ĠAb el
Ġactiv ism
Ġm igrants
atab ases
Ġaddress ing
ĠBurg ess
M other
Ð ¿
Ġd iploma
ran king
Play Station
Ġreass igned
ĠFor ward
ĠGo als
Ġoblig ations
ĠLow ell
D B
Ġex ports
ĠSuns et
Ñ Ĩ
Ġa wa
ĠA CC
ĠT art
ĠK ah
vers ion
Ġgener ator
vest er
Ġselect ive
ĠT eat
ĠGreen land
clus ions
Ġimpl ications
Ba hn
Ġeast ward
pre viously
ĠCald well
R N
b ee
ĠP orsche
Ġpl ague
g old
ĠS ega
eph al
Ġrend ering
ĠS ung
ĠSw ing
Ġd ried
ĠD ah
Ġpl ots
ise um
ĠAll ah
Ġdisappoint ing
Ġf unk
ĠBl o
Ġchar ities
ĠSem i
t rad
ĠT HE
Ġexpl ores
Ġsat ellites
Ġharm onica
Ġrefug ee
t aker
orn ings
ĠBy rd
Ġden otes
Ġpip es
ĠEl i
sequ ent
ĠDon ovan
her st
Ġdet ached
ĠTer race
Ġstorm s
á» ĩ
P ot
b order
ld on
ĠMon itor
este ad
Ġmotif s
Ġl ag
ien a
est ershire
Ġprof ound
Ġbackground s
Co at
r ude
ĠCor b
ĠAct ive
ĠEth ics
Ġprivile ges
c irc
j ack
Ġb ibliography
ĠL ich
ĠG ers
Ġpres ided
Ġstri pe
ĠMil k
Ġcrow ds
Ġa z
Ġf alc
te brates
ĠAss essment
s n
ĠDr ac
Ġfore ver
Ġcast e
ĠPers p
ĠPut nam
ĠAlger ian
ĠT ry
ĠP ist
Ġcan opy
On line
ĠSe as
Ġbr anding
rap es
H ost
form ers
ĠMan ufacturing
Ġdevelopment al
Ġsanct ions
ĠLot us
ĠJak arta
n ative
Ġcontain er
t ree
Ġse ated
Ġfam ed
ĠNational ist
Ġgl obe
Ġweek day
Ġperm its
st re
and ar
m g
ĠH icks
Ġp ending
ĠSh iv
ĠMed ina
Ġorder ing
E mer
Ġexped itions
Ġw agon
ad der
eng ined
h ills
18 49
Ġprem ium
ĠPers ia
ĠSn ake
ĠSche me
Ġrecru its
Ġcancell ation
c ence
ĠBo one
Mar ia
ĠRos em
Ġsusp icious
Fran Ã§
p os
ĠMiss ile
L akes
m oor
Ġb red
ten berg
Ġcruis ers
Ġrepresent ations
Ġbr ush
Ġhar p
ĠSp ar
uc le
Ġsexual ity
Ġdegr adation
ĠP osition
qu ality
S oul
Ġpsych iatric
roc od
t ank
Ġn odes
Ġ17 91
Ġdef enses
ĠOr din
Ġgrand children
Ġdiss ertation
Ġfix ture
Ġdevast ated
ĠF avor
Ġex ported
Ġpol ym
ĠSch l
ĠSig ma
w il
ecess ary
ĠComb ined
ĠR unners
ĠL over
ob ar
ret ion
Ġblock ing
ĠKap oor
Ġassum ption
A st
B aron
ĠW itness
ia stic
Ġtr unc
Ġdecl are
ĠDomin ic
ĠVerb ands
ator ium
g em
ĠAr bor
Ġdisapp earance
Compet itors
S ri
Ġcomp aring
inn a
thes is
p rom
Ġst aging
18 52
Ġmon astic
ĠRub in
E nergy
ĠH ens
Ġinvent ory
Ġinhab its
ĠS ears
ĠD ai
Hon ors
ĠTal ent
Ġcoord inated
Ġanx iety
Y outh
h istory
ow e
Ġpr ayers
Ġl unar
iew icz
Ġmod ules
Ġge ology
ĠWhe at
Ġcens orship
zb ollah
ĠC es
Ġtechn ically
ĠPlay house
Ġbehav iors
ĠKat ie
K arl
yl a
ĠMart yr
ĠWel ch
Ġre ctor
ot echnology
Ġsent iment
Ġdam aging
log roup
Ġtroubl es
b gcolor
ĠD ied
Ġref usal
Ġsal am
ĠM ash
ĠH och
Ġcl o
ĠPar ts
ĠAb bot
Ġmerch and
Ġupd ates
Ġtraff icking
od rome
Ġproject ion
Ġste als
Ġsurpass ed
ĠC age
Ġdec ay
Ġser geant
Ġang les
Ġroll ed
Ġlower ed
ĠKim ber
ĠMend oza
Ġpond s
ĠFo ley
E X
n esty
Ġf ores
ĠT owers
ĠO j
ult ies
ĠMal i
AR C
ĠBus ch
ĠMat hew
chen ko
Is lands
Ġet ern
aly mp
ĠOcean ia
Airl ines
r ide
Ġrep ublican
Ġcard iac
Ġrot ating
ĠMoh amed
S ex
S alt
ĠCol ombo
Ġinter vals
ĠGlac ier
L arry
R yan
Ġre app
Ch urches
Ġsil ence
Lab our
ĠO ro
Ġsub stances
s urname
ec he
alle l
ĠDal ton
Ġstrengthen ed
Ġsle eve
ĠK Ã¶n
co x
med ia
ĠCo ffee
ĠEm ploy
ĠMechan ical
ĠComm une
omet ry
Ġapplic able
Ġprin ces
an ova
ĠI A
ĠMov ies
spec ial
n ation
ĠN ah
Ġ17 5
ĠGe elong
Ġtur bo
x y
ĠK ass
ĠMart ÃŃn
Ġd awn
ĠM ode
yp sy
Ġpe asants
W Ã¼rttemberg
Ġfor ts
ng el
Ġpol ls
Ġfa Ã§
Trad itional
Ġconstruct ing
Ġassign ments
ĠW oll
Ġcan vas
ĠFre ed
ĠCop per
Typ es
M obile
Ġp ept
ĠG og
uel ing
Ġconstitu ent
ĠTrib ute
ĠFellow s
ĠCatal onia
E arth
Ġjust ices
ĠKn ock
roph ic
ĠCalc io
m eter
or b
olog ie
ih ad
Ab d
p ole
ĠF ro
Ġalign ed
Ġshoot er
Ġin ev
Ġf rozen
Ch ang
ĠP DF
ĠTh ousand
me aning
Mar c
Ġautom otive
Part icip
Ġpneum onia
p ack
å °
ĠD ing
ĠRe lease
Ġlik ewise
ĠHard ing
ĠM oll
ĠH app
ept iles
F T
S ah
Ġs ne
ĠD ifferent
ĠCon stable
Ġcr ush
Ġant agonist
ian c
Ġbl end
Ġhel m
Ġstrong hold
lift ing
H M
H ell
y ah
Le ad
ĠLu igi
ib les
Ġcommun al
Ġdev ised
Ġfe as
Ham ilton
ĠKem p
. /
Ġpat ches
ĠSpect rum
ĠRout ledge
ir an
ĠSe ine
ĠD irty
Ġair plane
Ġ13 1
Ġpick ing
Ġsens ors
Ġ14 7
16 0
Ġcommun ists
Ġref use
Ġnorth bound
Pak istan
× Ļ
Ġup right
erm ont
ĠBra b
ĠEstabl ished
P u
Ġ20 24
Ġrace horse
Ġbow ler
ĠP ang
ala is
Ġmort ar
ĠT akes
ign on
Ġgen uine
Ġslow er
C ategory
Ġf ederation
ĠC rescent
Ġprop oses
ĠTw ilight
Atl anta
p unk
el ope
ĠP ett
Ġcas ino
Ġ é
The atre
Ġcamp ing
Ġfire fight
ĠD ome
ĠBurn ett
Ġbrew ery
c re
Ġp irates
ĠEth n
Ġpress ures
B anks
k oviÄĩ
Ġch ambers
Dou g
ĠT ail
ac ock
Ar c
ĠOpp osition
iro v
Ġqual ifications
ĠEvel yn
syched elic
ĠG arn
Ġstr at
af fer
Ġprovision al
ĠJuvent us
ĠN ell
serv ice
bl ock
ĠPo et
Ġdiplom ats
Ġconsort ium
Ġw and
Ġst iff
Ġen cyclop
[...]
