{"<s>":0,"<pad>":1,"</s>":2,"<unk>":3,"<mask>":4,"!":5,"\"":6,"#":7,"$":8,"%":9,"&":10,"'":11,"(":12,")":13,"*":14,"+":15,",":16,"-":17,".":18,"/":19,"0":20,"1":21,"2":22,"3":23,"4":24,"5":25,"6":26,"7":27,"8":28,"9":29,":":30,";":31,"<":32,"=":33,">":34,"?":35,"@":36,"A":37,"B":38,"C":39,"D":40,"E":41,"F":42,"G":43,"H":44,"I":45,"J":46,"K":47,"L":48,"M":49,"N":50,"O":51,"P":52,"Q":53,"R":54,"S":55,"T":56,"U":57,"V":58,"W":59,"X":60,"Y":61,"Z":62,"[":63,"\\":64,"]":65,"^":66,"_":67,"`":68,"a":69,"b":70,"c":71,"d":72,"e":73,"f":74,"g":75,"h":76,"i":77,"j":78,"k":79,"l":80,"m":81,"n":82,"o":83,"p":84,"q":85,"r":86,"s":87,"t":88,"u":89,"v":90,"w":91,"x":92,"y":93,"z":94,"{":95,"|":96,"}":97,"~":98,"¡":99,"¢":100,"£":101,"¤":102,"¥":103,"¦":104,"§":105,"¨":106,"©":107,"ª":108,"«":109,"¬":110,"®":111,"¯":112,"°":113,"±":114,"²":115,"³":116,"´":117,"µ":118,"¶":119,"·":120,"¸":121,"¹":122,"º":123,"»":124,"¼":125,"½":126,"¾":127,"¿":128,"À":129,"Á":130,"Â":131,"Ã":132,"Ä":133,"Å":134,"Æ":135,"Ç":136,"È":137,"É":138,"Ê":139,"Ë":140,"Ì":141,"Í":142,"Î":143,"Ï":144,"Ð":145,"Ñ":146,"Ò":147,"Ó":148,"Ô":149,"Õ":150,"Ö":151,"×":152,"Ø":153,"Ù":154,"Ú":155,"Û":156,"Ü":157,"Ý":158,"Þ":159,"ß":160,"à":161,"á":162,"â":163,"ã":164,"ä":165,"å":166,"æ":167,"ç":168,"è":169,"é":170,"ê":171,"ë":172,"ì":173,"í":174,"î":175,"ï":176,"ð":177,"ñ":178,"ò":179,"ó":180,"ô":181,"õ":182,"ö":183,"÷":184,"ø":185,"ù":186,"ú":187,"û":188,"ü":189,"ý":190,"þ":191,"ÿ":192,"Ā":193,"ā":194,"Ă":195,"ă":196,"Ą":197,"ą":198,"Ć":199,"ć":200,"Ĉ":201,"ĉ":202,"Ċ":203,"ċ":204,"Č":205,"č":206,"Ď":207,"ď":208,"Đ":209,"đ":210,"Ē":211,"ē":212,"Ĕ":213,"ĕ":214,"Ė":215,"ė":216,"Ę":217,"ę":218,"Ě":219,"ě":220,"Ĝ":221,"ĝ":222,"Ğ":223,"ğ":224,"Ġ":225,"ġ":226,"Ģ":227,"ģ":228,"Ĥ":229,"ĥ":230,"Ħ":231,"ħ":232,"Ĩ":233,"ĩ":234,"Ī":235,"ī":236,"Ĭ":237,"ĭ":238,"Į":239,"į":240,"İ":241,"ı":242,"Ĳ":243,"ĳ":244,"Ĵ":245,"ĵ":246,"Ķ":247,"ķ":248,"ĸ":249,"Ĺ":250,"ĺ":251,"Ļ":252,"ļ":253,"Ľ":254,"ľ":255,"Ŀ":256,"ŀ":257,"Ł":258,"ł":259,"Ń":260,"Ġt":261,"he":262,"in":263,"Ġa":264,"er":265,"on":266,"Ġthe":267,"re":268,"an":269,"or":270,"en":271,"at":272,"ed":273,"Ġo":274,"st":275,"al":276,"Ġw":277,"ar":278,"it":279,"Ġof":280,"nd":281,"Ġs":282,"Ġin":283,"Ġf":284,"es":285,"is":286,"Ġc":287,"Ġb":288,"ic":289,"Ġp":290,"ing":291,"Ġand":292,"as":293,"ro":294,"ion":295,"le":296,"ĠS":297,"Ġto":298,"Ġm":299,"ĠC":300,"Ġd":301,"ou":302,"ĠA":303,"il":304,"Ġ1":305,"ĠT":306,"Ġh":307,"ent":308,"am":309,"ĠM":310,"el":311,"ol":312,"om":313,"Ġ(":314,"Ġre":315,"ĠB":316,"ac":317,"Ġl":318,"ad":319,"ĠP":320,"ur":321,"et":322,"ec":323,"ers":324,"ĠH":325,"iv":326,"Ġn":327,"ation":328,"Ġ2":329,"Ġwas":330,"ig":331,"ĠI":332,"ir":333,"ot":334,"Ġe":335,"id":336,"ĠR":337,"Ġth":338,"us":339,"ay":340,"Ġ19":341,"ly":342,"Ġfor":343,"Ġon":344,"ĠD":345,"ĠL":346,"im":347,"ch":348,"ist":349,"ut":350,"ĠF":351,"Ġg":352,"Ġis":353,"em":354,"ow":355,"ĠG":356,"Ġas":357,"un":358,"ĠN":359,"ĠW":360,"ĠThe":361,"ith":362,"th":363,"ter":364,"00":365,"Ġst":366,"and":367,"âĢ":368,"her":369,"ct":370,"ul":371,"ag":372,"ce":373,"ĠJ":374,"Ġwith":375,"ĠE":376,"Ġby":377,"Ġal":378,"um":379,"os":380,"ra":381,"rom":382,"'s":383,"Ġbe":384,"ver":385,"op":386,"Ġat":387,"âĢĵ":388,"ri":389,"ĠO":390,"Ġwh":391,"Ġan":392,"oc":393,"Ġcon":394,"Ġfrom":395,"Ġhe":396,"all":397,"ian":398,"ain":399,"Ġv":400,"ĠK":401,"od":402,"Ġ\"":403,"ia":404,"est":405,"ies":406,"av":407,"Ġthat":408,"ts":409,"ity":410,"ab":411,"ĠU":412,"ber":413,"res":414,"ew":415,"Ġcom":416,"ill":417,"ate":418,"if":419,"up":420,"Ġpro":421,"ard":422,"ĠSt":423,"19":424,"Ġpl":425,"art":426,"ud":427,"Ġit":428,"Ġde":429,"ub":430,"ĠĊ":431,"igh":432,"ip":433,"ak":434,"ap":435,"Ġhis":436,"ear":437,"ore":438,"ast":439,"Ġ200":440,"Ġr":441,"ich":442,"ort":443,"Ġor":444,"ov":445,"ces":446,"ld":447,"ated":448,"ish":449,"The":450,"qu":451,"Ġ20":452,"ary":453,"ĠIn":454,"mer":455,"ĠCh":456,"ug":457,"ong":458,"Ġare":459,"our":460,"ment":461,"ĠV":462,"ive":463,"oun":464,"ks":465,"og":466,"Ġch":467,"se":468,"end":469,"ge":470,"ial":471,"ep":472,"fer":473,"ant":474,"ell":475,"ine":476,"Ġex":477,"und":478,"ust":479,"ord":480,"Ġse":481,"ame":482,"ere":483,"ran":484,"uc":485,"so":486,"ire":487,"),":488,"Ġ|":489,"ure":490,"ost":491,"ect":492,"ue":493,"Ġle":494,"ack":495,"ical":496,"Ġwere":497,"Ġsp":498,"ass":499,"ions":500,"ĠâĢĵ":501,"Ġplay":502,"ĠHe":503,"ess":504,"Ġalso":505,"Ġwhich":506,"ie":507,"ĠUn":508,"Ġsh":509,"ther":510,"are":511,"ign":512,"Ġy":513,"ff":514,"Ġcl":515,"Ġcomp":516,"Ġ201":517,"ry":518,"ric":519,"rit":520,"age":521,"pp":522,"Ġk":523,"Ġ||":524,"ight":525,"cl":526,"irst":527,"man":528,"ous":529,"Ġun":530,"Ġ18":531,"land":532,"Ġ3":533,"ĠY":534,"own":535,"ork":536,"ide":537,"ond":538,"erv":539,"Ġar":540,"hed":541,"tern":542,"iz":543,"ount":544,"ory":545,"ember":546,"ican":547,"Ġhad":548,"ations":549,"ok":550,"ational":551,"orn":552,"per":553,"ang":554,"Ġnot":555,"Ġhas":556,"Ġ199":557,"ave":558,"ice":559,"Ġfirst":560,"amp":561,"fter":562,"ĠIt":563,"ool":564,"Ġro":565,"ey":566,"Ġwhe":567,"feren":568,"ach":569,"ater":570,"ome":571,"Ġres":572,"Ġcont":573,"act":574,"Ġint":575,"wo":576,"In":577,"ĠTh":578,"ĠAl":579,"Ġus":580,"ib":581,"ph":582,"Ġte":583,"out":584,"ited":585,"uct":586,"ition":587,"Re":588,"ates":589,"ens":590,"Ġad":591,"ree":592,"ren":593,"ime":594,"Ġits":595,"ee":596,"Ġtheir":597,"ult":598,"lect":599,"ĠAr":600,"aw":601,"Ġj":602,"20":603,"merican":604,"Ġwho":605,"ound":606,"ath":607,"chool":608,"ace":609,").":610,"Ġab":611,"ik":612,"Ġbut":613,"ferences":614,"ball":615,"ark":616,"ilm":617,"Ġ-":618,"port":619,"ubl":620,"ite":621,"les":622,"Ġyear":623,"eop":624,"Ġone":625,"low":626,"ugh":627,"Ġapp":628,"ild":629,"ors":630,"clud":631,"inal":632,"iss":633,"Ġher":634,"ivers":635,"Ġpart":636,"Ġac":637,"ĠNew":638,"wn":639,"Ġrec":640,"ng":641,"over":642,"References":643,"Ġman":644,"eg":645,"ile":646,"pl":647,"oot":648,"Ġ4":649,"pt":650,"eople":651,"Ġag":652,"ents":653,"io":654,"ual":655,"hn":656,"Ġ198":657,"ould":658,"ress":659,"for":660,"ade":661,"uring":662,"oy":663,"ĠMar":664,"Ġhave":665,"Ġper":666,"Ġtwo":667,"Ġsc":668,"old":669,"hip":670,"ton":671,"Ġbec":672,"Ġinclud":673,"Ġthis":674,"ern":675,"ob":676,"ased":677,"ons":678,"ence":679,"te":680,"ward":681,"oin":682,"ail":683,"urn":684,"Ġen":685,"ase":686,"ied":687,"vel":688,"gh":689,"ings":690,"ss":691,"ind":692,"ĠCom":693,"Ġbeen":694,"Ġother":695,"eb":696,"ted":697,"Ġcomm":698,"Ġdes":699,"Ġafter":700,"Ġ197":701,"Ġ5":702,"Ġlin":703,"Ġdis":704,"200":705,"uch":706,"outh":707,"we":708,"red":709,"Ġact":710,"ood":711,"ished":712,"ury":713,"ics":714,"way":715,"ely":716,"Ġup":717,"ft":718,"ĠLe":719,"able":720,"ral":721,"Ġfilm":722,"Ġoff":723,"Ġim":724,"ĠAmerican":725,"orld":726,"Ġout":727,"ance":728,"Ex":729,"ont":730,"Ġover":731,"Âł":732,"Ġnew":733,"pe":734,"gan":735,"Ġserv":736,"ames":737,"ision":738,"one":739,"Ġpr":740,"Ġinto":741,"Ġthey":742,"ah":743,"ough":744,"iversity":745,"ex":746,"ans":747,"ram":748,"18":749,"ock":750,"ternal":751,"orth":752,"ootball":753,"Ġtr":754,"ason":755,"Ġ196":756,"als":757,"ĠSh":758,"ĠCol":759,"Ġund":760,"ick":761,"cent":762,"Ġev":763,"Ġgro":764,"ĠAn":765,"ĠUnited":766,"ale":767,"Ġall":768,"Ġloc":769,"ict":770,"Ġcol":771,"ann":772,"rough":773,"Ġatt":774,"olog":775,"che":776,"ĠĠ":777,"Ġpre":778,"rans":779,"ake":780,"Ġlinks":781,"ĠSp":782,"rib":783,"Ġtime":784,"duc":785,"ists":786,"ll":787,"Ġshe":788,"iel":789,"Ġplayers":790,"Ġwork":791,"ily":792,"ose":793,"External":794,"Ġsec":795,"ins":796,"ix":797,"Ġpeople":798,"Ġ6":799,"az":800,"Ġkn":801,"Ġhim":802,"inn":803,"uary":804,"ev":805,"Ġbu":806,"ious":807,"att":808,"ever":809,"eral":810,"cess":811,"ĠJo":812,"reat":813,"ities":814,"bum":815,"Ġcan":816,"ince":817,"Ġwhen":818,"Ġunder":819,"Ġbet":820,"form":821,"ĠOn":822,"Ġco":823,"Ġcons":824,"Ġteam":825,"ĠInd":826,"Ġreg":827,"ĠZ":828,"ife":829,"Ã©":830,"Ġpol":831,"oci":832,"aj":833,"Ġpubl":834,"ĠUniversity":835,"eat":836,"Ġret":837,"ollow":838,"Ġest":839,"oth":840,"Ġcent":841,"ĠPro":842,"usic":843,"Ġyears":844,"Ġass":845,"ween":846,"str":847,"der":848,"abl":849,"irect":850,"Ġind":851,"use":852,"ier":853,"Ġbo":854,"Ġagain":855,"Ġsub":856,"enn":857,"Ġonly":858,"ular":859,"ĠCl":860,"ident":861,"Ġmore":862,"Ġ194":863,"ional":864,"Ġ7":865,"emb":866,"Ġwould":867,"Ġform":868,"Ġstud":869,"ĠEng":870,"ley":871,"ĠSc":872,"ague":873,"Ġschool":874,"eries":875,"Ġduring":876,"Ġwhere":877,"round":878,"any":879,"air":880,"Ġspec":881,"ĠStates":882,"Ġ195":883,"raph":884,"Ġalbum":885,"Ġmost":886,"pr":887,"ober":888,"Ġfound":889,"ina":890,"ouse":891,"istory":892,"Ġsup":893,"Ġbetween":894,"duct":895,"resent":896,"Ġear":897,"ement":898,"Ġabout":899,"Ġsy":900,"Ġqu":901,"Ġrele":902,"ative":903,"ash":904,"Ġrel":905,"fore":906,"Ġthree":907,"Ġgen":908,"Ġdec":909,"Ġend":910,"Ġthrough":911,"ield":912,"ĠWar":913,"hen":914,"Ġfootball":915,"iam":916,"ced":917,"Ġinter":918,"Ġrem":919,"Ġed":920,"Ġdist":921,"sh":922,"overn":923,"cc":924,"ĠBr":925,"Ġseason":926,"199":927,"Ġsing":928,"Ġused":929,"Ġlater":930,"Ġart":931,"por":932,"Ġclass":933,"Ġ8":934,"iver":935,"Ġrecord":936,"son":937,"Ġfollow":938,"ific":939,"ept":940,"erman":941,"ten":942,"ĠCount":943,"Ġthen":944,"Ġra":945,"Ġnum":946,"Ġtra":947,"ĠSchool":948,"Ġmov":949,"oss":950,"ĠThis":951,"ank":952,"erm":953,"Ġthem":954,"Ġ17":955,"pen":956,"Ġthere":957,"=\"":958,"erson":959,"Ġpop":960,"Ġwrit":961,"Ġso":962,"Ġbir":963,"Ġsecond":964,"ating":965,"ĠCar":966,"Ġmade":967,"Ġme":968,"Ġfam":969,"ĠIs":970,"\".":971,"ax":972,"ĠJohn":973,"ograph":974,"une":975,"Ġknown":976,"Ġtrans":977,"ĠWorld":978,"Ġelect":979,"arg":980,"itt":981,"ĠAust":982,"ert":983,"\",":984,"Ġ9":985,"ĠBl":986,"its":987,"Ġestabl":988,"ĠFran":989,"âĢĶ":990,"Ġprov":991,"iving":992,"ines":993,"mp":994,"ett":995,".\"":996,"Ġdef":997,"Ġbecame":998,"rict":999,"velop":1000,"Ġ10":1001,"ures":1002,"Ġthan":1003,"Ġsuch":1004,"Ġ&":1005,"lev":1006,"Ġent":1007,"ĠPh":1008,"Ġdirect":1009,"Ġsong":1010,"Ġfl":1011,"ived":1012,"ths":1013,"ĠQ":1014,"uss":1015,"Ġinv":1016,"ower":1017,"ĠComm":1018,"Ġam":1019,"ĠShe":1020,"ĠCon":1021,"ve":1022,"Ġbeing":1023,"Ġsome":1024,"ĠCan":1025,"ike":1026,"til":1027,"Ġbl":1028,"Ġexp":1029,"iew":1030,"urch":1031,"ments":1032,"Ġcall":1033,"let":1034,"Ġfour":1035,"ron":1036,"other":1037,"ism":1038,"ĠYork":1039,"ĠNational":1040,"uro":1041,"ays":1042,"ute":1043,"inist":1044,"..":1045,"Ġwell":1046,"ĠMay":1047,"Ġ193":1048,"stit":1049,"Ġmon":1050,"Ġstr":1051,"ĠBrit":1052,"ise":1053,"Ġ15":1054,"ars":1055,"Ġph":1056,"Ġ16":1057,"ull":1058,"Ġgr":1059,"ĠAs":1060,"Ġseries":1061,"Ġmed":1062,"ural":1063,"by":1064,"ef":1065,"ĠJan":1066,"Ġchar":1067,"ĠCounty":1068,"Ġdo":1069,"ternational":1070,"ai":1071,"ians":1072,"ĠAt":1073,"Ġgroup":1074,"com":1075,"Ġbro":1076,"ĠWest":1077,"ĠOr":1078,"cy":1079,"Ġincluding":1080,"ets":1081,"Ġlead":1082,"Ġhigh":1083,"amed":1084,"very":1085,"els":1086,"Ġbefore":1087,"Ġgo":1088,"Ġoper":1089,"ne":1090,"stem":1091,"ĠFor":1092,"ĠPl":1093,"my":1094,"10":1095,"ered":1096,"icip":1097,"Ġagainst":1098,"ired":1099,"ather":1100,"ĠPr":1101,"owever":1102,"ĠAd":1103,"ĠSouth":1104,"areer":1105,"21":1106,"ampions":1107,"000":1108,"Ġorig":1109,"Ġuntil":1110,"Ġdeath":1111,"ĠJu":1112,"Ġback":1113,"born":1114,"ke":1115,"Ġsign":1116,"ives":1117,"Ġwhile":1118,"Ġsur":1119,"Ġadd":1120,"Ġmany":1121,"Ġname":1122,"198":1123,"arri":1124,"Ġplayed":1125,"ty":1126,"ues":1127,"Ġcre":1128,"elf":1129,"rist":1130,"ĠGerman":1131,"Ġown":1132,"|-":1133,"Ġgu":1134,"Ġcount":1135,"ugust":1136,"Ġshow":1137,"Ġinc":1138,"ution":1139,"lish":1140,"eth":1141,"Ġformer":1142,"Ġno":1143,"Ġmay":1144,"Ġmain":1145,"ott":1146,"ys":1147,"gram":1148,"ium":1149,"Ġ12":1150,"eng":1151,"ica":1152,"Ġoffic":1153,"17":1154,"ĠAustral":1155,"Ġmusic":1156,"ery":1157,"Ġdevelop":1158,"Ġboth":1159,"lege":1160,"eptember":1161,"ject":1162,"Ġcap":1163,"Ġmod":1164,"Ġ2007":1165,"ĠLeague":1166,"Ġnumber":1167,"ird":1168,"ĠPol":1169,"Ġarea":1170,"sp":1171,"Ġpar":1172,"ĠNov":1173,"uth":1174,"ology":1175,"Ġbuild":1176,"ae":1177,"embers":1178,"aid":1179,"ĠCent":1180,"ross":1181,"ajor":1182,"Ġrece":1183,"ĠDec":1184,"ĠAugust":1185,"Ġsever":1186,"Ġrun":1187,"ĠWh":1188,"ized":1189,"yl":1190,"ĠCity":1191,"ĠPar":1192,"ĠMan":1193,"Ġ2006":1194,"Ġsm":1195,"imes":1196,"St":1197,"ient":1198,"omen":1199,"ulation":1200,"Ġdr":1201,"ĠGe":1202,"isc":1203,"oman":1204,"duced":1205,"fess":1206,"ctober":1207,"Ġrep":1208,"ĠSeptember":1209,"Ġem":1210,"ior":1211,"Ġopen":1212,"ĠBro":1213,"Ġreleased":1214,"au":1215,"ually":1216,"Ch":1217,"Ġfeat":1218,"Ġfamily":1219,"led":1220,"pril":1221,"ission":1222,"ove":1223,"ĠNorth":1224,"overnment":1225,"ared":1226,"ĠBar":1227,"ĠJune":1228,"ained":1229,"Ġgame":1230,"ved":1231,"ĠCal":1232,"rop":1233,"ĠMarch":1234,"ĠGu":1235,"Ġwon":1236,"Ġext":1237,"hes":1238,"See":1239,"ages":1240,"Ġlong":1241,"Ġdif":1242,"iet":1243,"struct":1244,"American":1245,"ĠCo":1246,"Ġdesign":1247,"ĠBritish":1248,"ĠEd":1249,"ĠJuly":1250,"Ġpolit":1251,"Ġvar":1252,"eed":1253,"osed":1254,"rid":1255,"ĠBo":1256,"wards":1257,"197":1258,"ven":1259,"Ġ14":1260,"Ġair":1261,"ham":1262,"ĠJanuary":1263,"ret":1264,"Ġreturn":1265,"ĠAss":1266,"istor":1267,"ĠAll":1268,"ĠCanad":1269,"ĠOctober":1270,"ris":1271,"anc":1272,"century":1273,"Ġ13":1274,"ampionship":1275,"ĠDe":1276,"Ġclub":1277,"ital":1278,"ange":1279,"Ġorgan":1280,"ĠII":1281,"arm":1282,"12":1283,"Ġdep":1284,"ilt":1285,"ony":1286,"Ġstate":1287,"ĠApril":1288,"ner":1289,"ause":1290,"Ġsystem":1291,"16":1292,"apan":1293,"15":1294,"ple":1295,"ography":1296,"ĠGr":1297,"ĠKing":1298,"inc":1299,"Ġtown":1300,"Ġ'":1301,"Ġseveral":1302,"Ġann":1303,"Ġcalled":1304,"levision":1305,"Ġacc":1306,"amb":1307,"vent":1308,"ĠEuro":1309,"Ġcareer":1310,"ebr":1311,"reen":1312,"Ġstation":1313,"Ġ.":1314,"Ġlife":1315,"ĠBe":1316,"af":1317,"Ġoriginal":1318,"Ġsame":1319,"onom":1320,"Ġcontin":1321,"Ġbirths":1322,"Ġsuc":1323,"Ġmat":1324,"ask":1325,"Ġfinal":1326,"ese":1327,"Ġnear":1328,"rent":1329,"ring":1330,"Ġob":1331,"Ġfollowing":1332,"aking":1333,"ĠState":1334,"ĠWill":1335,"ful":1336,"ster":1337,"Ġpublic":1338,"Ġprogram":1339,"Ġfin":1340,"ility":1341,"ĠAm":1342,"yn":1343,"Ġearly":1344,"Ġstart":1345,"ality":1346,"ĠRep":1347,"ants":1348,"ains":1349,"the":1350,"ling":1351,"oint":1352,"ĠâĢĶ":1353,"ĠDecember":1354,"ible":1355,"ung":1356,"Ġcommun":1357,"ured":1358,"ĠNovember":1359,"Ġhead":1360,"On":1361,"ially":1362,"Ġwill":1363,"ĠUS":1364,"Ġband":1365,"ilit":1366,"ĠHigh":1367,"Ġpass":1368,"eal":1369,"ĠThey":1370,"Ġcur":1371,"Ġmen":1372,"bo":1373,"Ġmin":1374,"ane":1375,"ille":1376,"Ġbel":1377,"ĠFl":1378,"orm":1379,"ales":1380,"Ġchild":1381,"ally":1382,"ided":1383,"ued":1384,"orks":1385,"ats":1386,"ble":1387,"Ġnamed":1388,"ator":1389,"ĠReg":1390,"Ġdisc":1391,"Ġthese":1392,"ĠHar":1393,"ĠAf":1394,"orts":1395,"Ġsince":1396,"ebruary":1397,"Ġfilms":1398,"fl":1399,"ĠRo":1400,"Ġtit":1401,"13":1402,"Ġpres":1403,"14":1404,"uck":1405,"ck":1406,"Ġdesc":1407,"ĠTr":1408,"Ã¡":1409,"Ġgames":1410,"Ġestablished":1411,"Ġ192":1412,"Ġappear":1413,"Ġlist":1414,"Ġmembers":1415,"Ġland":1416,"ices":1417,"Ġalong":1418,"aced":1419,"cept":1420,"ended":1421,"acks":1422,"angu":1423,"ised":1424,"ĠEnglish":1425,"ience":1426,"Ġcomple":1427,"echn":1428,"Ġany":1429,"ford":1430,"ĠChrist":1431,"augh":1432,"Ġbased":1433,"ĠMc":1434,"Ġsmall":1435,"ival":1436,"eter":1437,"Ġcity":1438,"ĠRec":1439,"Ġ2008":1440,"ino":1441,"ĠAfter":1442,"ĠEx":1443,"ection":1444,"ects":1445,"ĠEurope":1446,"Ġlocated":1447,"Ġuse":1448,"Ġbegan":1449,"ĠSw":1450,"ically":1451,"to":1452,"Ġresp":1453,"ĠGeor":1454,"Ġocc":1455,"Ġvill":1456,"196":1457,"ĠJapan":1458,"rench":1459,"Ġmanag":1460,"ored":1461,"ords":1462,"ffic":1463,"ĠHis":1464,"row":1465,"uk":1466,"ĠAir":1467,"urg":1468,"iness":1469,"ĠAnd":1470,"Ġsim":1471,"Ġvers":1472,"Ġprom":1473,"yle":1474,"Ġeng":1475,"ĠFebruary":1476,"duction":1477,"ĠEast":1478,"ards":1479,"He":1480,"ote":1481,"ights":1482,"Ġdid":1483,"ounc":1484,"aving":1485,"ivision":1486,"me":1487,"Ġbus":1488,"erg":1489,"ode":1490,"aint":1491,"unicip":1492,"ĠCollege":1493,"Ġsupport":1494,"Ġmajor":1495,"rew":1496,"ech":1497,"Ġeach":1498,"ourn":1499,"oung":1500,"Ġcompet":1501,"11":1502,"ata":1503,"adem":1504,"Ġmember":1505,"Ġspecies":1506,"Ġhome":1507,"Ġcentury":1508,"ĠSe":1509,"aul":1510,"Ġplace":1511,"Ġmet":1512,"lymp":1513,"Ġlaw":1514,"arn":1515,"Ġ2005":1516,"arge":1517,"ociation":1518,"Ġset":1519,"lin":1520,"ĠGen":1521,"ĠCup":1522,"ondon":1523,"que":1524,"Ġpopulation":1525,"Ġimp":1526,"side":1527,"ĠEl":1528,"ract":1529,"Ġsingle":1530,"Ġserved":1531,"itions":1532,"ington":1533,"view":1534,"Ġdown":1535,"ĠPark":1536,"ourt":1537,"Ġnational":1538,"ides":1539,"ety":1540,"Ġline":1541,"aces":1542,"Th":1543,"Ġsuccess":1544,"atic":1545,"Ġnow":1546,"osition":1547,"ches":1548,"ĠComp":1549,"Ġ2010":1550,"Ġcompany":1551,"Ġperson":1552,"ana":1553,"Ġgovernment":1554,"Ġlocal":1555,"ublic":1556,"earch":1557,"Ġterm":1558,"ĠAb":1559,"22":1560,"yp":1561,"Ġpo":1562,"Ġbuilt":1563,"reet":1564,"Ġeff":1565,"Ġheld":1566,"Ġ11":1567,"ĠRe":1568,"adio":1569,"ien":1570,"Al":1571,"Ġ2009":1572,"Ġlast":1573,"ĠNo":1574,"Ġplayer":1575,"Ġpublished":1576,"Ġtelevision":1577,"Ġ190":1578,"co":1579,"ĠPart":1580,"Ġaround":1581,"Ġworld":1582,"idd":1583,"rol":1584,"Ġtook":1585,"ĠMed":1586,"med":1587,"ĠWilliam":1588,"Ġwe":1589,"Ġleg":1590,"Ġhel":1591,"tt":1592,"âĢĻ":1593,"Ġ2004":1594,"Ġcould":1595,"ĠChar":1596,"ĠLondon":1597,"Ġnorth":1598,"ĠHowever":1599,"ature":1600,"Ġjoin":1601,"raft":1602,"Ġleft":1603,"uthor":1604,"Ġcar":1605,"ĠDav":1606,"int":1607,"Ġold":1608,"Ġprofess":1609,"vers":1610,"ĠAfric":1611,"ĠAng":1612,"ped":1613,"ately":1614,"ĠEn":1615,"ĠĠĠĠ":1616,"akes":1617,"Ġdue":1618,"ilitary":1619,"ĠX":1620,"ĠDist":1621,"ara":1622,"oks":1623,"Ġcr":1624,"though":1625,"ĠSy":1626,"ief":1627,"Ġgeneral":1628,"ĠTe":1629,"Ġshort":1630,"Ġborn":1631,"ison":1632,"ĠItal":1633,"uf":1634,"illion":1635,"195":1636,"ps":1637,"Ġrest":1638,"ently":1639,"aus":1640,"Ġep":1641,"Ġhistory":1642,"acter":1643,"ler":1644,"sc":1645,"Ġsix":1646,"ĠSup":1647,"iforn":1648,"ĠHouse":1649,"Ġeduc":1650,"unct":1651,"Ġ2011":1652,"omin":1653,"rick":1654,"ified":1655,"Ġevent":1656,"ĠChampionship":1657,"ĠFrench":1658,"iod":1659,"alk":1660,"ideo":1661,"Ġcamp":1662,"umn":1663,"History":1664,"aim":1665,"Ġlarge":1666,"ifornia":1667,"ĠRuss":1668,"ĠPhil":1669,"ĠCor":1670,"ext":1671,"Ġdied":1672,"day":1673,"ĠSec":1674,"ones":1675,"cast":1676,"Ġfive":1677,"Ġpresent":1678,"tal":1679,"ox":1680,"ording":1681,"ummer":1682,"iven":1683,"attle":1684,"artment":1685,"Ġdeb":1686,"ĠHer":1687,"Ġ2000":1688,"Ġtri":1689,"ected":1690,"umb":1691,"ĠSan":1692,"Ġinclude":1693,"ink":1694,"ration":1695,"ization":1696,"Ġsl":1697,"ined":1698,"ouncil":1699,"194":1700,"Ġfr":1701,"van":1702,"arried":1703,"Ġday":1704,"Ġwomen":1705,"col":1706,"Ġdiffer":1707,"ĠRiver":1708,"inning":1709,"Ġ,":1710,"Ġbecause":1711,"Ġ25":1712,"ĠEngland":1713,"ĠLa":1714,"sk":1715,"Ġ189":1716,"reg":1717,"ody":1718,"Ġorder":1719,"ĠDr":1720,"Ġdescrib":1721,"Ġ30":1722,"ĠGl":1723,"Ġreceived":1724,"ĠCalifornia":1725,"anguage":1726,"oph":1727,"Ġincluded":1728,"Ġappro":1729,"Ġdet":1730,"ering":1731,"Ġsouth":1732,"Ġref":1733,"ald":1734,"Ġwithin":1735,"urs":1736,"Ġconsid":1737,"ĠIndian":1738,"ze":1739,"leg":1740,"Ġav":1741,"Un":1742,"omb":1743,"Ġrequ":1744,"Ġsk":1745,"ument":1746,"eek":1747,"urther":1748,"riend":1749,".,":1750,"Ġthird":1751,"line":1752,"Ġson":1753,"ĠMich":1754,"Ġmark":1755,"Ġpower":1756,"tain":1757,"ĠMe":1758,"ĠRes":1759,"Ġ2003":1760,"ene":1761,"Ġlo":1762,"hern":1763,"itar":1764,"ĠAustralia":1765,"lands":1766,"Ġallow":1767,"ively":1768,"Ġvillage":1769,"Ġstand":1770,"Ġjust":1771,"Ġrepl":1772,"Ġbuilding":1773,"Ġlarg":1774,"iter":1775,"Ġbook":1776,"ste":1777,"ether":1778,"Ġwar":1779,"lo":1780,"Ã³":1781,"ĠThere":1782,"Ġdistrict":1783,"vious":1784,"Ġresult":1785,"alt":1786,"Ġeast":1787,"ves":1788,"Ġwater":1789,"ĠInternational":1790,"Ġtop":1791,"ĠArt":1792,"Ġla":1793,"Ġanother":1794,"na":1795,"Ġcurrent":1796,"ĠAc":1797,"Ġsaid":1798,"osp":1799,"Ġ2012":1800,"ĠOlymp":1801,"Ġstill":1802,"Ġmale":1803,"field":1804,"Ġ2002":1805,"Ã¼":1806,"Ġwest":1807,"Ġchildren":1808,"Ġfore":1809,"oon":1810,"Ġperform":1811,"ops":1812,"23":1813,"ference":1814,"Ġprot":1815,"ours":1816,"alth":1817,"Ġservice":1818,"hem":1819,"ÃŃ":1820,"Ġaddition":1821,"Ġ2001":1822,"Ġ$":1823,"ĠDep":1824,"Ġstat":1825,"orthern":1826,"ĠAct":1827,"ases":1828,"ĠSch":1829,"Ġdem":1830,"Ġvery":1831,"Ġdifferent":1832,"Ġkill":1833,"uman":1834,"Ġfac":1835,"Ġperiod":1836,"aren":1837,"193":1838,"Ġmoved":1839,"Ġcreated":1840,"Ġlike":1841,"Ġpost":1842,"aff":1843,"Ġrefer":1844,"ady":1845,"ocial":1846,"rest":1847,"An":1848,"Ġrepresent":1849,"Ġfield":1850,"ĠDistrict":1851,"Ġnov":1852,"ĠAg":1853,"cer":1854,"ĠGro":1855,"dom":1856,"Ġnon":1857,"Ġiss":1858,"ĠPer":1859,"Ġmunicip":1860,"Ġhouse":1861,"oyal":1862,"Ġadm":1863,"ico":1864,"uel":1865,"ĠMon":1866,"alf":1867,"ining":1868,"Ġtrad":1869,"ael":1870,"avy":1871,"Ġsold":1872,"People":1873,"Ġweb":1874,"Ġreport":1875,"Ġhand":1876,"Ġcollect":1877,"ched":1878,"Ġcharacter":1879,"era":1880,"Ġcor":1881,"useum":1882,"Ġvis":1883,"Ġbest":1884,"Ġship":1885,"ĠPres":1886,"Ġne":1887,"ency":1888,"Ġbusiness":1889,"Ġif":1890,"Ġbeg":1891,"ĠAward":1892,"Ġversion":1893,"Ġwin":1894,"Ġdeaths":1895,"Ġ24":1896,"ama":1897,"Ġestablish":1898,"ms":1899,"ius":1900,"Ġside":1901,"Ġopp":1902,"uit":1903,"Ġoften":1904,"Ġincre":1905,"ĠChurch":1906,"Ar":1907,"hel":1908,"Ġauthor":1909,"ense":1910,"ecut":1911,"Ġarch":1912,"right":1913,"ugg":1914,"Ġconstruct":1915,"Ġequ":1916,"aster":1917,"ĠArmy":1918,"irl":1919,"Ġled":1920,"ociety":1921,"Ġcountry":1922,"Ġ188":1923,"olic":1924,"Ġturn":1925,"ush":1926,"Ġ0":1927,"Ġthough":1928,"Ġtitle":1929,"epend":1930,"ander":1931,"ribut":1932,"ĠRed":1933,"ness":1934,"Ġproduced":1935,"work":1936,"Ġfather":1937,"Ġpat":1938,"Ġ2013":1939,"Ġcover":1940,"ground":1941,"otes":1942,"site":1943,"Ġlate":1944,"ĠSm":1945,"iber":1946,"ivil":1947,"ago":1948,"ĠCanada":1949,"ĠStreet":1950,"oll":1951,"ĠAmer":1952,"app":1953,"Ġdel":1954,"Ġsite":1955,"of":1956,"ville":1957,"ney":1958,"Ġwritten":1959,"Ġmag":1960,"Ġstyle":1961,"Ġbre":1962,"ize":1963,"Living":1964,"50":1965,"thern":1966,"Ġexper":1967,"ories":1968,"Ġel":1969,"ship":1970,"acy":1971,"Ġeven":1972,"Ġhistor":1973,"Ġlevel":1974,"Ġcrit":1975,"ilar":1976,"ript":1977,"Ġsett":1978,"Ġstudents":1979,"Ġactiv":1980,"lex":1981,"outhern":1982,"Ġinternational":1983,"Ġ2014":1984,"Ġaff":1985,"esp":1986,"Ġchang":1987,"Ġcame":1988,"Ġport":1989,"ploy":1990,"Ġec":1991,"Ġvoc":1992,"rem":1993,"Ġthose":1994,"ridge":1995,"Ġ186":1996,"Ġamong":1997,"adu":1998,"Ġposs":1999,"Ġcult":2000,"ĠEm":2001,"ĠRoman":2002,"Ġmake":2003,"ole":2004,"Ġalign":2005,"ries":2006,"ĠParty":2007,"Ġwent":2008,"formation":2009,"ĠQu":2010,"Ġprevious":2011,"Ġsw":2012,"Ġinvol":2013,"ape":2014,"Ġcommon":2015,"off":2016,"Ġepis":2017,"Ġalbums":2018,"iment":2019,"Ġyoung":2020,"ĠHol":2021,"ĠBel":2022,"ipp":2023,"de":2024,"ĠPort":2025,"irc":2026,"Ġrole":2027,"Ġtechn":2028,"ĠOne":2029,"esc":2030,"ĠRoad":2031,"Ġengine":2032,"ĠRober":2033,"hers":2034,"ĠMor":2035,"ĠLou":2036,"Ġrail":2037,"ĠâĢ":2038,"ister":2039,"forman":2040,"ning":2041,"Ġmuch":2042,"Ġvol":2043,"ĠVal":2044,"Ġfact":2045,"ĠAssociation":2046,"ĠThom":2047,"ports":2048,"ades":2049,"ĠPaul":2050,"olution":2051,"ston":2052,"Ġage":2053,"ĠNor":2054,"Com":2055,"anish":2056,"ellow":2057,"Ġexpl":2058,"Ġ1999":2059,"Ġ23":2060,"Ġ21":2061,"ounced":2062,"ournal":2063,"Ġaward":2064,"ĠGeorge":2065,"BC":2066,"ti":2067,"Ġval":2068,"ĠFrance":2069,"omet":2070,"Ġimport":2071,"ĠJames":2072,"west":2073,"'t":2074,"ĠIndia":2075,"Ġofficial":2076,"Ġcommunity":2077,"ĠRecords":2078,"Ġgiven":2079,"ĠTown":2080,"Ġwhat":2081,"Ġroad":2082,"bor":2083,"ĠAmerica":2084,"ĠRich":2085,"ittle":2086,"Ġtw":2087,"ĠBra":2088,"Ġren":2089,"ĠQue":2090,"ots":2091,"ĠPal":2092,"itor":2093,"Ġworks":2094,"Ġconc":2095,"back":2096,"ĠDivision":2097,"Ġbecome":2098,"Ġ2015":2099,"Ġopened":2100,"Ġ22":2101,"reek":2102,"Ġbr":2103,"Ġstarted":2104,"Ġ1990":2105,"self":2106,"ached":2107,"ida":2108,"Ġfre":2109,"ĠHall":2110,"ream":2111,"ĠAustralian":2112,"iction":2113,"Ġ187":2114,"Ġsongs":2115,"Ġreturned":2116,"ming":2117,"ĠBy":2118,"Ã¶":2119,"Ġintro":2120,"Ġround":2121,"ĠDavid":2122,"abor":2123,"Ġvarious":2124,"ament":2125,"bert":2126,"Ġdebut":2127,"urb":2128,"Ġcoach":2129,"bb":2130,"ivid":2131,"Ġtotal":2132,"men":2133,"Ġ2016":2134,"ean":2135,"Ġsit":2136,"Ġhaving":2137,"Ġinit":2138,"Ġtem":2139,"Ġnext":2140,"stitute":2141,"ĠGermany":2142,"Ġdescribed":2143,"ĠMal":2144,"Ġstruct":2145,"Ġpopular":2146,"Ġfew":2147,"Ġspecial":2148,"Ġ=":2149,"ha":2150,"Ġhost":2151,"ators":2152,"As":2153,"icles":2154,"Ġvideo":2155,"Ġprim":2156,"atri":2157,"Ġmillion":2158,"Ġdevelopment":2159,"Ġprocess":2160,"ĠMy":2161,"ogn":2162,"iron":2163,"Ġstar":2164,"ij":2165,"Ġadv":2166,"Ġread":2167,"ĠClub":2168,"Ġ1998":2169,"ashington":2170,"asket":2171,"Ġproduction":2172,"Pl":2173,"rote":2174,"eration":2175,"han":2176,"Ġevery":2177,"umni":2178,"Ġguitar":2179,"Ġprop":2180,"ĠRev":2181,"Ġtake":2182,"ĠCouncil":2183,"Ġusing":2184,"Ġbroad":2185,"color":2186,"iol":2187,"ĠGeneral":2188,"aken":2189,"gin":2190,"Ġprofessional":2191,"Ġclaim":2192,"Ġ26":2193,"Ġtimes":2194,"oor":2195,"Ġhowever":2196,"itz":2197,"Ġschools":2198,"ention":2199,"After":2200,"berg":2201,"raw":2202,"Ġpolitic":2203,"ances":2204,"Ġway":2205,"iddle":2206,"ointed":2207,"gy":2208,"aseball":2209,"eh":2210,"Ġet":2211,"ĠVir":2212,"unt":2213,"Ġmilitary":2214,"Ġsent":2215,"ocr":2216,"ĠUnion":2217,"Ġpri":2218,"ological":2219,"Ġgreat":2220,"eared":2221,"ari":2222,"rack":2223,"Ġjoined":2224,"ma":2225,"Ġ28":2226,"Ġ27":2227,"Ġmarried":2228,"inister":2229,"Ġstory":2230,"ĠEuropean":2231,"arly":2232,"wood":2233,"iles":2234,"ĠStud":2235,"ills":2236,"ĠRoyal":2237,"Ġ1980":2238,"ests":2239,"Ġchurch":2240,"ĠCath":2241,"ope":2242,"Ġconf":2243,"ya":2244,"Ġred":2245,"icle":2246,"Ġfull":2247,"sequ":2248,"ĠWhen":2249,"Ġter":2250,"li":2251,"Ġareas":2252,"ources":2253,"atch":2254,"aur":2255,"Ġsimilar":2256,"arch":2257,"Ġannounced":2258,"rain":2259,"atural":2260,"Ġfem":2261,"Ġhig":2262,"Ġposition":2263,"Ġsol":2264,"Ġ[":2265,"ibr":2266,"Ġregion":2267,"ĠFootball":2268,"ĠDuring":2269,"lement":2270,"Ġpe":2271,"ĠSen":2272,"Ġbeh":2273,"align":2274,"ination":2275,"uff":2276,"Pro":2277,"now":2278,"Ġ2017":2279,"ĠMary":2280,"iers":2281,"ĠMusic":2282,"30":2283,"ĠCompany":2284,"Ġgl":2285,"Ġleague":2286,"Ġrecorded":2287,"ĠMart":2288,"rian":2289,"It":2290,"Ġpract":2291,"Ġbrother":2292,"anies":2293,"ĠKingdom":2294,"burg":2295,"Ġfriend":2296,"ĠBlack":2297,"Ġwebsite":2298,"Ġperforman":2299,"asketball":2300,"Ġneed":2301,"ĠPress":2302,"ividual":2303,"ona":2304,"year":2305,"center":2306,"ĠTex":2307,"reland":2308,"stitut":2309,"Ġpolitical":2310,"Ġsee":2311,"Ġcomb":2312,"erb":2313,"Ġconn":2314,"ĠMag":2315,"gr":2316,"ĠCanadian":2317,"Ġworked":2318,"ĠThese":2319,"ĠJos":2320,"Ġ1996":2321,"atter":2322,"Ġmult":2323,"ells":2324,"less":2325,"ĠWashington":2326,"aughter":2327,"Ġ2018":2328,"Ġwithout":2329,"ĠLaw":2330,"flu":2331,"aining":2332,"Ġhon":2333,"Ġattem":2334,"ype":2335,"Ġcontinued":2336,"wh":2337,"Ġ1997":2338,"Ġproduc":2339,"Ġwrote":2340,"ĠBer":2341,"ĠArch":2342,"ishing":2343,"uce":2344,"Ġinf":2345,"nel":2346,"ĠÃ":2347,"Ġlim":2348,"Ġdest":2349,"Ġcontrol":2350,"Ġelection":2351,"ĠGroup":2352,"ĠCourt":2353,"Ġfind":2354,"arl":2355,"ray":2356,"ule":2357,"ĠMo":2358,"ĠPresident":2359,"ample":2360,"Ġgroups":2361,"Ġlost":2362,"CA":2363,"ĠHen":2364,"ults":2365,"Ġmid":2366,"aper":2367,"Ġappeared":2368,"Ġright":2369,"ĠAngel":2370,"ĠMont":2371,"rd":2372,"oints":2373,"Ġdirector":2374,"icular":2375,"Ġconsidered":2376,"Ġhalf":2377,"ways":2378,"ĠRail":2379,"Ġpoint":2380,"ĠIsland":2381,"Ġbas":2382,"Ġtrack":2383,"Ġattack":2384,"abit":2385,"Ġ1970":2386,"aged":2387,"Ġsigned":2388,"ending":2389,"Ġmiss":2390,"ĠAcadem":2391,"ĠDon":2392,"Ġstations":2393,"rab":2394,"ges":2395,"etwork":2396,"ĠDepartment":2397,"ĠList":2398,"ym":2399,"Ġrock":2400,"Ġfounded":2401,"hib":2402,"ĠTV":2403,"ising":2404,"25":2405,"uz":2406,"eck":2407,"Ġproject":2408,"ĠBay":2409,"Ġ100":2410,"val":2411,"Ġteams":2412,"Ġdays":2413,"Ġ2019":2414,"xt":2415,"br":2416,"Ġeducation":2417,"Ġident":2418,"mar":2419,"eel":2420,"Ġradio":2421,"Ġ29":2422,"Ġpresident":2423,"Ġindust":2424,"ĠPri":2425,"ested":2426,"apt":2427,"||":2428,"olit":2429,"thlet":2430,"craft":2431,"Ġins":2432,"asons":2433,"roy":2434,"ĠMad":2435,"Ġmatch":2436,"used":2437,"Ġcompleted":2438,"ĠFirst":2439,"Ġnovel":2440,"ĠMount":2441,"ĠDem":2442,"ĠTur":2443,"ĠSal":2444,"quad":2445,"ĠJapanese":2446,"ĠServ":2447,"ĠSociety":2448,"ĠCenter":2449,"ĠGreen":2450,"ili":2451,"Cl":2452,"Film":2453,"Ġvict":2454,"ĠMiss":2455,"Ġevents":2456,"ĠSk":2457,"Ġsports":2458,"ees":2459,"Ġreal":2460,"ĠWith":2461,"ĠYou":2462,"ĠRobert":2463,"ĠSl":2464,"ĠLouis":2465,"Ġlive":2466,"gcolor":2467,"ither":2468,"Ġcaus":2469,"ccording":2470,"ĠGreat":2471,"ailed":2472,"ĠMex":2473,"usical":2474,"ĠChe":2475,"Ġcross":2476,"ĠTexas":2477,"rish":2478,"Ġsurv":2479,"Ġplaying":2480,"ockey":2481,"):":2482,"Ġproper":2483,"Ġten":2484,"odes":2485,"aign":2486,"estival":2487,"Ġwife":2488,"ĠJew":2489,"ensive":2490,"ĠFranc":2491,"ĠCong":2492,"Ġ1995":2493,"lected":2494,"Ġoffer":2495,"Ġhold":2496,"Ġfurther":2497,"Ġdiv":2498,"Ġdi":2499,"ĠItalian":2500,"Ġpriv":2501,"Ġfootballers":2502,"ĠSing":2503,"...":2504,"ĠScott":2505,"ĠThomas":2506,"iament":2507,"Ġservices":2508,"ĠProv":2509,"rap":2510,"Ġparticip":2511,"ini":2512,"Ġtyp":2513,"Ġelected":2514,"atre":2515,"Ġformed":2516,"ĠBest":2517,"Ġalumni":2518,"Ġ1994":2519,"onomy":2520,"Ġblack":2521,"enc":2522,"ume":2523,"anded":2524,"Ġhelp":2525,"ĠWe":2526,"Ġavail":2527,"âĢĿ":2528,"roll":2529,"ĠCatholic":2530,"Ġmy":2531,"Ġground":2532,"ably":2533,"ĠVirgin":2534,"idence":2535,"Ġbgcolor":2536,"itect":2537,"ĠChina":2538,"24":2539,"Ġ/":2540,"ĠSam":2541,"heast":2542,"lic":2543,"ĠVol":2544,"ĠYear":2545,"ements":2546,"Ġassist":2547,"acing":2548,"eph":2549,"Ġdeveloped":2550,"alls":2551,"lor":2552,"ani":2553,"Ġhimself":2554,"lear":2555,"Ġ2020":2556,"oul":2557,"Ġgood":2558,"Ġ1992":2559,"epar":2560,"Ġdoes":2561,"most":2562,"ĠCr":2563,"ĠFlor":2564,"ele":2565,"rey":2566,"olf":2567,"Ġmar":2568,"ĠWestern":2569,"Ġaver":2570,"ota":2571,"ump":2572,"Ġimportant":2573,"ka":2574,"Ġadminist":2575,"Ġarr":2576,"anding":2577,"ĠMichael":2578,"ictor":2579,"ĠIreland":2580,"Ġless":2581,"ĠGrand":2582,"Ġrelations":2583,"oo":2584,"Ġtradition":2585,"bour":2586,"pro":2587,"Ġbody":2588,"Ġindividual":2589,"ĠOlympics":2590,"time":2591,"yd":2592,"Ġmaking":2593,"ĠCap":2594,"Ġrelease":2595,"Eng":2596,"Ġmedal":2597,"udd":2598,"Ġlow":2599,"Ġappointed":2600,"Ġcast":2601,"Sp":2602,"azine":2603,"Ġnever":2604,"Ġtro":2605,"Ġz":2606,"ishop":2607,"ittee":2608,"Ġaut":2609,"ĠSim":2610,"Ġgrow":2611,"itted":2612,"ership":2613,"mon":2614,"Ġweek":2615,"ada":2616,"Ġview":2617,"ĠGold":2618,"itch":2619,"Ġmunicipality":2620,"atives":2621,"ĠMac":2622,"aker":2623,"Ġcond":2624,"Ġlanguage":2625,"ying":2626,"Ġbecom":2627,"ula":2628,"ĠCommun":2629,"oted":2630,"uation":2631,"liament":2632,"unk":2633,"Sh":2634,"ertain":2635,"Ġinvest":2636,"ged":2637,"Ġmeet":2638,"ĠChristian":2639,"here":2640,"ĠCentral":2641,"ification":2642,"Ġcase":2643,"Ġshould":2644,"ĠUK":2645,"New":2646,"Ġ()":2647,"Ġrecogn":2648,"ano":2649,"ĠCharles":2650,"Ġmot":2651,"Ġemploy":2652,"ederal":2653,"Ġvocals":2654,"Ġinflu":2655,"ĠPenn":2656,"ecutive":2657,"Ġothers":2658,"ĠCarol":2659,"ĠMet":2660,"Ġanim":2661,"Ġresearch":2662,"Ġpoints":2663,"ĠTrans":2664,"Ġparticular":2665,"40":2666,"Ġfire":2667,"ĠZeal":2668,"ĠTom":2669,"aries":2670,"Ġrev":2671,"Ġhous":2672,"ĠWil":2673,"Ġdoc":2674,"ĠAcademy":2675,"Ġsepar":2676,"ependent":2677,"ĠAfrica":2678,"ĠTra":2679,"play":2680,"ĠBen":2681,"Ġdirected":2682,"Ġproduct":2683,"ĠGames":2684,"Ġtog":2685,"Ġsocial":2686,"ĠPat":2687,"Ġestablishments":2688,"ĠZealand":2689,"Ġmater":2690,"imately":2691,"Ġexist":2692,"ĠBill":2693,"icago":2694,"Ġcompanies":2695,"isl":2696,"aves":2697,"arter":2698,"Ġmother":2699,"ĠAlex":2700,"ands":2701,"sy":2702,"Ġtogether":2703,"inese":2704,"unction":2705,"ĠMark":2706,"Ġ1960":2707,"iding":2708,"istic":2709,"be":2710,"go":2711,"oice":2712,"Ġavailable":2713,"Ġ1993":2714,"anted":2715,"ĠMer":2716,"Ġalthough":2717,"Ġhuman":2718,"edy":2719,"ger":2720,"Ġrul":2721,"ĠMuseum":2722,"ĠTor":2723,"Ġcontract":2724,"ilities":2725,"iff":2726,"Ġ50":2727,"ĠNe":2728,"Ġmodern":2729,"ux":2730,"ala":2731,"ĠAfrican":2732,"Ġbelie":2733,"stead":2734,"ĠCont":2735,"Ġacross":2736,"utes":2737,"Ġ#":2738,"ceed":2739,"viron":2740,"Ġcoll":2741,"head":2742,"Ġworking":2743,"Jo":2744,"Ġeffect":2745,"Ġfree":2746,"itive":2747,",\"":2748,"Ġgradu":2749,"Ġgoal":2750,"oys":2751,"Ġoffice":2752,"ĠInstitute":2753,"Ġonce":2754,"ĠCro":2755,"Ġ1991":2756,"elt":2757,"Ġphot":2758,"ado":2759,"arian":2760,"hood":2761,"ĠTer":2762,"Ġbi":2763,"rael":2764,"ude":2765,"onn":2766,"Ġincludes":2767,"Ġaway":2768,"Ġdaughter":2769,"Ġsuccessful":2770,"ique":2771,"ĠInter":2772,"ĠFrom":2773,"ĠFrank":2774,"idae":2775,"iting":2776,"ospital":2777,"Ġbooks":2778,"Ġreview":2779,"ena":2780,"rel":2781,"uild":2782,"igned":2783,"aches":2784,"Ġoriginally":2785,"shire":2786,"cle":2787,"atory":2788,"Ġexample":2789,"ĠCamp":2790,"Ġbar":2791,"fficial":2792,"eep":2793,"lection":2794,"Ġacqu":2795,"Ġepisode":2796,"Ġconstruction":2797,"Ġeight":2798,"gress":2799,"Ġfund":2800,"ĠTo":2801,"ĠMel":2802,"FL":2803,"ĠLake":2804,"Ġbroadcast":2805,"Ġstrong":2806,"Ġperformed":2807,"Ġtaken":2808,"ids":2809,"emor":2810,"ĠPeter":2811,"ethod":2812,"Ġrace":2813,"Ġreported":2814,"ought":2815,"Ġinformation":2816,"hi":2817,"amily":2818,"ura":2819,"Ġlight":2820,"Ġ185":2821,"Ġcour":2822,"ĠâĢľ":2823,"ĠFilm":2824,"This":2825,"ĠPet":2826,"ĠIll":2827,"writ":2828,"ria":2829,"27":2830,"Ġinst":2831,"Ġlaun":2832,"ĠRepublic":2833,"Ġphys":2834,"asc":2835,"ducation":2836,"ĠRussian":2837,"ĠRock":2838,"ece":2839,"Sc":2840,"Wh":2841,"26":2842,"Ġmonths":2843,"Ġlab":2844,"Åį":2845,"jects":2846,"ĠFlorida":2847,"Ġder":2848,"Ġdeg":2849,"anta":2850,"ĠSmith":2851,"ĠDay":2852,"aut":2853,"zil":2854,"ranch":2855,"Ġfollowed":2856,"ĠSummer":2857,"Ġsound":2858,"Ġscored":2859,"ĠHill":2860,"Ã¤":2861,"elling":2862,"ibrary":2863,"Ġspe":2864,"Ġ2021":2865,"28":2866,"ĠHistor":2867,"chie":2868,"ĠHam":2869,"ĠWhite":2870,"Or":2871,"olk":2872,"airs":2873,"ores":2874,"ĠRichard":2875,"Ġkilled":2876,"Ġ31":2877,"Ġmix":2878,"2006":2879,"Ġparty":2880,"tar":2881,"Ġhow":2882,"ĠDan":2883,"idents":2884,"Ġdev":2885,"Ġregular":2886,"ĠCast":2887,"aval":2888,"ĠVictor":2889,"TV":2890,"Ġaverage":2891,"Ġassoci":2892,"ĠRob":2893,"utch":2894,"ĠLos":2895,"Ġmust":2896,"ĠLeg":2897,"Ġfinished":2898,"ror":2899,"Ġput":2900,"Ġaccess":2901,"Ġbuildings":2902,"Ġfight":2903,"Ġfeatures":2904,"Ġwhite":2905,"ential":2906,"Ġrelig":2907,"II":2908,"Ġconduct":2909,"ylvan":2910,"For":2911,"igan":2912,"Ġstri":2913,"At":2914,"Ġcampaign":2915,"aps":2916,"Ġthroughout":2917,"Ġ40":2918,"ĠFore":2919,"Ġshows":2920,"ems":2921,"ola":2922,"ĠGeorg":2923,"Ġtour":2924,"Ġfeatured":2925,"ateg":2926,"Ġseven":2927,"erous":2928,"2007":2929,"ĠPlay":2930,"Ġcapt":2931,"atin":2932,"rated":2933,"Ge":2934,"aching":2935,"road":2936,"oviet":2937,"ĠForce":2938,"iation":2939,"uter":2940,"Ġattempt":2941,"ĠSpanish":2942,"Ġmarket":2943,"Ġcost":2944,"Ġ1989":2945,"annel":2946,"Ġaircraft":2947,"oms":2948,"ĠChicago":2949,"Ġseen":2950,"Ġrange":2951,"Ġliter":2952,"ĠBrown":2953,"Ġtre":2954,"vironment":2955,"cher":2956,"ĠVirginia":2957,"2000":2958,"Ġremained":2959,"nder":2960,"hest":2961,"gen":2962,"ios":2963,"ector":2964,"merc":2965,"Ġmaterial":2966,"Ġeventually":2967,"ĠIm":2968,"ĠPe":2969,"Ġ1988":2970,"acters":2971,"Ġagre":2972,"29":2973,"vert":2974,"Ġimpro":2975,"ificant":2976,"aught":2977,"ylvania":2978,"Ġwinn":2979,"Ġinj":2980,"Ġtraining":2981,"ĠHistory":2982,"Ġmount":2983,"ĠBut":2984,"Ġcirc":2985,"kn":2986,"ĠCons":2987,"Ġgave":2988,"incip":2989,"Ġviol":2990,"Ġperformance":2991,"ĠOrder":2992,"Ġstage":2993,"Ġentire":2994,"adium":2995,"ĠOh":2996,"serv":2997,"inct":2998,"Ġlargest":2999,"oma":3000,"mb":3001,"Ġintroduced":3002,"ĠWin":3003,"Ġsil":3004,"ĠGo":3005,"atriate":3006,"ows":3007,"ĠScot":3008,"Ġloss":3009,"ĠHenry":3010,"ĠKn":3011,"Ġplan":3012,"ugby":3013,"overnor":3014,"Ġdam":3015,"Ġplant":3016,"iro":3017,"Ġide":3018,"FA":3019,"Ġ(\"":3020,"ĠDo":3021,"ĠGod":3022,"Ġtransfer":3023,"Ġreplaced":3024,"Ġchampionship":3025,"List":3026,"Ġbirth":3027,"Ġ:":3028,"ĠIts":3029,"och":3030,"ĠSecond":3031,"Ġkey":3032,"ĠMass":3033,"190":3034,"English":3035,"Ġabove":3036,"uns":3037,"Ġfront":3038,"Ġtest":3039,"ĠApp":3040,"ĠSuper":3041,"Rec":3042,"yr":3043,"Ġpast":3044,"ĠKore":3045,"Ġill":3046,"Ġgold":3047,"note":3048,"ĠSaint":3049,"Ġfoc":3050,"Ġforces":3051,"Ġconsist":3052,"Ġ1987":3053,"ĠAngeles":3054,"ites":3055,"Ġdesigned":3056,"ĠDirect":3057,"Ġproble":3058,"Notes":3059,"anks":3060,"Ġyou":3061,"Ġcourt":3062,"Ġforest":3063,"km":3064,"Ġnatural":3065,"Ġpress":3066,"unn":3067,"ĠChinese":3068,"Ġdou":3069,"ĠBur":3070,"ufact":3071,"Ġleading":3072,"ĠMinister":3073,"order":3074,"Ġsubsequ":3075,"Ġcollege":3076,"Ġsignificant":3077,"ĠAtl":3078,"SA":3079,"Ġbasketball":3080,"Ġboard":3081,"ella":3082,".)":3083,"Ġcompos":3084,"Ġflow":3085,"people":3086,"Ġdram":3087,"Ġpolitician":3088,"ĠDes":3089,"ĠĠĊ":3090,"Ġ2022":3091,"Ġusually":3092,"Ġcivil":3093,"Ġinvolved":3094,"Ġeither":3095,"Ġsinger":3096,"sylvania":3097,"Ġwid":3098,"imate":3099,"Ġmodel":3100,"Ġ184":3101,"Ġsen":3102,"Ġtransl":3103,"Ġartists":3104,"Ġ1986":3105,"ĠMr":3106,"Ġ1984":3107,"iano":3108,"istan":3109,"iÄ":3110,"Ġjud":3111,"za":3112,"Ġanal":3113,"Ġrank":3114,"ĠCongress":3115,"Ġroute":3116,"ware":3117,"ĠFr":3118,"Ind":3119,"ource":3120,"ened":3121,"Ġpaint":3122,"Ġsugg":3123,"Ġsem":3124,"atal":3125,"Ġjournal":3126,"\")":3127,"60":3128,"Ġable":3129,"Early":3130,"ĠDel":3131,"uture":3132,"Ġhom":3133,"Ġawarded":3134,"icy":3135,"Ġprivate":3136,"ĠSwed":3137,"Ġenc":3138,"ĠMil":3139,"Ġget":3140,"Ġpos":3141,"ĠIsrael":3142,"Ġstudy":3143,"medi":3144,"ĠLove":3145,"ĠNavy":3146,"ĠWales":3147,"ersey":3148,"ita":3149,"agon":3150,"ensus":3151,"onomic":3152,"urity":3153,"Ġpark":3154,"ift":3155,"Ġser":3156,"ĠParis":3157,"Ġclose":3158,"arth":3159,"asing":3160,"gent":3161,"well":3162,"Ġclos":3163,"ving":3164,"Ġwriter":3165,"ulated":3166,"ĠEmp":3167,"idge":3168,"min":3169,"Ġrespons":3170,"Ġadded":3171,"Ġaud":3172,"ĠDemocr":3173,"Ġarchitect":3174,"Ġconv":3175,"ĠGre":3176,"ender":3177,"erve":3178,"ĠJust":3179,"Ġvia":3180,"Ġwriters":3181,"Ġtreat":3182,"ĠStev":3183,"ĠRh":3184,"Ġcurrently":3185,"Ġer":3186,"Ġhealth":3187,"ĠItaly":3188,"mercial":3189,"inals":3190,"ĠMus":3191,"Ġ1985":3192,"rial":3193,"ams":3194,"ength":3195,"Ġnight":3196,"Ġfemale":3197,"Ġneigh":3198,"istics":3199,"Ġcentral":3200,"Ġupon":3201,"ked":3202,"ises":3203,"Ġruns":3204,"icated":3205,"rought":3206,"eated":3207,"Ġcharacters":3208,"Ã³n":3209,"la":3210,"Ġstaff":3211,"AR":3212,"ĠOld":3213,"Ġ1950":3214,"Ġsaw":3215,"ires":3216,"Ġreached":3217,"Ġchange":3218,"iana":3219,"Ġtourn":3220,"ĠPennsylvania":3221,"enth":3222,"ĠMa":3223,"antic":3224,"read":3225,"umm":3226,"ribution":3227,"face":3228,"Ġhit":3229,"porary":3230,"sel":3231,"ĠAnn":3232,"erry":3233,"Ġrights":3234,"oke":3235,"Ġseasons":3236,"Ġgoals":3237,"Ġcy":3238,"fic":3239,"Ġtravel":3240,"oring":3241,"189":3242,"hold":3243,"uke":3244,"Ġpolice":3245,"ĠCommission":3246,"ongs":3247,"Ġ1983":3248,"inois":3249,"ĠWhile":3250,"arily":3251,"Ġleast":3252,"ĠMexico":3253,"Ġlearn":3254,"Ġriver":3255,"Ad":3256,"aying":3257,"Ġsouthern":3258,"ription":3259,"ĠArts":3260,"Ġactress":3261,"Ġcop":3262,"Ġprovided":3263,"lam":3264,"bur":3265,"Ġmanager":3266,"azz":3267,"Ġpur":3268,"ĠSir":3269,"board":3270,"known":3271,"ki":3272,"Ġwood":3273,"ĠOhio":3274,"Ġqual":3275,"ĠEr":3276,"ĠCarolina":3277,"ĠPre":3278,"ability":3279,"FF":3280,"De":3281,"Ġmedia":3282,"stra":3283,"ĠOff":3284,"Ġmean":3285,"den":3286,"Ġrailway":3287,"ĠSome":3288,"Ġfig":3289,"Ġdiscover":3290,"Ġfourth":3291,"80":3292,"lim":3293,"Ġchanged":3294,"par":3295,"ĠMur":3296,"ply":3297,"Ġsch":3298,"ĠNorthern":3299,"Ġnorthern":3300,"Ġaccom":3301,"ds":3302,"Ġsingles":3303,"ĠIrish":3304,"ctor":3305,"Ġap":3306,"ĠClass":3307,"Ġ1982":3308,"Ġcountries":3309,"ĠStar":3310,"Ġdata":3311,"Ġparts":3312,"Ġcenter":3313,"see":3314,"ĠPublic":3315,"NA":3316,"ĠColumb":3317,"ometimes":3318,"band":3319,"BA":3320,"ĠMill":3321,"Ġplaced":3322,"Le":3323,"hire":3324,"Ġinterest":3325,"Ġdocument":3326,"ĠSoviet":3327,"Ġwinning":3328,"ua":3329,"Ġ1979":3330,"rad":3331,"overs":3332,"Ġtype":3333,"Ã¨":3334,"Ġpoet":3335,");":3336,"Ġmusical":3337,"Ph":3338,"ato":3339,"Ġclosed":3340,"ultural":3341,"stant":3342,"Ġsection":3343,"ĠBrazil":3344,"ĠPan":3345,"ww":3346,"Ġcompetition":3347,"Ġachie":3348,"Ġresults":3349,"isco":3350,"Ġoccur":3351,"Ġreb":3352,"ĠTurk":3353,"Ġmur":3354,"Ġche":3355,"ette":3356,"Ġwind":3357,"Ġoccup":3358,"Ġfav":3359,"Ġdestroy":3360,"ĠParliament":3361,"pts":3362,"ĠKh":3363,"ĠAv":3364,"iences":3365,"Ġstates":3366,"orse":3367,"Ġlower":3368,"ati":3369,"ĠEc":3370,"ĠJim":3371,"ils":3372,"rup":3373,"ĠCD":3374,"Ġgirl":3375,"Ġproducer":3376,"Ġaction":3377,"reme":3378,"Ġdecided":3379,"Ġsyn":3380,"ca":3381,"Ġsex":3382,"ends":3383,"ĠWood":3384,"ora":3385,"Ġartist":3386,"Ġunits":3387,"ĠFestival":3388,"Am":3389,"oute":3390,"ĠOper":3391,"Ġfarm":3392,"sych":3393,"Ġpurch":3394,"ĠService":3395,"35":3396,"iqu":3397,"uan":3398,"ulture":3399,"ĠHon":3400,"ky":3401,"Gen":3402,"Ġ1981":3403,"ients":3404,"venue":3405,"ĠIllinois":3406,"ĠTwo":3407,"Ġexpress":3408,"ĠEv":3409,"utt":3410,"Ġ1976":3411,"ero":3412,"ricket":3413,"2005":3414,"Ġwhose":3415,"ĠOl":3416,"Ġ1972":3417,"Ġfall":3418,"Ġinstead":3419,"illa":3420,"Ġknow":3421,"ption":3422,"Ġesc":3423,"ĠOther":3424,"ned":3425,"ĠSil":3426,"Bl":3427,"There":3428,"Ġpot":3429,"awa":3430,"like":3431,"Ġcritic":3432,"usp":3433,"urt":3434,"Ġfar":3435,"Ġplaces":3436,"Ġattended":3437,"Ġmeas":3438,"Ġparen":3439,"John":3440,"During":3441,"Mar":3442,"Ġrespect":3443,"Ġdeal":3444,"Ġcoast":3445,"andid":3446,"ye":3447,"Ġpreviously":3448,"Ġbass":3449,"Ġoperations":3450,"Ġmanufact":3451,"ĠSur":3452,"bl":3453,"ĠDen":3454,"Ġoutside":3455,"Ġdivision":3456,"Ġnetwork":3457,"ĠFort":3458,"Tax":3459,"Ġtax":3460,"ĠÂ":3461,"stitution":3462,"Films":3463,"Ġprovide":3464,"Ġprimary":3465,"Ġbrought":3466,"ĠJoseph":3467,"Ġspace":3468,"Person":3469,"Ġactor":3470,"embly":3471,"ollowing":3472,"Ġ1974":3473,"Ġ1978":3474,"Ġapprox":3475,"Ġpred":3476,"unior":3477,"ĠChampionships":3478,"Ġowned":3479,"Ġfif":3480,"Ġalmost":3481,"Ġstudio":3482,"Ġrather":3483,"Ġking":3484,"Ġfrequ":3485,"ĠJack":3486,"ĠMod":3487,"Ġmethod":3488,"Ġrelationship":3489,"with":3490,"ider":3491,"ĠTechn":3492,"lier":3493,"based":3494,"ĠValley":3495,"ros":3496,"Ġaccept":3497,"Ġmass":3498,"ension":3499,"ĠRadio":3500,"Ġcontribut":3501,"uty":3502,"Ġplann":3503,"ĠScience":3504,"FC":3505,"ingu":3506,"ĠRos":3507,"Col":3508,"ĠStr":3509,"ĠTour":3510,"Ġstated":3511,"ĠLand":3512,"ulty":3513,"ĠHaw":3514,"Ġisland":3515,"orpor":3516,"ergy":3517,"ĠPo":3518,"Ġgrand":3519,"Ġactive":3520,"Ġlisted":3521,"Ġpain":3522,"ĠSpain":3523,"ums":3524,"ĠOut":3525,"Ġreve":3526,"Ġbank":3527,"ĠFound":3528,"rown":3529,"ĠJersey":3530,"imb":3531,"ĠAccording":3532,"uments":3533,"ĠSeries":3534,"Ġmagazine":3535,"Ġball":3536,"Ġedition":3537,"Ġdefeated":3538,"emic":3539,"Ġhard":3540,"ĠTimes":3541,"Ġminor":3542,"Ġbehind":3543,"mond":3544,"Ġcreat":3545,"Ġorganiz":3546,"ecially":3547,"wer":3548,"Ġbeginning":3549,"Ġmultip":3550,"eff":3551,"gl":3552,"inent":3553,"Ġever":3554,"ĠHot":3555,"ĠSpec":3556,"Ġesp":3557,"iography":3558,"Ġant":3559,"elled":3560,"Ġcou":3561,"ĠArab":3562,"ĠPac":3563,"Ġprem":3564,"2004":3565,"ĠCommittee":3566,"Ġpers":3567,"Ġended":3568,"ĠGar":3569,"left":3570,"Ġstop":3571,"Ġimm":3572,"ĠĠĠĠĠĠĠĠ":3573,"Ġcred":3574,"ĠEmpire":3575,"Ġ1977":3576,"Ġdegree":3577,"Ġ1975":3578,"ĠBob":3579,"ĠBattle":3580,"Ġlik":3581,"Ġdefeat":3582,"Ġforce":3583,"70":3584,"ĠHow":3585,"ĠMos":3586,"igg":3587,"Ġsummer":3588,"ĠMartin":3589,"Ġsystems":3590,"iÄĩ":3591,"ao":3592,"ĠUp":3593,"clus":3594,"Ġprison":3595,"lying":3596,"Ġarg":3597,"ampion":3598,"Ġcare":3599,"alled":3600,"ĠLine":3601,"Ġterrit":3602,"Ġitself":3603,"cient":3604,"Ġ1968":3605,"Ġarticles":3606,"ĠMin":3607,"Ġtransport":3608,"change":3609,"Ġculture":3610,"lements":3611,"ĠProvince":3612,"ĠTro":3613,"ansas":3614,"Ġliving":3615,"oston":3616,"Ġbattle":3617,"Ġthreat":3618,"Can":3619,"ĠLiber":3620,"Ġcollection":3621,"ĠGovernment":3622,"Ġnomin":3623,"Ġpossible":3624,"ĠAwards":3625,"\"|":3626,"alc":3627,"Ġnames":3628,"bury":3629,"Ġallowed":3630,"Ġbox":3631,"Ġorganization":3632,"Ġnewsp":3633,"Ġsoon":3634,"Ġ1973":3635,"ĠSer":3636,"adel":3637,"ĠBus":3638,"Other":3639,"Ġassociation":3640,"All":3641,"Ġben":3642,"ĠYoung":3643,"Ġcapital":3644,"Ġbase":3645,"Ġspent":3646,"state":3647,"ĠLife":3648,"retary":3649,"Ġleader":3650,"Career":3651,"Ġreading":3652,"ĠSub":3653,"Ġveh":3654,"ĠKent":3655,"Con":3656,"ĠEducation":3657,"Ġwhom":3658,"alities":3659,"iety":3660,"isions":3661,"oir":3662,"Ġregard":3663,"ounter":3664,"Ġcomplet":3665,"Ġbur":3666,"Ġscience":3667,"Ġ1971":3668,"Ġfe":3669,"wan":3670,"ĠGra":3671,"ĠCross":3672,"ĠDev":3673,"Ġ1969":3674,"Ġ1945":3675,"ĠLong":3676,"mark":3677,"Ġprincip":3678,"Ġcommercial":3679,"pped":3680,"NE":3681,"Ġmovement":3682,"Ġindependent":3683,"ĠDou":3684,"Ġlittle":3685,"Ġcontains":3686,"Ġneg":3687,"ĠDi":3688,"Ġhabit":3689,"Ġfood":3690,"ĠGreek":3691,"Ġindustry":3692,"Ġcele":3693,"Ġappearance":3694,"Ġran":3695,"Ġtournament":3696,"Ġstructure":3697,"Ġshot":3698,"Äģ":3699,"ĠSa":3700,"ĠBoard":3701,"Ġelev":3702,"CC":3703,"Ġadditional":3704,"Ġacadem":3705,"uffer":3706,"ĠSouthern":3707,"ecess":3708,"ĠRailway":3709,"Ġ183":3710,"win":3711,"Ġhigher":3712,"Ġtoo":3713,"ancial":3714,"ĠDef":3715,"itiz":3716,"Ġanti":3717,"Ġbreak":3718,"ĠCarl":3719,"ĠMost":3720,"Ġexcept":3721,"ĠRussia":3722,"Ġwriting":3723,"ĠNews":3724,"ĠFin":3725,"Ġscore":3726,"burgh":3727,"ĠIII":3728,"ĠFre":3729,"ĠInc":3730,"ĠGall":3731,"cel":3732,"Ġsuper":3733,"osing":3734,"ĠFred":3735,"Ġlocation":3736,"Ġremov":3737,"Te":3738,"ĠScotland":3739,"org":3740,"anda":3741,"Ġcomplex":3742,"Ġcandid":3743,"Ġstudent":3744,"inary":3745,"Ġscient":3746,"etts":3747,"itors":3748,"add":3749,"Ġlength":3750,"Ġdu":3751,"Ġunit":3752,"aled":3753,"Ġlook":3754,"ook":3755,"Ġmission":3756,"iger":3757,"Ġvictory":3758,"2003":3759,"ĠHa":3760,"Ġschol":3761,"Ġinvestig":3762,"ublican":3763,"Ġsometimes":3764,"Ġdraw":3765,"Ġmeans":3766,"icro":3767,"iginal":3768,"Ġnar":3769,"down":3770,"Ġconcern":3771,"Ġoperated":3772,"Ġrunning":3773,"uts":3774,"ĠMain":3775,"ĠBow":3776,"Ġexhib":3777,"ĠHel":3778,"Ġobserv":3779,"Ġ1967":3780,"Ġkeep":3781,"Ġhockey":3782,"ĠAp":3783,"Ġsurround":3784,"enced":3785,"Ġretired":3786,"Ġfuture":3787,"ĠOx":3788,"Ġcome":3789,"Ġtaking":3790,"oid":3791,"ii":3792,"Ġpractice":3793,"bot":3794,"ĠCivil":3795,"irm":3796,"Ġgener":3797,"ervation":3798,"ĠAlb":3799,"Ġespecially":3800,"Ġtowards":3801,"ny":3802,"Ġinsp":3803,"ulations":3804,"arden":3805,"45":3806,"Ġpit":3807,"ĠAlthough":3808,"Ġwestern":3809,"ĠTheatre":3810,"oe":3811,"kins":3812,"Ġclubs":3813,"90":3814,"Ġbaseball":3815,"ĠJud":3816,"Ġtraditional":3817,"ĠBroad":3818,"Ġden":3819,"ready":3820,"house":3821,"Ġmer":3822,"Ġself":3823,"rief":3824,"Ġscreen":3825,"ĠMichigan":3826,"Ġquest":3827,"RA":3828,"aka":3829,"ĠWeb":3830,"ĠRepresent":3831,"Ġcommission":3832,"ĠTri":3833,"quadron":3834,"ĠJones":3835,"igital":3836,"ĠBul":3837,"ĠBritain":3838,"echan":3839,"alle":3840,"Ġrelated":3841,"Ġaccording":3842,"yan":3843,"ĠAre":3844,"ĠOf":3845,"Ġhighest":3846,"ĠOver":3847,"2002":3848,"Ġthus":3849,"Ġrequired":3850,"ĠConn":3851,"ador":3852,"Ġcentre":3853,"Ġapproximately":3854,"oral":3855,"iga":3856,"Ġmove":3857,"bon":3858,"Ġopening":3859,"Ġarran":3860,"quare":3861,"rative":3862,"Ġ1964":3863,"ĠBig":3864,"ĠLee":3865,"track":3866,"ali":3867,"ima":3868,"oper":3869,"ĠBre":3870,"Ġpay":3871,"Ġ1966":3872,"Ġdeterm":3873,"Ġlet":3874,"unc":3875,"2008":3876,"Ġdisp":3877,"Ġuses":3878,"aria":3879,"omm":3880,"inated":3881,"ĠJewish":3882,"ibility":3883,"Ġmoney":3884,"ĠEngine":3885,"Ġearlier":3886,"ken":3887,"Ġprograms":3888,"Ġsoft":3889,"ĠStep":3890,"achus":3891,"acher":3892,"ĠLord":3893,"Ġtrain":3894,"ences":3895,"ĠBook":3896,"Ġwoman":3897,"Ġlived":3898,"Ġarmy":3899,"Ġ1940":3900,"ĠProfess":3901,"Ġtracks":3902,"aters":3903,"Ġmention":3904,"asy":3905,"Ġfootballer":3906,"ĠChief":3907,"Se":3908,"king":3909,"Ġgenerally":3910,"etic":3911,"Ġappearances":3912,"Ġpromot":3913,"Ġmatches":3914,"ĠCam":3915,"ropical":3916,"ĠFrancisco":3917,"188":3918,"Aust":3919,"rying":3920,"Ġsusp":3921,"Ġequip":3922,"Ġprof":3923,"Å¡":3924,"Ġactors":3925,"Ġstandard":3926,"ĠGeorgia":3927,"ih":3928,"atform":3929,"Ġsuffer":3930,"ira":3931,"Ġissues":3932,"ĠBank":3933,"ĠThat":3934,"Ġge":3935,"Ġchief":3936,"ĠBlue":3937,"Ġphil":3938,"airman":3939,"standing":3940,"ĠSo":3941,"Ġcertain":3942,"ta":3943,"arriage":3944,"Ġlove":3945,"Ġnumerous":3946,"emporary":3947,"ĠSar":3948,"uis":3949,"action":3950,"ĠSol":3951,"Ġstudies":3952,"ĠMiddle":3953,"iled":3954,"Ġdate":3955,"Ġprior":3956,"ĠInf":3957,"aring":3958,"ĠMinn":3959,"ĠMP":3960,"ĠRoute":3961,"Ġstatus":3962,"ĠDutch":3963,"Ġmurder":3964,"Ġmostly":3965,"Ġactivities":3966,"occer":3967,"ĠPrem":3968,"velopment":3969,"Ġappears":3970,"Ġfamous":3971,"2001":3972,"Ġ1965":3973,"Ġnews":3974,"language":3975,"ĠEdward":3976,"Ġadop":3977,"Ġindic":3978,"Ġattract":3979,"isher":3980,"ĠÐ":3981,"ko":3982,"ections":3983,"Ġsat":3984,"antry":3985,"ulf":3986,"va":3987,"ĠCard":3988,"ping":3989,"Ġsize":3990,"Ġkm":3991,"ears":3992,"Ġrad":3993,"ĠInt":3994,"Ġnoted":3995,"AS":3996,"Ġbecoming":3997,"Ġ1930":3998,"irit":3999,"Ġenvironment":4000,"Ġofficer":4001,"ĠMcC":4002,"Ġpen":4003,"Ġmonth":4004,"ias":4005,"Ġquarter":4006,"ails":4007,"Ġassociated":4008,"ĠCamb":4009,"Ġsaf":4010,"ĠTeam":4011,"Ġeditor":4012,"umber":4013,"Ġoccas":4014,"ĠJul":4015,"ols":4016,"irt":4017,"Ġdon":4018,"eeks":4019,"Ġdiffic":4020,"achusetts":4021,"Ġcourse":4022,"....":4023,"Ġtext":4024,"Ġinterview":4025,"Ġtrib":4026,"ĠSun":4027,"attal":4028,"Ġmanagement":4029,"Ġsenior":4030,"Med":4031,"ify":4032,"ĠSystem":4033,"Brit":4034,"ĠScottish":4035,"Ġlaunched":4036,"Ġrecording":4037,"amm":4038,"emorial":4039,"Ġcomplete":4040,"Ġinstr":4041,"Ġtrade":4042,"Ġships":4043,"arters":4044,"Ġalready":4045,"Ġpi":4046,"Ġemer":4047,"ĠBoston":4048,"ĠWomen":4049,"het":4050,"Ġrepresented":4051,"ipl":4052,"ila":4053,"Ġremains":4054,"Ã§":4055,"Ġabs":4056,"Ġproperty":4057,"ĠTim":4058,"Ġens":4059,"ennis":4060,"ĠGirl":4061,"ĠStation":4062,"ĠNot":4063,"ĠAvenue":4064,"ĠMah":4065,"Ġfeature":4066,"Ġlimited":4067,"Ġserving":4068,"75":4069,"aded":4070,"ĠOk":4071,"vention":4072,"ĠMatt":4073,"Ġchanges":4074,"ĠQueen":4075,"Ġreligious":4076,"Men":4077,"ading":4078,"war":4079,"Ġdom":4080,"ĠGood":4081,"adelph":4082,"33":4083,"emet":4084,"ĠSince":4085,"Ġinstitut":4086,"2010":4087,"ĠTownship":4088,"illy":4089,"rich":4090,"ĠWild":4091,"Ġcaused":4092,"Ġrate":4093,"Ġ60":4094,"ĠMot":4095,"ĠBas":4096,"Ġselected":4097,"Ġcommand":4098,"Ġsister":4099,"ĠPak":4100,"Ġtakes":4101,"ĠLittle":4102,"mun":4103,"Ġprob":4104,"iant":4105,"fect":4106,"Ġarm":4107,"Ġplays":4108,"Ġcust":4109,"ĠPolice":4110,"ĠPacific":4111,"Ġwide":4112,"Ġjob":4113,"ares":4114,"ĠMat":4115,"Ġpurp":4116,"Ġsubject":4117,"abb":4118,"United":4119,"ĠAdm":4120,"Ġprod":4121,"Ġ1944":4122,"ĠColumbia":4123,"Ġapplic":4124,"ĠCoast":4125,"Ġimmedi":4126,"een":4127,"Ġnine":4128,"ĠWilliams":4129,"Ġhum":4130,"una":4131,"Ġterms":4132,"Ġrecords":4133,"ĠCreek":4134,"Ġfocus":4135,"ĠAsia":4136,"Ġdecl":4137,"Ġhot":4138,"Sports":4139,"ĠTw":4140,"itation":4141,"adelphia":4142,"etro":4143,"Ġthought":4144,"Ġissue":4145,"Ġincreased":4146,"Ġdra":4147,"Ġaltern":4148,"Ġbetter":4149,"Ġannual":4150,"phy":4151,"ĠGal":4152,"eds":4153,"Comp":4154,"ĠPortug":4155,"ĠResearch":4156,"Ġbelow":4157,"ĠHung":4158,"ĠLibrary":4159,"nam":4160,"ĠArgent":4161,"ĠEastern":4162,"mm":4163,"1990":4164,"Ġfederal":4165,"Ġcounty":4166,"Ġeastern":4167,"ĠPrince":4168,"uj":4169,"Ġdise":4170,"Ġmajority":4171,"ĠMassachusetts":4172,"Ġcases":4173,"ackson":4174,"stein":4175,"Ġstructures":4176,"isk":4177,"ĠPhilipp":4178,"Ġentered":4179,"ĠTime":4180,"aya":4181,"Ġord":4182,"ĠMajor":4183,"agn":4184,"ĠTheir":4185,"chen":4186,"Ġlines":4187,"tained":4188,"urban":4189,"iy":4190,"uten":4191,"ication":4192,"Ġinh":4193,"ective":4194,"Ġinitially":4195,"ĠConference":4196,"ĠMid":4197,"Ġshown":4198,"Ġunion":4199,"Ġlegal":4200,"Ġleaving":4201,"ĠDie":4202,"Ġven":4203,"level":4204,"wa":4205,"She":4206,"ĠBaron":4207,"Ġforced":4208,"Ġdecision":4209,"Ġsom":4210,"outheast":4211,"2009":4212,"ĠElect":4213,"Ġded":4214,"uge":4215,"espite":4216,"Ġexpatriate":4217,"rants":4218,"ela":4219,"Ġ1920":4220,"ĠLuc":4221,"ĠUnder":4222,"Ã±":4223,"Ġlic":4224,"ĠWal":4225,"Music":4226,"Ġgive":4227,"ĠLab":4228,"Ġgenus":4229,"onse":4230,"ĠEll":4231,"isation":4232,"Ġlonger":4233,"Ġexc":4234,"Ġ1963":4235,"adr":4236,"Ġgra":4237,"aily":4238,"Ġuniversity":4239,"ĠWay":4240,"Ġbridge":4241,"ĠMen":4242,"British":4243,"Ġcomedy":4244,"ĠJr":4245,"Ġpil":4246,"Ġ2023":4247,"obal":4248,"press":4249,"ĠOfficial":4250,"inet":4251,"ĠStan":4252,"Ġtowns":4253,"nes":4254,"1999":4255,"Ġice":4256,"onto":4257,"ĠSat":4258,"National":4259,"Ġpersonnel":4260,"IS":4261,"iring":4262,"ayer":4263,"//":4264,"chester":4265,"Ġpersonal":4266,"Ġlack":4267,"rog":4268,"ĠDirector":4269,"Ġcle":4270,"Ġcolon":4271,"Ġsu":4272,"ĠDar":4273,"inem":4274,"erem":4275,"rim":4276,"Ġofficers":4277,"ĠCentre":4278,"Ġsequ":4279,"iance":4280,"icks":4281,"Ġspeed":4282,"ĠOxford":4283,"illed":4284,"ĠHistoric":4285,"Ġgoing":4286,"Ġremain":4287,"Ġfle":4288,"ĠVer":4289,"Ġdrama":4290,"Ġ35":4291,"ĠWind":4292,"ĠNight":4293,"Ġtoday":4294,"Ġpassed":4295,"Ġhistorical":4296,"Ġmerg":4297,"Ġ1962":4298,"ysis":4299,"ortun":4300,"Ġmultiple":4301,"dis":4302,"town":4303,"Char":4304,"Trans":4305,"bre":4306,"ĠSocial":4307,"Ġlarger":4308,"enty":4309,"Ġweeks":4310,"ips":4311,"ĠMore":4312,"riz":4313,"Ġsubsequently":4314,"BS":4315,"ĠHome":4316,"Ġacquired":4317,"ĠTem":4318,"iform":4319,"tario":4320,"Not":4321,"AA":4322,"Ġmissing":4323,"ĠAssembly":4324,"ĠBern":4325,"abeth":4326,"Ġquick":4327,"rac":4328,"Ġcell":4329,"plement":4330,"ĠJohnson":4331,"Ġdesp":4332,"pan":4333,"edd":4334,"Ġseat":4335,"poration":4336,"Ġword":4337,"ilies":4338,"ru":4339,"ĠOs":4340,"ocal":4341,"Ġseparate":4342,"Ġcouncil":4343,"Ġroom":4344,"ĠHealth":4345,"bers":4346,"Ġbomb":4347,"Ġbound":4348,"Ġprovince":4349,"ĠShow":4350,"Ġchart":4351,"Ġreferred":4352,"AT":4353,"ĠTre":4354,"Ġevidence":4355,"ricts":4356,"Ġmiddle":4357,"Ġmuseum":4358,"ĠAlbert":4359,"Ġmainly":4360,"ager":4361,"36":4362,"ĠPolish":4363,"=#":4364,"ucky":4365,"eld":4366,"Man":4367,"ortheast":4368,"Track":4369,"Ġbrief":4370,"ĠField":4371,"ĠUr":4372,"rance":4373,"US":4374,"struction":4375,"34":4376,"ĠBor":4377,"ĠTop":4378,"oz":4379,"apers":4380,"ĠOpen":4381,"ĠVan":4382,"ĠSand":4383,"ĠSund":4384,"://":4385,"ĠWater":4386,"hol":4387,"stone":4388,"ications":4389,"Ġgot":4390,"Ġsea":4391,"chestra":4392,"inger":4393,"ĠFC":4394,"Ġstudied":4395,"Ġpasseng":4396,"Ġoverall":4397,"uated":4398,"Ġhelped":4399,"ĠSea":4400,"ĠJournal":4401,"Is":4402,"uries":4403,"Ġclaimed":4404,"Ġfa":4405,"Ġearned":4406,"Ġcreate":4407,"atus":4408,"Ġformat":4409,"Ġcensus":4410,"Ġoffered":4411,"Ġmedical":4412,"ĠJac":4413,"ĠSyd":4414,"ĠIslam":4415,"38":4416,"ski":4417,"ĠBoy":4418,"Ġdescent":4419,"heim":4420,"ĠVictoria":4421,"Ġremaining":4422,"Ġspecific":4423,"Ġbelieved":4424,"onic":4425,"Ġlog":4426,"ĠSports":4427,"ĠIran":4428,"aven":4429,"Ġlabel":4430,"With":4431,"ĠBand":4432,"Ġunc":4433,"ĠEnd":4434,"ĠLatin":4435,"Ġminutes":4436,"Ġaccount":4437,"Ġnorm":4438,"ras":4439,"Ġmovie":4440,"Ġpresented":4441,"teen":4442,"ĠCub":4443,"class":4444,"Ġsn":4445,"ĠDis":4446,"onia":4447,"ĠPeople":4448,"Ġplatform":4449,"Ġstarting":4450,"ĠCorn":4451,"Ġorganizations":4452,"Ġtroops":4453,"ĠChild":4454,"Ġenergy":4455,"ĠCorps":4456,"ĠOlympic":4457,"ĠOffice":4458,"osa":4459,"ties":4460,"oh":4461,"Ġvariety":4462,"ĠBh":4463,"From":4464,"more":4465,"Ġnative":4466,"hew":4467,"rice":4468,"Ġstep":4469,"Ġparents":4470,"rect":4471,"gypt":4472,"Ġparticularly":4473,"card":4474,"ĠBBC":4475,"itting":4476,"Ġdiscuss":4477,"Ġarrest":4478,"ĠUSA":4479,"07":4480,"selves":4481,"Ġthemselves":4482,"Ġhouses":4483,"37":4484,"47":4485,"Ġmach":4486,"Members":4487,"Ġassistant":4488,"ĠFoundation":4489,"Ġ)":4490,"ighter":4491,"ograp":4492,"Ġste":4493,"izing":4494,"Ġhours":4495,"ĠRegiment":4496,"Ġlisting":4497,"Ġforeign":4498,"ĠOntario":4499,"ocese":4500,"ĠRam":4501,"Ġop":4502,"48":4503,"Ġeconomic":4504,"Ġfoot":4505,"peror":4506,"Ġinn":4507,"Ġmeaning":4508,"akers":4509,"ĠSpecial":4510,":#":4511,"ĠBC":4512,"ennes":4513,"ledge":4514,"osoph":4515,"Ġspl":4516,"Ġpercent":4517,"Ġlatter":4518,"ĠOb":4519,"Ġ1961":4520,"agement":4521,"Ġfailed":4522,"ession":4523,"Ġcitiz":4524,"resp":4525,"Ġopt":4526,"ĠBir":4527,"imum":4528,"ĠLater":4529,"Ġepisodes":4530,"Ġhere":4531,"esota":4532,"encies":4533,"Ġpage":4534,"ĠUk":4535,"yt":4536,"55":4537,"Ġadj":4538,"ieuten":4539,"Olymp":4540,"adian":4541,"ĠCat":4542,"2011":4543,"vement":4544,"When":4545,"Ġraised":4546,"ĠBelg":4547,"ried":4548,"39":4549,"Ġtechnology":4550,"Ġmakes":4551,"Ġcommunities":4552,"atively":4553,"text":4554,"bourne":4555,"establ":4556,"Ġcollabor":4557,"thur":4558,"Ġmeeting":4559,"ĠSydney":4560,"aging":4561,"Ġdistinct":4562,"Ġnearby":4563,"Ġpath":4564,"ĠHighway":4565,"Ġheavy":4566,"ental":4567,"Ġforms":4568,"range":4569,"ava":4570,"Ġsurface":4571,"ĠFour":4572,"Ġhospital":4573,"mas":4574,"urrent":4575,"Ġdepart":4576,"ĠPost":4577,"ĠJoe":4578,"Ã¡n":4579,"ĠWall":4580,"Ġturned":4581,"ĠRay":4582,"Ġfort":4583,"Ġcrew":4584,"ĠAsh":4585,"Ġfinally":4586,"cean":4587,"Ġalways":4588,"1998":4589,"ĠKar":4590,"186":4591,"West":4592,"Ġdepartment":4593,"Ġ1948":4594,"ĠÅ":4595,"anguages":4596,"Ġver":4597,"mann":4598,"ĠIslands":4599,"Further":4600,"Ġlegisl":4601,"Ġprovides":4602,"ĠJackson":4603,"oses":4604,"ĠKong":4605,"ĠFar":4606,"Ġcarried":4607,"Ġ1959":4608,"Ġ1946":4609,"Ġcut":4610,"ĠPoland":4611,"Ġi":4612,"Ġsupported":4613,"Ġgovern":4614,"itage":4615,"Ġinteg":4616,"08":4617,"Ġrenamed":4618,"Ġcat":4619,"bec":4620,"ĠKenn":4621,"Ġfinancial":4622,"umed":4623,"vis":4624,"olis":4625,"ĠPhiladelphia":4626,"Ġ1956":4627,"usband":4628,"Ġplants":4629,"ĠRepublican":4630,"ĠEarth":4631,"sen":4632,"Ġtarg":4633,"Ġblock":4634,"HL":4635,"ja":4636,"erland":4637,"emetery":4638,"ĠJes":4639,"inistry":4640,"Ġcomposed":4641,"ĠGame":4642,"Ġdro":4643,"Ġ1942":4644,"ĠTam":4645,"06":4646,"ĠUl":4647,"49":4648,"ĠEnter":4649,"Ġcities":4650,"Ġconsists":4651,"ĠGh":4652,"yric":4653,"ibli":4654,"usc":4655,"Ġgreen":4656,"Ġincrease":4657,"attalion":4658,"ĠDemocratic":4659,"Ġarticle":4660,"ogue":4661,"gu":4662,"ĠGovernor":4663,"Ġ1958":4664,"vest":4665,"Ġmusicians":4666,"ĠVen":4667,"ĠAndrew":4668,"Ġpeak":4669,"Ġparish":4670,"ĠIndiana":4671,"Ġrequire":4672,"ocks":4673,"Ġcovered":4674,"ĠHead":4675,"Ġbackground":4676,"ĠAthlet":4677,"ĠPop":4678,"AC":4679,"Ġtheory":4680,"Ġ1943":4681,"Ġsucceed":4682,"Ġcann":4683,"Ġoperation":4684,"ĠMany":4685,"ĠKe":4686,"Ġpick":4687,"ensis":4688,"rovers":4689,"andon":4690,"Ð°":4691,"ĠMedal":4692,"ĠBaseball":4693,"Ġcomment":4694,"ĠBa":4695,"ouri":4696,"ĠIf":4697,"Ġmem":4698,"ione":4699,"ĠProt":4700,"Ġess":4701,"ronic":4702,"Ġpsych":4703,"Polit":4704,"Ġsource":4705,"ĠArm":4706,"1997":4707,"ĠBal":4708,"ĠViet":4709,"Ġemb":4710,"Ġdouble":4711,"Ġshoot":4712,"Ġtransferred":4713,"Ġextended":4714,"Ġfeaturing":4715,"inus":4716,"ously":4717,"ishes":4718,"ĠJeff":4719,"zech":4720,"ĠAz":4721,"Ġstories":4722,"ĠAnton":4723,"31":4724,"ĠMax":4725,"Ġpolicy":4726,"Ġfunction":4727,"ĠSom":4728,"99":4729,"ez":4730,"Ġ1957":4731,"Ġmarriage":4732,"Ġproposed":4733,"ĠAirport":4734,"Ġrecent":4735,"Don":4736,"ĠFed":4737,"ieutenant":4738,"Ġchall":4739,"imated":4740,"no":4741,"Ġcharg":4742,"ounts":4743,"Ġneighbor":4744,"ĠAlexander":4745,"05":4746,"stitu":4747,"ĠÂ£":4748,"Ġawards":4749,"Ġelectric":4750,"Ġinters":4751,"Ġpoor":4752,"worth":4753,"46":4754,"Ġcelebr":4755,"uing":4756,"ĠFinal":4757,"Ġresponse":4758,"Ġmight":4759,"Ġcapac":4760,"ologist":4761,"%)":4762,"ilton":4763,"Ġnearly":4764,"Ġupper":4765,"ĠSant":4766,"orning":4767,"Ġplans":4768,"ĠUnivers":4769,"Ġdiss":4770,"ĠBab":4771,"Ġprevent":4772,"ĠRod":4773,"mission":4774,"yer":4775,"lav":4776,"Ġstay":4777,"ĠDown":4778,"Ġborder":4779,"Ġproblems":4780,"background":4781,"osh":4782,"izabeth":4783,"ĠFI":4784,"ker":4785,"Ġoil":4786,"ĠPen":4787,"Ġdifficult":4788,"Austral":4789,"Ġobject":4790,"Ġdone":4791,"Dem":4792,"Ġdespite":4793,"eman":4794,"yo":4795,"rupt":4796,"ulpt":4797,"Ġnewspaper":4798,"Ġmanaged":4799,"orporated":4800,"ully":4801,"ancy":4802,"Ġ1955":4803,"ĠMike":4804,"ellig":4805,"ais":4806,"ĠSong":4807,"ĠRel":4808,"zy":4809,"uilding":4810,"Ġbring":4811,"yth":4812,"ĠBet":4813,"hens":4814,"Ġ1941":4815,"Ġpoliticians":4816,"ĠWinter":4817,"Ġfail":4818,"Ġ1947":4819,"Ġleave":4820,"ĠSupreme":4821,"ĠOtt":4822,"ĠCy":4823,"rif":4824,"ĠKen":4825,"Sw":4826,"Ġorigin":4827,"rison":4828,"Ġsilver":4829,"Ġ1952":4830,"Ġconditions":4831,"Ġdark":4832,"ĠPubl":4833,"ĠBishop":4834,"ĠLew":4835,"Ġresponsible":4836,"Ġprofessor":4837,"Ġcorn":4838,"Ġtemper":4839,"Ġdeep":4840,"Ġprimarily":4841,"water":4842,"1980":4843,"itude":4844,"ĠLight":4845,"aylor":4846,"187":4847,"wide":4848,"ĠBell":4849,"Ġgun":4850,"obile":4851,"ĠRog":4852,"ĠBerlin":4853,"ĠGuard":4854,"ĠMuslim":4855,"Ġalleg":4856,"oto":4857,"Ġhar":4858,"ĠPrize":4859,"Ġhonor":4860,"Ġancient":4861,"09":4862,"His":4863,"Ġchem":4864,"Ġnovels":4865,"Olympic":4866,"Ġserve":4867,"light":4868,"ĠForest":4869,"orado":4870,"Ġagric":4871,"ĠBridge":4872,"1996":4873,"ba":4874,"Ġregional":4875,"ounds":4876,"Pr":4877,"ĠToronto":4878,"Ġresidents":4879,"olitan":4880,"ĠBang":4881,"World":4882,"ims":4883,"ĠEp":4884,"Ġdeliver":4885,"44":4886,"akh":4887,"ĠFer":4888,"Ġmountain":4889,"ilation":4890,"Ġbecomes":4891,"Ġvoice":4892,"Ġlives":4893,"Ġissued":4894,"Ġvon":4895,"Ġdead":4896,"Ġmechan":4897,"Ġyouth":4898,"ĠEgypt":4899,"Ed":4900,"Ġenough":4901,"ĠTod":4902,"Ġdyn":4903,"igade":4904,"etherlands":4905,"ĠVill":4906,"icted":4907,"Ġexperience":4908,"Ġconstructed":4909,"Ġsoldiers":4910,"ĠAk":4911,"Ġindividuals":4912,"Ġsecondary":4913,"Ġmedalists":4914,"ĠLim":4915,"2012":4916,"Ġbelong":4917,"inson":4918,"ĠMov":4919,"ĠChap":4920,"ambig":4921,"Ac":4922,"ĠSher":4923,"32":4924,"ĠAnt":4925,"writer":4926,"Ġtold":4927,"anth":4928,"ĠNY":4929,"ĠStadium":4930,"Ġarrived":4931,"German":4932,"Ġ1939":4933,"ĠThree":4934,"rie":4935,"Ġnumbers":4936,"ĠCorporation":4937,"resh":4938,"Ġmanagers":4939,"Ġdirectly":4940,"undred":4941,"Ġsolo":4942,"arry":4943,"Ġcricket":4944,"ault":4945,"Ġsociety":4946,"ĠMu":4947,"ĠCharl":4948,"Taxonomy":4949,"ĠJean":4950,"ĠCastle":4951,"Ġfamilies":4952,"Ġhighway":4953,"Ġhusband":4954,"Ġclear":4955,"owers":4956,"ĠMinnesota":4957,"wick":4958,"ĠSanta":4959,"ĠTok":4960,"Ġface":4961,"quarters":4962,"Ġcard":4963,"ĠProgram":4964,"Ġtitles":4965,"ĠWilson":4966,"alm":4967,"Ġwords":4968,"ID":4969,"ĠBol":4970,"amples":4971,"Ġsched":4972,"Ġathlet":4973,"ĠAsian":4974,"Year":4975,"ĠHospital":4976,"mod":4977,"oration":4978,"Ġunivers":4979,"ĠSerb":4980,"Ġfifth":4981,"Ð¾":4982,"58":4983,"Ġproducts":4984,"cles":4985,"Ġkind":4986,"ĠRaj":4987,"raq":4988,"erc":4989,"MS":4990,"Ġ1954":4991,"Ġsal":4992,"Ġdiscovered":4993,"Ġcause":4994,"Ġcateg":4995,"ĠSteve":4996,"Pop":4997,"Ġonline":4998,"ĠCa":4999,"ĠSev":5000,"lyn":5001,"ambiguation":5002,"ube":5003,"ads":5004,"Ġnature":5005,"irds":5006,"Ġinfluence":5007,"Ġconsider":5008,"ĠRome":5009,"Ġasked":5010,"regon":5011,"Ġrugby":5012,"ĠCop":5013,"Ġwhole":5014,"Ġpp":5015,"Ġcampus":5016,"Ġchap":5017,"ĠHind":5018,"Ġdomin":5019,"Ġlikely":5020,"University":5021,"Ġfacilities":5022,"Ġwinner":5023,"Ġdrug":5024,"1995":5025,"iced":5026,"VD":5027,"Ġmentioned":5028,"verse":5029,"ĠFair":5030,"Ġchannel":5031,"rec":5032,"Ġmotor":5033,"ĠJustice":5034,"ocated":5035,"ĠBudd":5036,"ging":5037,"Ġexecutive":5038,"ĠLady":5039,"Ġbenef":5040,"Personal":5041,"Ġfriends":5042,"ĠBoth":5043,"Ġlevels":5044,"Ġnotable":5045,"Ġdivided":5046,"Ġweap":5047,"ĠKorea":5048,"Will":5049,"formed":5050,"vey":5051,"amin":5052,"Ġcomputer":5053,"Ġconcept":5054,"Ġgraduated":5055,"ĠDevelopment":5056,"Ne":5057,"ĠBeach":5058,"Gr":5059,"anga":5060,"ĠMir":5061,"Be":5062,"Ġpartn":5063,"01":5064,"Ġnecess":5065,"Ġcultural":5066,"aped":5067,"ĠMountain":5068,"Ġelements":5069,"Ġconfl":5070,"onym":5071,"ydro":5072,"vin":5073,"Ġang":5074,"aska":5075,"reng":5076,"ns":5077,"Ġwinners":5078,"real":5079,"ĠCommon":5080,"ĠQueens":5081,"Ġamb":5082,"Ġscene":5083,"ĠLi":5084,"ĠCas":5085,"Ġcomes":5086,"orship":5087,"Ġcoaches":5088,"Ġ1951":5089,"Ġpromoted":5090,"Ġpaper":5091,"Ġprogress":5092,"rolled":5093,"ĠSquadron":5094,"istance":5095,"Ġaffili":5096,"Ġera":5097,"yard":5098,"Ġdrums":5099,"wing":5100,"Ġuns":5101,"Ġ@":5102,"Ġfellow":5103,"ĠDaniel":5104,"Ġbirds":5105,"ĠAnth":5106,"ĠElizabeth":5107,"ĠRepresentatives":5108,"disambiguation":5109,"inity":5110,"Ġthr":5111,"Ġ1953":5112,"itter":5113,"aud":5114,"Ġcontinues":5115,"ĠPremier":5116,"Ġpurchased":5117,"56":5118,"Biography":5119,"Ġheart":5120,"Ġult":5121,"Ġ1949":5122,"Ġincreasing":5123,"Ġnuc":5124,"icine":5125,"owa":5126,"Nov":5127,"ules":5128,"ĠDuke":5129,"ĠSpe":5130,"ĠCommunity":5131,"amber":5132,"Ġinitial":5133,"Canadian":5134,"Ġleaves":5135,"2013":5136,"Ġassigned":5137,"alo":5138,"According":5139,"ĠHong":5140,"ĠBad":5141,"Ġappl":5142,"Ġcontinue":5143,"Ġsources":5144,"Ġremoved":5145,"perial":5146,"One":5147,"Ġlanguages":5148,"Ġcapacity":5149,"Ġalongside":5150,"ĠPass":5151,"itled":5152,"ĠNetherlands":5153,"ĠDer":5154,"ĠFire":5155,"Ġtouch":5156,"astic":5157,"ĠSenate":5158,"aks":5159,"Ġtree":5160,"ennessee":5161,"ĠLo":5162,"ĠKir":5163,"Ġautom":5164,"Ġunknown":5165,"Ġâ":5166,"Ġwanted":5167,"95":5168,"Ġdisplay":5169,"Ġsmaller":5170,"Ġdemon":5171,"Ġworkers":5172,"Ġrule":5173,"lers":5174,"andy":5175,"ependence":5176,"ĠHay":5177,"vanced":5178,"ictional":5179,"Ġreason":5180,"Ġ36":5181,"get":5182,"ĠAut":5183,"enge":5184,"lem":5185,"Ġfish":5186,"athan":5187,"Ã£":5188,"Ġofficially":5189,"Ġequipment":5190,"EC":5191,"Ġbranch":5192,"ĠPower":5193,"ĠFame":5194,"ĠSecretary":5195,"Ġcars":5196,"Ġconducted":5197,"fn":5198,"Ġmetal":5199,"ropolitan":5200,"Ġadministration":5201,"oud":5202,"Ġacademic":5203,"1994":5204,"Ġhighly":5205,"Ġdedicated":5206,"2014":5207,"ĠWork":5208,"Ġvan":5209,"Ġ80":5210,"ternet":5211,"ĠAtt":5212,"Ġprogramming":5213,"ĠNFL":5214,"ĠChris":5215,"Ġblue":5216,"Ġconver":5217,"ĠWel":5218,"Ġwhether":5219,"Ġinside":5220,"Ġshare":5221,"Ġfunct":5222,"500":5223,"Ġstra":5224,"ÅĤ":5225,"SP":5226,"Ġliterature":5227,"Ġquickly":5228,"Ġut":5229,"Ġdestroyed":5230,"Ġrules":5231,"ographic":5232,"aga":5233,"Ġolder":5234,"izes":5235,"ibliography":5236,"International":5237,"oren":5238,"ributed":5239,"ĠPakistan":5240,"ĠFederal":5241,"Ġeffects":5242,"ori":5243,"ĠBrother":5244,"ĠAdd":5245,"Ġrat":5246,"ecting":5247,"ĠRevolution":5248,"ĠNations":5249,"ĠMedia":5250,"Ġnation":5251,"Ġgre":5252,"ifying":5253,"ables":5254,"Ġstore":5255,"ĠRegion":5256,"respond":5257,"Ġhabitat":5258,"Ġvalue":5259,"Ġimmediately":5260,"Ġfollows":5261,"Ġinstitutions":5262,"Ġorg":5263,"Ġbeat":5264,"Ġprojects":5265,"book":5266,"thing":5267,"Ġour":5268,"Ġbegins":5269,"Ġsport":5270,"Ġpiano":5271,"And":5272,"ĠLes":5273,"ĠPit":5274,"ounded":5275,"omer":5276,"ania":5277,"Ġenem":5278,"ĠSwedish":5279,"Football":5280,"ĠClark":5281,"ĠNetwork":5282,"Ġscoring":5283,"Ġgas":5284,"tra":5285,"arp":5286,"By":5287,"ĠLt":5288,"Ġletter":5289,"ui":5290,"SC":5291,"ĠEs":5292,"edom":5293,"Ġcommonly":5294,"ĠCambridge":5295,"Ġ500":5296,"ighth":5297,"ĠRem":5298,"ressed":5299,"ibb":5300,"Ġresident":5301,"Ġrevealed":5302,"oles":5303,"Ġsites":5304,"Ġability":5305,"aki":5306,"mad":5307,"imal":5308,"ami":5309,"Ġ45":5310,"Ġdirection":5311,"enes":5312,"gar":5313,"Ġleaders":5314,"Ġreach":5315,"El":5316,"Ġsemi":5317,"ĠRegister":5318,"Ġengineer":5319,"ĠOregon":5320,"Ġoperating":5321,"41":5322,"chers":5323,"Ġillust":5324,"Ġcontrovers":5325,"Ġcompeted":5326,"Ġattend":5327,"Ġpan":5328,"ĠHy":5329,"uv":5330,"Geography":5331,"Ġflight":5332,"Ġproduce":5333,"Ġstreet":5334,"Ġplanned":5335,"Ġprominent":5336,"former":5337,"rence":5338,"part":5339,"ĠCirc":5340,"ĠLive":5341,"weg":5342,"Ġfiction":5343,"ĠId":5344,"onsin":5345,"Ġserves":5346,"sex":5347,"ĠJunior":5348,"vcard":5349,"cest":5350,"Ġelections":5351,"42":5352,"Ġrap":5353,"arent":5354,"Ġlay":5355,"ĠGolden":5356,"Ġlaws":5357,"weight":5358,"agh":5359,"ĠAff":5360,"ĠHuman":5361,"Ġvote":5362,"ĠKansas":5363,"Ġtypes":5364,"igen":5365,"isconsin":5366,"Ã¸":5367,"Ġchampion":5368,"ĠJon":5369,"Ġbig":5370,"ĠBooks":5371,"ĠTechnology":5372,"Ġbasis":5373,"Ġlyric":5374,"lementary":5375,"esh":5376,"Ġ32":5377,"Ġpra":5378,"Ġwalk":5379,"MA":5380,"ĠBarb":5381,"Notable":5382,"Ġterritory":5383,"ĠMun":5384,"Ġyet":5385,"Ġsquad":5386,"ĠTaylor":5387,"98":5388,"Ġperman":5389,"Ġsecurity":5390,"Ġprote":5391,"Ġgrowth":5392,"ĠBu":5393,"Sources":5394,"Ġpurs":5395,"Ġamount":5396,"Ġmoving":5397,"Ġbron":5398,"achel":5399,"anna":5400,"Ġretire":5401,"Ġparties":5402,"Ġsettlement":5403,"03":5404,"ĠRom":5405,"ansion":5406,"Ġhosted":5407,"bro":5408,"Ġrecover":5409,"isted":5410,"Ġtal":5411,"gg":5412,"ĠFollowing":5413,"Ġintended":5414,"',":5415,"oln":5416,"ova":5417,"Ġestate":5418,"1970":5419,"57":5420,"Ġsaying":5421,"Ġfirm":5422,"ĠEst":5423,"Ġdance":5424,"Ġdistricts":5425,"1992":5426,"Ġopportun":5427,"ĠSte":5428,"Ġsculpt":5429,"Ġfeed":5430,"fficient":5431,"Ġlies":5432,"Ġgrew":5433,"Ġtypically":5434,"Ġcitizens":5435,"ĠBrook":5436,"Ġquestion":5437,"Ġtreatment":5438,"outs":5439,"Ġbehav":5440,"Ġversions":5441,"ĠBall":5442,"Ġowner":5443,"erto":5444,"Ġactivity":5445,"ader":5446,"Ġtable":5447,"Ġrepe":5448,"Ġcharge":5449,"rical":5450,"2015":5451,"ĠDespite":5452,"iated":5453,"Ġcomposer":5454,"Co":5455,"ĠIraq":5456,"Ġoffers":5457,"Ġcombined":5458,"Family":5459,"ĠTennessee":5460,"Ġordered":5461,"ĠJews":5462,"Ġ+":5463,"Ġidea":5464,"odies":5465,"Ãº":5466,"Ġcolor":5467,"Ġvillages":5468,"ĠPers":5469,"Ġsymb":5470,"Ð¸":5471,"orph":5472,"Ġformerly":5473,"ĠCountry":5474,"Ġmixed":5475,"opher":5476,"1993":5477,"rig":5478,"rizona":5479,"Ġblood":5480,"04":5481,"Ġdistribution":5482,"ĠHal":5483,"ĠTony":5484,"Ġsoftware":5485,"ĠSpring":5486,"ĠBalt":5487,"ĠLy":5488,"ĠFox":5489,"ĠMaryland":5490,"ĠSus":5491,"ĠSweden":5492,"Death":5493,"redited":5494,"ĠCE":5495,"Ġcandidate":5496,"Ġrecently":5497,"Ġ1936":5498,"ĠEarl":5499,"Ġdisestabl":5500,"ĠColorado":5501,"South":5502,"ĠKel":5503,"LA":5504,"itness":5505,"enna":5506,"Ġlif":5507,"rin":5508,"aints":5509,"ixed":5510,"ĠStudies":5511,"hemat":5512,"02":5513,"ĠDavis":5514,"96":5515,"ĠMarsh":5516,"adesh":5517,"etroit":5518,"Ġsuffered":5519,"zo":5520,"ĠRang":5521,"sky":5522,"lah":5523,"Ġbad":5524,"portation":5525,"ibly":5526,"comp":5527,"Ġwithd":5528,"greg":5529,"Ġscholars":5530,"onents":5531,"Ġrecognized":5532,"Ġmax":5533,"pper":5534,"orney":5535,"Ġwa":5536,"ĠRet":5537,"itional":5538,"Ġyards":5539,"Ġrare":5540,"eather":5541,"bell":5542,"Ġhop":5543,"Ġboy":5544,"igrants":5545,"Ġgiving":5546,"ĠKorean":5547,"eller":5548,"ĠConf":5549,"Ġpotential":5550,"ĠMarc":5551,"Ġinhabit":5552,"kin":5553,"iary":5554,"No":5555,"ĠTa":5556,"Ġurban":5557,"Ġwing":5558,"ĠOrgan":5559,"Ġarms":5560,"ĠMaster":5561,"ĠUt":5562,"oli":5563,"ĠArthur":5564,"OS":5565,"ĠMelbourne":5566,"ĠWalk":5567,"ĠMissouri":5568,"Ġnortheast":5569,"Ġforward":5570,"Ġtrial":5571,"Ġdisease":5572,"inner":5573,"Ġefforts":5574,"Ġneeded":5575,"88":5576,"Art":5577,"Ġtarget":5578,"Ġfeel":5579,"ĠAlso":5580,"Ġprin":5581,"Ġstreng":5582,"Ġimplement":5583,"ression":5584,"ĠKentucky":5585,"hedral":5586,"Ġfigure":5587,"ĠCzech":5588,"ivity":5589,"edia":5590,"We":5591,"ĠColon":5592,"died":5593,"olid":5594,"iants":5595,"Ġcounter":5596,"asty":5597,"ĠGreg":5598,"orge":5599,"stic":5600,"iral":5601,"ingham":5602,"ĠReview":5603,"ĠMemorial":5604,"ito":5605,"Ä±":5606,"Ġprobably":5607,"unte":5608,"Ġslow":5609,"43":5610,"ovak":5611,"ĠAlf":5612,"ĠCaptain":5613,"present":5614,"ĠMaria":5615,"Ġtraffic":5616,"ĠPrim":5617,"gn":5618,"ĠStephen":5619,"Ġ1938":5620,"ogs":5621,"ervative":5622,"iders":5623,"Ġproblem":5624,"Ġvocal":5625,"ello":5626,"SR":5627,"Ġadopted":5628,"ĠDiv":5629,"ĠLewis":5630,"ĠWisconsin":5631,"Ã¼r":5632,"ĠEP":5633,"ĠIndust":5634,"97":5635,"Ġmodels":5636,"Ġtrains":5637,"Ġcaptured":5638,"Res":5639,"aret":5640,"ĠProfessor":5641,"ĠProject":5642,"Ġtheatre":5643,"aine":5644,"Back":5645,"yal":5646,"Ġinstrument":5647,"uction":5648,"aro":5649,"mouth":5650,"Ġwins":5651,"Ġagreed":5652,"Ã£o":5653,"French":5654,"Ġfavor":5655,"ĠAtlantic":5656,"sey":5657,"Ġtells":5658,"Ġhor":5659,"ething":5660,"ĠFamily":5661,"Ġcontemporary":5662,"Ġquality":5663,"Ġnewly":5664,"ĠSab":5665,"ĠArmen":5666,"Ġexpanded":5667,"oster":5668,"ĠBusiness":5669,"Ġstadium":5670,"ening":5671,"ampton":5672,"TA":5673,"1991":5674,"pson":5675,"Japan":5676,"Ġrespectively":5677,"Ġfounder":5678,"etting":5679,"ika":5680,"mph":5681,"La":5682,"100":5683,"Ġdemonstr":5684,"Ġasp":5685,"Ġ70":5686,"Ġpresence":5687,"Ġphysical":5688,"Ġdigital":5689,"ĠHockey":5690,"itzerland":5691,"which":5692,"da":5693,"Ġsituated":5694,"ĠAh":5695,"ĠPrime":5696,"Ġbatt":5697,"urches":5698,"Ġinjury":5699,"Ġconstitu":5700,"ji":5701,"law":5702,"Ġcoming":5703,"Ġfaculty":5704,"acc":5705,"rell":5706,"Ġindustrial":5707,"ĠHo":5708,"Ġdistance":5709,"apore":5710,"uls":5711,"Ġspring":5712,"Ġspons":5713,"Ġrecon":5714,"Ġyellow":5715,"Ġfell":5716,"Ġsens":5717,"gers":5718,"Ġthink":5719,"Ġlargely":5720,"Ġactually":5721,"Ġtwice":5722,"Ġwidely":5723,"kes":5724,"May":5725,"2016":5726,"ĠSciences":5727,"incial":5728,"ĠMalays":5729,"bums":5730,"Ġfloor":5731,"76":5732,"ĠRoss":5733,"ĠBi":5734,"ois":5735,"Ġinterp":5736,"ĠÎ":5737,"ĠSimon":5738,"Äį":5739,"Ġexecut":5740,"Ġabandon":5741,"ĠRoy":5742,"Ġbronze":5743,"Ġenter":5744,"Ġregist":5745,"western":5746,"Fran":5747,"omot":5748,"ĠConc":5749,"ĠBat":5750,"Ġparticipated":5751,"CD":5752,"Awards":5753,";\"":5754,"bit":5755,"Australian":5756,"Ġhundred":5757,"Ġprec":5758,"room":5759,"Ġarts":5760,"Ġarchitecture":5761,"ĠBrad":5762,"Ġcorrespond":5763,"Ġwild":5764,"Ġaccepted":5765,"ĠLind":5766,"En":5767,"ĠHou":5768,"iate":5769,"ĠDam":5770,"Ġstone":5771,"ĠMilitary":5772,"ĠHur":5773,"Disc":5774,"Ġroles":5775,"Exp":5776,"Ġcaptain":5777,"cluding":5778,"acement":5779,"Ġsplit":5780,"Gu":5781,"olved":5782,"Ðµ":5783,"%.":5784,"put":5785,"Ġ1918":5786,"Ġteacher":5787,"Ġadapt":5788,"Hon":5789,"Ġcerem":5790,"Ġengineering":5791,"Ã©e":5792,"59":5793,"erick":5794,"osen":5795,"Ġclassical":5796,"Ġconcent":5797,"Ġethn":5798,"ĠNaz":5799,"ĠCommand":5800,"elligence":5801,"86":5802,"Ġ1937":5803,"Ġmiles":5804,"ionally":5805,"ĠSav":5806,"Ġvs":5807,"Ġchairman":5808,"Ġsurrounding":5809,"Ġsecret":5810,"incoln":5811,"Ġcrime":5812,"Ġtaught":5813,"Ġagreement":5814,"ancing":5815,"Ġestimated":5816,"aug":5817,"Ġgained":5818,"Ġcoin":5819,"Ġdesignated":5820,"Ġanalysis":5821,"Ġsector":5822,"Ġmaster":5823,"ivals":5824,"ĠWat":5825,"Ġracing":5826,"ealth":5827,"Ġtherefore":5828,")\"":5829,"Ġprep":5830,"ĠChristmas":5831,"estic":5832,"usion":5833,"mes":5834,"Ġpict":5835,"lan":5836,"Ġperformances":5837,"Ã¢":5838,"Ġjoint":5839,"Ġdeclared":5840,"Songs":5841,"Ġapproach":5842,"General":5843,"ĠMarine":5844,"Ġdocumentary":5845,"ĠMarg":5846,"Ġgoes":5847,"Ġshop":5848,"Ġfast":5849,"à¤":5850,"bed":5851,"ãĥ":5852,"Ġpeace":5853,"Ġresulted":5854,"Ġpal":5855,"met":5856,"Ġsubs":5857,"AF":5858,"Ġtitled":5859,"Ġlosing":5860,"Ġgranted":5861,"ĠGreece":5862,"works":5863,"ĠPolbot":5864,"lahoma":5865,"Ġsearch":5866,"uther":5867,"ĠHart":5868,"Ġairport":5869,"Ġcompared":5870,"ectic":5871,"aceae":5872,"urer":5873,"iling":5874,"cow":5875,"restling":5876,"ĠWars":5877,"ĠMinistry":5878,"Ġreduced":5879,"Ġgives":5880,"ĠInfantry":5881,"Ġclasses":5882,"osis":5883,"Television":5884,"pool":5885,"yes":5886,"Ġfacility":5887,"Par":5888,"Ġsales":5889,"ĠStock":5890,"ĠEmperor":5891,"also":5892,"Ġportion":5893,"Ġ90":5894,"Ġattention":5895,"Ġorganized":5896,"ĠFle":5897,"ĠFrancis":5898,"ĠAdminist":5899,"ĠPhilippines":5900,"ĠTrust":5901,"ĠTal":5902,"52":5903,"ooth":5904,"ials":5905,"ER":5906,"Ġcode":5907,"illery":5908,"Ġcells":5909,"Ġeducated":5910,"Ġconcert":5911,"ĠNorway":5912,"51":5913,"Ġ1935":5914,"Ġminister":5915,"style":5916,"ĠYour":5917,"ĠLeon":5918,"Ġvess":5919,"iller":5920,"anton":5921,"ĠHan":5922,"1989":5923,"ĠVietnam":5924,"Ġhistoric":5925,"ĠRad":5926,"vard":5927,"Ġrural":5928,"ĠAnother":5929,"Ġcarri":5930,"Ġstre":5931,"ĠCemetery":5932,"Ġir":5933,"Ġtalk":5934,"eder":5935,"ĠDun":5936,"Ġspirit":5937,"mitted":5938,"Bibliography":5939,"Ġsevent":5940,"66":5941,"wegian":5942,"Ġslight":5943,"abama":5944,"ateur":5945,"Ġpattern":5946,"ĠAbb":5947,"tainment":5948,"Ġspread":5949,"ĠPlaces":5950,"Ġresulting":5951,"ĠArea":5952,"Ġpositions":5953,"Ġcolumn":5954,"ĠIndones":5955,"Ġdoub":5956,"Ġdraft":5957,"ĠKal":5958,"Ġbott":5959,"Ġcontent":5960,"Ġrain":5961,"osophy":5962,"Ġsoutheast":5963,"Ġpack":5964,"Ital":5965,"54":5966,"uese":5967,"ĠMunicip":5968,"Ġsays":5969,"Ġhousehold":5970,"ĠSwitzerland":5971,"Ġsportspeople":5972,"Ġkept":5973,"uous":5974,"ĠWrit":5975,"Ġcharts":5976,"ĠForm":5977,"keep":5978,"irmed":5979,"ĠColomb":5980,"Ġidentified":5981,"uildings":5982,"Def":5983,"Ġ38":5984,"ĠEngineering":5985,"ĠArizona":5986,"Ġheav":5987,"Ġstars":5988,"Ġcancer":5989,"Ġtrue":5990,"umes":5991,"Ġflag":5992,"wich":5993,"kh":5994,"ĠWeek":5995,"ĠReal":5996,"aph":5997,"Ġ37":5998,"Ġcontest":5999,"enny":6000,"onent":6001,"ĠRen":6002,"Ġoccurred":6003,"2017":6004,"ĠHoly":6005,"Ġnotes":6006,"ĠHarry":6007,"SS":6008,"Ġpositive":6009,"orders":6010,"Ġetc":6011,"Ġlabor":6012,"1988":6013,"tr":6014,"ĠCur":6015,"Ġstrugg":6016,"53":6017,"Ġx":6018,"Ġranked":6019,"ĠNic":6020,"Ġacting":6021,"Ġconnected":6022,"inch":6023,"Ġburn":6024,"ĠBattalion":6025,"ĠUs":6026,"Ġproviding":6027,"ĠBurn":6028,"IA":6029,"ordon":6030,"ga":6031,"ublin":6032,"Ġ33":6033,"Ġdamage":6034,"agan":6035,"spec":6036,"Ġbat":6037,"ĠHard":6038,"Ġrom":6039,"ÃŃa":6040,"Ġcam":6041,"ĠCO":6042,"ordin":6043,"Ġburied":6044,"Ġsumm":6045,"iat":6046,"ĠTurkey":6047,"life":6048,"Ġpasses":6049,"Br":6050,"iminal":6051,"anning":6052,"Ġstream":6053,"ĠCra":6054,"Ġfeet":6055,"Ġgraph":6056,"Ġmarked":6057,"ĠPier":6058,"ĠMiller":6059,"Ġyounger":6060,"ecause":6061,"ashion":6062,"Ġsuppl":6063,"Dav":6064,"olished":6065,"raine":6066,"Ġregions":6067,"Ġ1928":6068,"Ġencour":6069,"Ġwall":6070,"William":6071,"eces":6072,"Ġrecomm":6073,"Ġcouple":6074,"imore":6075,"Ġpressure":6076,"ĠGi":6077,"ĠSem":6078,"Ġ1919":6079,"Ġgreater":6080,"eline":6081,"Ġaccident":6082,"Ġbacking":6083,"Ġjourn":6084,"Ġmess":6085,"Ġserious":6086,"Ġvehicles":6087,"ĠColl":6088,"Ġjournalist":6089,"ĠBillboard":6090,"ician":6091,"con":6092,"Ġofficials":6093,"Ġvolume":6094,"asters":6095,"Ġsuit":6096,"1987":6097,"ecticut":6098,"Ġelim":6099,"UK":6100,"ĠTurn":6101,"Ġrac":6102,"ifications":6103,"Ġfair":6104,"IC":6105,"elle":6106,"ĠVi":6107,"Ġknowledge":6108,"Rail":6109,"Ġsexual":6110,"ĠTest":6111,"ĠPhilip":6112,"Ġswim":6113,"ĠChannel":6114,"ĠKim":6115,"ĠEth":6116,"pur":6117,"Ġtrust":6118,"Ġtemple":6119,"hips":6120,"Cast":6121,"ĠChampions":6122,"anes":6123,"Ġcreation":6124,"Ġroll":6125,"ĠQuebec":6126,"urd":6127,"1984":6128,"ĠDiego":6129,"ĠGil":6130,"Ġlibrary":6131,"'.":6132,"Ġreports":6133,"ĠShort":6134,"Ġlett":6135,"Ġhousing":6136,"Ġfestival":6137,"erald":6138,"Ġattacks":6139,"Ġbrown":6140,"Ġcannot":6141,"orf":6142,"Ġhall":6143,"Ġplayoff":6144,"Ġagent":6145,"ĠManchester":6146,"key":6147,"Ġtheme":6148,"ĠAustria":6149,"Ġhands":6150,"ĠHor":6151,"Ġallows":6152,"ĠMic":6153,"Ġspot":6154,"ĠMedical":6155,"ĠHamilton":6156,"ffbb":6157,"uh":6158,"enez":6159,"Ġimpact":6160,"ĠSound":6161,"ĠSix":6162,"Ġadministrative":6163,"can":6164,"Ġtrees":6165,"acts":6166,"Ġcastle":6167,"ĠSR":6168,"Ġfully":6169,"Ġhorse":6170,"iÃ³n":6171,"bs":6172,"tsburgh":6173,"Ġclaims":6174,"Å«":6175,"uccess":6176,"asion":6177,"Ġsucceeded":6178,"1986":6179,"Ġ1914":6180,"ĠPolit":6181,"ĠFM":6182,"Ġtwenty":6183,"iques":6184,"Ġ1929":6185,"Ġfinish":6186,"Ġcart":6187,"Ġtower":6188,"iplom":6189,"ĠBos":6190,"Ġlake":6191,"ĠJer":6192,"89":6193,"ĠFederation":6194,"Ġsafety":6195,"ĠAnderson":6196,"ĠDVD":6197,"ttp":6198,"ĠTen":6199,"Born":6200,"under":6201,"Ġemployed":6202,"Ġneighborhood":6203,"econd":6204,"ester":6205,"ĠSwiss":6206,"ĠPu":6207,"ĠBrian":6208,"Äĥ":6209,"claim":6210,"bach":6211,"iami":6212,"Ġleadership":6213,"appen":6214,"aver":6215,"ĠHeart":6216,"ques":6217,"Ġrestaur":6218,"Ġoldest":6219,"Ġtropical":6220,"miss":6221,"Ġ...":6222,"Ġtim":6223,"www":6224,"Ġcoal":6225,"Ġlyrics":6226,"INE":6227,"Ġthous":6228,"allery":6229,"evin":6230,"ulate":6231,"ĠSoc":6232,"Ġauthorities":6233,"1983":6234,"Ġloan":6235,"Ġgovernor":6236,"Ġweight":6237,"Ġinhabitants":6238,"leveland":6239,"ĠHu":6240,"ĠFord":6241,"iab":6242,"Ġmill":6243,"Ġanimals":6244,"Ġrow":6245,"1985":6246,"dale":6247,"Ġpolitics":6248,"Ġnet":6249,"Ġgrowing":6250,"Ġcontact":6251,"ĠIowa":6252,"organ":6253,"77":6254,"Ġcompletely":6255,"Ġ1933":6256,"Ġpair":6257,"Ġce":6258,"ĠMas":6259,"Ġgirls":6260,"oes":6261,"ĠDetroit":6262,"rate":6263,"ĠTai":6264,"igration":6265,"Ġopera":6266,"Ġcommander":6267,"ĠArgentina":6268,"Ġpaid":6269,"ĠAlabama":6270,"ĠMexican":6271,"ĠMoscow":6272,"Ġeas":6273,"ĠOak":6274,"rees":6275,"inth":6276,"Ġexpected":6277,"Ġends":6278,"Ġformation":6279,"Ġfans":6280,"Ġdial":6281,"Ġunique":6282,"Ġ1932":6283,"ĠBack":6284,"vo":6285,"ĠNap":6286,"Ġsupply":6287,"rum":6288,"unch":6289,"Ġreference":6290,"Ġpurpose":6291,"ĠSunday":6292,"ĠLincoln":6293,"ĠBowl":6294,"ĠSingapore":6295,"ogen":6296,"Ġbow":6297,"Ġreturning":6298,"season":6299,"aron":6300,"Ġcombat":6301,"rator":6302,"Ġextra":6303,"ĠPhill":6304,"Ġconflict":6305,"2018":6306,"Ġcritical":6307,"Ġ1934":6308,"lywood":6309,"Ġreceive":6310,"Ġfighting":6311,"leased":6312,"Ġheadquarters":6313,"Rep":6314,"FM":6315,"iang":6316,"agu":6317,"ipe":6318,"ĠBon":6319,"Ġsimply":6320,"ĠConnecticut":6321,"Ġtried":6322,"Ġmaintain":6323,"Ġmeasure":6324,"Ġ1912":6325,"irty":6326,"ĠEntertainment":6327,"Ġ1924":6328,"ĠTs":6329,"Ġnominated":6330,"ban":6331,"Ġpainter":6332,"End":6333,"ĠLev":6334,"ĠTokyo":6335,"PS":6336,"Ġprincipal":6337,"Dec":6338,"Christ":6339,"Ġbrothers":6340,"Ġmut":6341,"Ġallowing":6342,"ĠKhan":6343,"Ġenj":6344,"Ġreform":6345,"Ġcondition":6346,"Act":6347,"Ġbought":6348,"IT":6349,"Ġsettled":6350,"Bo":6351,"Ġconference":6352,"Ġsides":6353,"Ġfelt":6354,"Ġmusician":6355,"ĠTig":6356,"Ġeffort":6357,"1960":6358,"Ġadult":6359,"ĠHonor":6360,"bra":6361,"oured":6362,"Ġexperiment":6363,"Ġcompilation":6364,"Ġpromotion":6365,"ĠTemple":6366,"apolis":6367,"ĠFree":6368,"Ġteaching":6369,"Ġmunicipalities":6370,"Expatriate":6371,"wealth":6372,"oven":6373,"ĠOklahoma":6374,"erved":6375,"Ġexisting":6376,"GB":6377,"aling":6378,"Ġthings":6379,"Ġhy":6380,"ĠStory":6381,"ĠDesign":6382,"Ġretirement":6383,"glas":6384,"ymn":6385,"uled":6386,"Ġimage":6387,"Ġcycl":6388,"iot":6389,"oen":6390,"ippi":6391,"ante":6392,"ĠChile":6393,"zen":6394,"Ġaired":6395,"Euro":6396,"Ġsuggested":6397,"ĠRon":6398,"elve":6399,"roup":6400,"AM":6401,"Military":6402,"ĠIV":6403,"aly":6404,"ĠIr":6405,"ĠOrchestra":6406,"Ġvehicle":6407,"Ġfolk":6408,"ĠĠĠ":6409,"Ġ1931":6410,"Ġexpansion":6411,"Ġ34":6412,"ĠForces":6413,"2019":6414,"Ġ1900":6415,"from":6416,"odox":6417,"ĠMember":6418,"Ġportray":6419,"ĠOcean":6420,"ĠOd":6421,"ĠDream":6422,"Ġsingers":6423,"1979":6424,"Ġpet":6425,"Ġ1917":6426,"Ġsons":6427,"Sing":6428,"ĠNev":6429,"Ġcert":6430,"unter":6431,"ĠManagement":6432,"Ġshowed":6433,"ĠPoint":6434,"Ġsurn":6435,"Ġvisit":6436,"Ġonto":6437,"ĠOt":6438,"ĠWolf":6439,"ĠGallery":6440,"Ġfigures":6441,"ĠBrigade":6442,"1982":6443,"Ġreviews":6444,"78":6445,"ĠTy":6446,"ST":6447,"Former":6448,"Ġstarring":6449,"cluded":6450,"isa":6451,"Ġcovers":6452,"leep":6453,"Ġliber":6454,"inguished":6455,"North":6456,"iny":6457,"Reg":6458,"Ġvalley":6459,"ĠSenior":6460,"Ġrelatively":6461,"Ġcab":6462,"ĠMagazine":6463,"Ġprint":6464,"Ġforests":6465,"Ġrang":6466,"Ġpublication":6467,"achers":6468,"net":6469,"esign":6470,"Ġraces":6471,"ĠOffic":6472,"iley":6473,"atab":6474,"ĠZh":6475,"ĠWhit":6476,"Ġmunicipal":6477,"ĠDisc":6478,"urance":6479,"ĠLike":6480,"imens":6481,"ĠEric":6482,"PA":6483,"Ġconverted":6484,"Ġ49":6485,"ĠTelevision":6486,"aste":6487,"Ġtele":6488,"Ġsixth":6489,"Ġmaterials":6490,"Ð½":6491,"Cont":6492,"Since":6493,"everal":6494,"ĠCape":6495,"ĠPlan":6496,"Ġexchange":6497,"Ġmeant":6498,"Ġstock":6499,"Ġdefend":6500,"di":6501,"Ġ1927":6502,"ĠStand":6503,"ek":6504,"ĠAM":6505,"ĠPrin":6506,"ĠHouston":6507,"Ġjudge":6508,"Ġpartner":6509,"Ġaddress":6510,"iva":6511,"Ġnarrow":6512,"ĠNick":6513,"Ġwear":6514,"Ġsum":6515,"ĠLegisl":6516,"Ġlot":6517,"ĠJane":6518,"Ġattempts":6519,"Ġstraight":6520,"Ġadvert":6521,"ĠStaff":6522,"Ġmerged":6523,"Ġauthority":6524,"lets":6525,"Public":6526,"Ġmap":6527,"Ġmom":6528,"ĠAcc":6529,"Ġguest":6530,"ĠHoward":6531,"Ġcommittee":6532,"ĠSilver":6533,"weet":6534,"rast":6535,"Ġsuggest":6536,"1981":6537,"inder":6538,"uses":6539,"cont":6540,"\"),":6541,"icians":6542,"ĠTan":6543,"ĠTit":6544,"ĠLow":6545,"Ġdaily":6546,"don":6547,"ĠSri":6548,"Ġfrequently":6549,"Ġarrested":6550,"Ġsets":6551,"Ġcustom":6552,"allas":6553,"ĠOp":6554,"ographer":6555,"ĠDor":6556,"ĠLabor":6557,"Â°":6558,"Ġentry":6559,"ĠModern":6560,"Ġending":6561,"olas":6562,"Ġgod":6563,"Ġsituation":6564,"ĠServices":6565,"agues":6566,"Ġflood":6567,"Ġmorning":6568,"Ġdropped":6569,"bar":6570,"Ġpassing":6571,"Ġwinter":6572,"ikh":6573,"ĠRegional":6574,"ĠHand":6575,"ĠEach":6576,"ĠBoys":6577,"ĠRose":6578,"Ġcontain":6579,"related":6580,"Ġseem":6581,"Ġachieved":6582,"die":6583,"Following":6584,"Ġroyal":6585,"Ġvot":6586,"94":6587,"ĠCost":6588,"Ġmicro":6589,"Ġrapid":6590,"ĠFront":6591,"Ġ1922":6592,"ĠCroat":6593,"ĠMoon":6594,"pet":6595,"ĠDave":6596,"uties":6597,"iti":6598,"Ġapplied":6599,"Af":6600,"Ġbul":6601,"ĠStone":6602,"Ġholds":6603,"Ġsubsequent":6604,"Ġhero":6605,"ieval":6606,"ĠBron":6607,"issippi":6608,"oslav":6609,"Ġseg":6610,"burn":6611,"ĠSpace":6612,"ĠCow":6613,"Major":6614,"ĠEag":6615,"Pol":6616,"Ġbeaut":6617,"ĠAllen":6618,"ĠPA":6619,"ghan":6620,"92":6621,"Ġresc":6622,"ĠÄ":6623,"Ġoccupied":6624,"ĠAmericans":6625,"Plot":6626,"Ġcompl":6627,"Ġ1910":6628,"Ġchosen":6629,"ĠWalter":6630,"ĠAud":6631,"Ġproceed":6632,"ĠQueensland":6633,"Phil":6634,"Ġfinds":6635,"Ġ(),":6636,"Ġrefused":6637,"pa":6638,"Ġcompetitions":6639,"orro":6640,"Ġsurvey":6641,"85":6642,"Ġsquare":6643,"Ġ1921":6644,"ĠPict":6645,"Black":6646,"Official":6647,"ÑĢ":6648,"ĠDublin":6649,"acent":6650,"ĠRa":6651,"ĠBulg":6652,"Ġjur":6653,"wise":6654,"awn":6655,"Ġscientific":6656,"ĠRun":6657,"Ġjazz":6658,"ĠLtd":6659,"Ġfought":6660,"uilt":6661,"aming":6662,"ĠDark":6663,"Ġcalls":6664,"Ġobtained":6665,"Ġsoccer":6666,"Ġwant":6667,"ĠGard":6668,"ĠStat":6669,"Ġexam":6670,"rÃ©":6671,"Sportspeople":6672,"Ġrh":6673,"ĠLat":6674,"issance":6675,"Ġletters":6676,"Ġfields":6677,"Ġcommissioned":6678,"ĠJacob":6679,"93":6680,"Ġdrive":6681,"ĠAdvent":6682,"Life":6683,"Ġenemy":6684,"Ġarrang":6685,"Ġresources":6686,"Qu":6687,"ogy":6688,"Har":6689,"Ġpowerful":6690,"Ġperforming":6691,"ĠAD":6692,"Ġmetres":6693,"ĠPatrick":6694,"Ġrecordings":6695,"Ġinspired":6696,"ĠDoctor":6697,"ĠAffairs":6698,"Ġvent":6699,"Ġbroke":6700,"Ġeconom":6701,"Ġbrand":6702,"uly":6703,"Ġunable":6704,"ĠAuthor":6705,"While":6706,"ĠNow":6707,"Ġmachine":6708,"cha":6709,"iable":6710,"ordan":6711,"Ġ1926":6712,"eland":6713,"illing":6714,"Ġchalleng":6715,"Ġmis":6716,"Ass":6717,"ussian":6718,"ĠBeng":6719,"Ġparliament":6720,"Ġprotection":6721,"Ġpilot":6722,"Ġdefined":6723,"Ġapproved":6724,"ĠRecord":6725,"eption":6726,"fit":6727,"Ġnecessary":6728,"Ġlocations":6729,"ĠFe":6730,"ĠHamp":6731,"Ġaim":6732,"Ġprofile":6733,"Ġlit":6734,"Ġrot":6735,"ĠChildren":6736,"car":6737,"Ġcontaining":6738,"To":6739,"ĠFa":6740,"ĠMPs":6741,"Ġlaunch":6742,"Ġtouchdown":6743,"fr":6744,"ifically":6745,"My":6746,"isters":6747,"ĠNich":6748,"Ġguard":6749,"''":6750,"Ġstatistics":6751,"Ġcopies":6752,"Ġextensive":6753,"Ġalternative":6754,"jan":6755,"night":6756,"thodox":6757,"ugu":6758,"ĠKey":6759,"Ġoccurs":6760,"Ġeffective":6761,"azines":6762,"ĠCab":6763,"ĠTurkish":6764,"1978":6765,"ista":6766,"Ġadvanced":6767,"Ġ1923":6768,"64":6769,"ĠDu":6770,"Ġconfirmed":6771,"Ġactions":6772,"Ġrecip":6773,"Ġnormal":6774,"ĠWho":6775,"Ġconvers":6776,"lines":6777,"iki":6778,"ĠForeign":6779,"Ġentitled":6780,"ĠWell":6781,"Ġnob":6782,"box":6783,"ĠDick":6784,"Ġconsisted":6785,"Ġsac":6786,"ĠAdam":6787,"Ġhistorian":6788,"ented":6789,"ĠBou":6790,"Ġharm":6791,"Ġkil":6792,"Ġattempted":6793,"ĠTrib":6794,"Ġconsum":6795,"ĠNag":6796,"Ġsimple":6797,"ĠLouisiana":6798,"Ġcorner":6799,"ĠNaval":6800,"Ġunderst":6801,"ĠLu":6802,"Ġreject":6803,"Ġfounding":6804,"ĠInn":6805,"Ġmethods":6806,"orter":6807,"Ġdefense":6808,"Ġexclus":6809,"adow":6810,"Ġpainting":6811,"lease":6812,"Ġdirectors":6813,"iversary":6814,"Car":6815,"ĠBuilding":6816,"oking":6817,"ega":6818,"inema":6819,"boards":6820,"Ġdoctor":6821,"Ġactresses":6822,"ardo":6823,"Ġcenturies":6824,"Ġ1925":6825,"ĠCre":6826,"Jan":6827,"ĠMit":6828,"thes":6829,"Ġconsecutive":6830,"Ġsand":6831,"Ġcreating":6832,"Ġseats":6833,"Ġapparent":6834,"Ġaudience":6835,"Ġ48":6836,"Ġdefin":6837,"istry":6838,"iamond":6839,"stream":6840,"Ġbal":6841,"ĠDomin":6842,"uces":6843,"Ġearth":6844,"CAA":6845,"eway":6846,"ĠKat":6847,"ĠAge":6848,"ĠAlan":6849,"ĠSon":6850,"ĠReb":6851,"2020":6852,"Some":6853,"Play":6854,"iful":6855,"jo":6856,"Video":6857,"ĠFinn":6858,"ĠPot":6859,"leges":6860,"Ġcal":6861,"Ġ(;":6862,"Ġ1915":6863,"eding":6864,"olec":6865,"Ġpros":6866,"Ġmemory":6867,"ĠDur":6868,"Ġmulti":6869,"ĠGordon":6870,"Ġvotes":6871,"Ġchampions":6872,"ĠMoore":6873,"Mon":6874,"Ġrisk":6875,"ĠPrix":6876,"ĠAnthony":6877,"Ġhappen":6878,"Ġprepar":6879,"ourses":6880,"elli":6881,"Ġpiece":6882,"fort":6883,"Ġmayor":6884,"lined":6885,"aux":6886,"ĠTar":6887,"Ġethnic":6888,"mit":6889,"Ġrival":6890,"Sup":6891,"aby":6892,"Spec":6893,"arks":6894,"ĠLeb":6895,"ĠMiami":6896,"Ġsomething":6897,"Tr":6898,"Ġfresh":6899,"ĠComics":6900,"escription":6901,"ĠPortuguese":6902,"Ġnuclear":6903,"Ġopposition":6904,"Ġkick":6905,"oyd":6906,"Ġspect":6907,"IN":6908,"aved":6909,"prise":6910,"ĠSu":6911,"Ġendemic":6912,"Ġshortly":6913,"Sub":6914,"ĠHills":6915,"borough":6916,"ĠFellow":6917,"stan":6918,"Ġincident":6919,"dam":6920,"Ġhotel":6921,"ĠSecurity":6922,"ĠHans":6923,"Ġslightly":6924,"Ġbill":6925,"rant":6926,"ĠJoh":6927,"ĠBaltimore":6928,"1974":6929,"Ġtownship":6930,"Ġbegin":6931,"ĠLiter":6932,"Background":6933,"antasy":6934,"ĠDouglas":6935,"ĠBan":6936,"Ġshared":6937,"First":6938,"hat":6939,"opter":6940,"orough":6941,"Ġ1908":6942,"East":6943,"iments":6944,"à¸":6945,"ĠPope":6946,"Ġpermanent":6947,"87":6948,"place":6949,"Ġcontained":6950,"Ġrefers":6951,"Ġlands":6952,"oni":6953,"structure":6954,"ĠNar":6955,"ĠLabour":6956,"Ġoffices":6957,"appy":6958,"Ġcompris":6959,"Ġcalc":6960,"Ġenjoy":6961,"Roman":6962,"ĠVo":6963,"Ġcho":6964,"ĠBah":6965,"Ġtail":6966,"ropri":6967,"ĠStudios":6968,"ĠBelgium":6969,"ĠArk":6970,"Ġsay":6971,"ĠStew":6972,"unting":6973,"1976":6974,"igation":6975,"ĠGram":6976,"Education":6977,"Ġdriver":6978,"Ġattacked":6979,"ĠBuck":6980,"Ġvisited":6981,"ĠCour":6982,"olo":6983,"Ġimpr":6984,"Ġaged":6985,"Ġneeds":6986,"1977":6987,"Ġdeploy":6988,"ĠAst":6989,"ĠBuddh":6990,"91":6991,"ĠAC":6992,"ĠGer":6993,"Per":6994,"Ġfuel":6995,"Ġring":6996,"Ġbishop":6997,"actions":6998,"OR":6999,"ĠSin":7000,"Ġrough":7001,"Ġapplication":7002,"ĠAbd":7003,"Ġ42":7004,"ĠMississippi":7005,"ishops":7006,"Ġlearning":7007,"Ġcomic":7008,"lections":7009,"agen":7010,"67":7011,"ĠDod":7012,"Ġfemales":7013,"har":7014,"len":7015,"ls":7016,"fall":7017,"Ġeducational":7018,"adi":7019,"anger":7020,"Ġcollected":7021,"uma":7022,"Women":7023,"ĠPittsburgh":7024,"ridges":7025,"Ġvirt":7026,"riff":7027,"Ġ300":7028,"tic":7029,"Ste":7030,"rait":7031,"Ġtun":7032,"wen":7033,"ĠHarris":7034,"1950":7035,"ĠFriend":7036,"Ġopposed":7037,"Ġproperties":7038,"Ġultimately":7039,"Ġacts":7040,"enezuel":7041,"angel":7042,"Ġagricultural":7043,"ĠAntonio":7044,"Ġvac":7045,"ĠKa":7046,"Ġheight":7047,"ussion":7048,"posed":7049,"ĠNorwegian":7050,"TC":7051,"Ġrespond":7052,"Ġhits":7053,"ĠMalaysia":7054,"friend":7055,"Ġauth":7056,"Ġbey":7057,"ĠDom":7058,"Ġabandoned":7059,"ho":7060,"ĠMach":7061,"ĠSquare":7062,"Ġsetting":7063,"65":7064,"istol":7065,"apted":7066,"ographical":7067,"Ġpassenger":7068,"Dist":7069,"Ġthreatened":7070,"ĠRugby":7071,"Ġheavily":7072,"Ġ1916":7073,"ĠJesus":7074,"ĠBroadcast":7075,"Ġpup":7076,"ivate":7077,"je":7078,"Ġweapons":7079,"ĠPir":7080,"1975":7081,"Ġgar":7082,"Ġpoetry":7083,"ĠWelsh":7084,"cycl":7085,"po":7086,"Ġderived":7087,"Ġheard":7088,"Ġbands":7089,"Ġapart":7090,"ĠSchools":7091,"ĠPap":7092,"68":7093,"rett":7094,"elson":7095,"Ġplanning":7096,"ĠJam":7097,"Ġhomes":7098,"Buildings":7099,"ĠMrs":7100,"Ġsteel":7101,"active":7102,"Ġmind":7103,"ĠMand":7104,"iner":7105,"ĠMontreal":7106,"Best":7107,"Ġnick":7108,"ĠFarm":7109,"School":7110,"Ġsubt":7111,"phas":7112,"ĠHawai":7113,"Ġidentity":7114,"Ġbeyond":7115,"Ec":7116,"riev":7117,"ĠInformation":7118,"'m":7119,"EA":7120,"mith":7121,"Ġinstruct":7122,"Ġmel":7123,"ĠKy":7124,"ĠSel":7125,"ĠSocorro":7126,"Ġhyp":7127,"hing":7128,"ĠCleveland":7129,"olph":7130,"Ġreligion":7131,"ĠLyn":7132,"Ġreceiving":7133,"Ġprogramme":7134,"ĠNik":7135,"Club":7136,"oa":7137,"rama":7138,"\").":7139,"aser":7140,"Ġtechnical":7141,"High":7142,"ĠGarden":7143,"Ġcritics":7144,"Ġboys":7145,"Ġhired":7146,"Ġimpl":7147,"porter":7148,"Ġtry":7149,"Ġscript":7150,"Ġkilling":7151,"Ġox":7152,"Ġstarts":7153,"David":7154,"Ġglobal":7155,"nold":7156,"ĠWing":7157,"ouses":7158,"Ġguns":7159,"ĠToday":7160,"Ġsense":7161,"ĠBry":7162,"Ġinternal":7163,"igious":7164,"Ġescape":7165,"Academ":7166,"ĠBerg":7167,"ocation":7168,"ĠIslamic":7169,"ĠOm":7170,"inea":7171,"Ġiron":7172,"ĠKam":7173,"Ġrecognition":7174,"ĠSpr":7175,"anny":7176,"Ġglass":7177,"ĠWy":7178,"achelor":7179,"Ñģ":7180,"aza":7181,"Although":7182,"ologists":7183,"ĠRoberts":7184,"leton":7185,"Ġ1913":7186,"1973":7187,"ÃŃn":7188,"orkshire":7189,"phib":7190,"Ġavoid":7191,"1972":7192,"Ġvenues":7193,"Ġherself":7194,"ĠLINE":7195,"Ġmaximum":7196,"Japanese":7197,"ĠPear":7198,"BI":7199,"San":7200,"orage":7201,"ecution":7202,"Rober":7203,"Ġ1911":7204,"Dr":7205,"while":7206,"Ġovers":7207,"uri":7208,"ĠDead":7209,"Ġ(,":7210,"ĠLanc":7211,"ando":7212,"Ġconnection":7213,"Ġfun":7214,"Ġfunctions":7215,"iginally":7216,"ãģ":7217,"Ġbird":7218,"Albums":7219,"Mich":7220,"Ġcontrast":7221,"orus":7222,"Ġinstall":7223,"ĠLast":7224,"gency":7225,"ĠAmong":7226,"HS":7227,"ache":7228,"ĠAfghan":7229,"otte":7230,"vements":7231,"EFA":7232,"Ġ75":7233,"Ġnorthwest":7234,"othing":7235,"ĠLINEAR":7236,"Ġfly":7237,"endment":7238,"Ġroads":7239,"Ġlaid":7240,"ige":7241,"ĠGirls":7242,"ĠSport":7243,"ĠVis":7244,"Ġdry":7245,"Railway":7246,"ĠBefore":7247,"ĠImp":7248,"agg":7249,"Ġmedium":7250,"ĠPortugal":7251,"oria":7252,"Ġcorrect":7253,"Ġvo":7254,"ĠThird":7255,"oviÄĩ":7256,"ryst":7257,"raf":7258,"ĠDa":7259,"Ġcompar":7260,"scape":7261,"Ġsan":7262,"ĠWorks":7263,"Ġentrance":7264,"stitutional":7265,"Ġdiplom":7266,"Ġdecor":7267,"ĠRey":7268,"ĠJay":7269,"Ġholding":7270,"ĠOri":7271,"Ġsail":7272,"Ġham":7273,"eget":7274,"Ġlicens":7275,"Ġfranch":7276,"ĠJuan":7277,"Scott":7278,"ĠPublishing":7279,"ĠBrothers":7280,"lad":7281,"Ġbasic":7282,"gal":7283,"ĠOnly":7284,"Ġenvironmental":7285,"ĠVin":7286,"iler":7287,"Ġislands":7288,"Indian":7289,"Ġnegot":7290,"ĠReserve":7291,"Ġturns":7292,"ĠGab":7293,"mingham":7294,"Ġchurches":7295,"rainian":7296,"emble":7297,"Ġdecre":7298,"Ġliterary":7299,"ĠAnne":7300,"Ġcontributed":7301,"cell":7302,"ÃŁ":7303,"Ġmart":7304,"Ġdetermined":7305,"udget":7306,"ĠTel":7307,"Ġfinishing":7308,"Ġdefensive":7309,"Ġyour":7310,"Ġways":7311,"ĠNa":7312,"Ġmatter":7313,"Ġreaching":7314,"Ab":7315,"Flor":7316,"living":7317,"ĠLang":7318,"zi":7319,"Ġpremier":7320,"uted":7321,"Star":7322,"ĠCommonwealth":7323,"yers":7324,"Ġcas":7325,"Ġgeneration":7326,"ĠExpress":7327,"ĠThrough":7328,"enh":7329,"Ġbriefly":7330,"Ġpriest":7331,"amo":7332,"forc":7333,"ĠIl":7334,"ĠLieutenant":7335,"ensity":7336,"idden":7337,"uccessful":7338,"Ġassess":7339,"icide":7340,"Ġpolic":7341,"Ġstandards":7342,"iations":7343,"Ġrear":7344,"ĠAli":7345,"rane":7346,"ĠErn":7347,"Ġorders":7348,"Ġstrike":7349,"ĠTerrit":7350,"GA":7351,"hammad":7352,"Ġconsult":7353,"Ġvice":7354,"come":7355,"gor":7356,"Ġpages":7357,"Ġpun":7358,"Ġpieces":7359,"ĠBuff":7360,"east":7361,"oly":7362,"Ġanth":7363,"zer":7364,"ĠâĢĺ":7365,"where":7366,"ĠIndependent":7367,"ugoslav":7368,"Ġprotect":7369,"Ġhydro":7370,"pass":7371,"Ġmo":7372,"igenous":7373,"Rel":7374,"ocked":7375,"Ġbillion":7376,"obe":7377,"aked":7378,"Ġclimate":7379,"1968":7380,"Ġple":7381,"Ġextrem":7382,"ĠDeath":7383,"Ġeconomy":7384,"Ġrenov":7385,"Ġsolid":7386,"ĠPas":7387,"seud":7388,"Ġpropos":7389,"Leg":7390,"Ġfailure":7391,"ĠKings":7392,"ĠFIFA":7393,"Ġtoward":7394,"Ġalleged":7395,"Ġrein":7396,"inners":7397,"IV":7398,"rav":7399,"Ġlocomot":7400,"Ġmand":7401,"ĠNiger":7402,"oche":7403,"Ġtor":7404,"ĠKl":7405,"risis":7406,"ãĤ":7407,"Ġtend":7408,"ĠHotel":7409,"Ġpowers":7410,"ĠVillage":7411,"Europe":7412,"Ġlect":7413,"Ġstorm":7414,"1971":7415,"nergy":7416,"Writ":7417,"ĠUkraine":7418,"aduate":7419,"chell":7420,"ĠMcK":7421,"after":7422,"Ġpossess":7423,"ĠCall":7424,"Ġreasons":7425,"olt":7426,"ĠKaz":7427,"Ġsignal":7428,"Ġhill":7429,"Ã©s":7430,"Ġincome":7431,"ologies":7432,"Ġconstant":7433,"found":7434,"ÈĻ":7435,"Ġlawyer":7436,"ĠBaronet":7437,"wall":7438,"ĠTigers":7439,"ĠImperial":7440,"Ġdisapp":7441,"Medal":7442,"Ġdecades":7443,"Description":7444,"star":7445,"ĠRick":7446,"span":7447,"Ġdomestic":7448,"Ġbusinesses":7449,"Ġjunior":7450,"Ġwalls":7451,"LC":7452,"Ġrepresentative":7453,"Ġacid":7454,"rat":7455,"Ġrepresenting":7456,"bishop":7457,"uda":7458,"Ġengaged":7459,"Ġphase":7460,"Ġsupporting":7461,"ĠDak":7462,"father":7463,"ĠBeat":7464,"Ġfashion":7465,"Ġanimal":7466,"Ġspeech":7467,"Ġadvant":7468,"Ġplot":7469,"Ã©t":7470,"Ġwrite":7471,"DA":7472,"Ġreflect":7473,"Over":7474,"Cent":7475,"ĠInternet":7476,"Ġmaintained":7477,"ĠYorkshire":7478,"ĠRailroad":7479,"Ġsought":7480,"ĠLank":7481,"otic":7482,"Ġspok":7483,"Ġcausing":7484,"rine":7485,"Ġappoint":7486,"Ġegg":7487,"owned":7488,"uration":7489,"Ġintroduction":7490,"icts":7491,"Bar":7492,"Ġpull":7493,"Ġ44":7494,"incinn":7495,"ĠElementary":7496,"rome":7497,"Ġcrow":7498,"ĠBecause":7499,"72":7500,"inburgh":7501,"ĠPed":7502,"ĠGuide":7503,"Ġsuccessfully":7504,"ĠWebsite":7505,"ĠMatthew":7506,"ĠOrthodox":7507,"Ġboat":7508,"Ġclosely":7509,"term":7510,"Ġresigned":7511,"ithuan":7512,"isms":7513,"ĠSax":7514,"Ġindependence":7515,"Ġadvent":7516,"atabase":7517,"Ġshape":7518,"Ġbodies":7519,"Ġalone":7520,"Ġthrow":7521,"Ġtwelve":7522,"sch":7523,"including":7524,"Ġdoing":7525,"84":7526,"ĠLawrence":7527,"Ġexistence":7528,"ĠIsraeli":7529,"Ġ39":7530,"Ġstores":7531,"62":7532,"urday":7533,"oba":7534,"Ġobserved":7535,"apes":7536,"Ġgrade":7537,"Ġcarry":7538,"ĠPlayer":7539,"Personnel":7540,"Ġtrying":7541,"ĠHistorical":7542,"ser":7543,"emen":7544,"ĠLiberal":7545,"Ġconsisting":7546,"Ġinvasion":7547,"Most":7548,"March":7549,"Ġdynasty":7550,"liest":7551,"ĠWhat":7552,"83":7553,"set":7554,"ĠPhys":7555,"ĠColombia":7556,"Ġadapted":7557,"Ġpossibly":7558,"iac":7559,"=\"#":7560,"Ġ400":7561,"ogan":7562,"Ġsale":7563,"Ġquite":7564,"ĠHere":7565,"Ġwealth":7566,"ĠKevin":7567,"ĠUN":7568,"hard":7569,"long":7570,"rep":7571,"Ġreserv":7572,"incinnati":7573,"ĠThen":7574,"ĠLin":7575,"ĠMetropolitan":7576,"III":7577,"grade":7578,"yg":7579,"ĠBrazilian":7580,"Ġroutes":7581,"ĠIron":7582,"61":7583,"Ġmerch":7584,"Arch":7585,"Ġgrass":7586,"Ġpartnership":7587,"usal":7588,"Ġinaug":7589,"yst":7590,"ĠAdministration":7591,"uki":7592,"Ġroof":7593,"ĠDC":7594,"ĠDeb":7595,"ĠAtlanta":7596,"Ġpassengers":7597,"Ġfleet":7598,"heel":7599,"74":7600,"ĠHop":7601,"Ġextension":7602,"leans":7603,"ĠAthletic":7604,"ayan":7605,"Her":7606,"ĠHug":7607,"1969":7608,"anned":7609,"ouver":7610,"Ġregarding":7611,"ĠPuerto":7612,"Ġreign":7613,"Ġproved":7614,"osite":7615,"Ġtrav":7616,"onder":7617,"ĠKnight":7618,"hr":7619,"Ġparalle":7620,"ĠTaiwan":7621,"ĠFern":7622,"ĠBruce":7623,"You":7624,"ĠBull":7625,"Ġtemperature":7626,"ples":7627,"ĠRomania":7628,"song":7629,"ĠRoger":7630,"Ġscenes":7631,"Ġinstalled":7632,"ĠSamuel":7633,"ĠMcG":7634,"ĠFall":7635,"asa":7636,"Ġ64":7637,"ĠMem":7638,"ĠKarl":7639,"ugar":7640,"ĠSac":7641,"haps":7642,"Ġestablishment":7643,"Ġconce":7644,"zh":7645,"istant":7646,"Ġpatients":7647,"ucks":7648,"iop":7649,"Ġoperate":7650,"ĠChampion":7651,"Ġpione":7652,"Ġdescription":7653,"Ġadjacent":7654,"kee":7655,"Ġsust":7656,"ĠDance":7657,"ĠRol":7658,"ivalent":7659,"Ġheads":7660,"Ġtranslation":7661,"irus":7662,"Ġhair":7663,"ĠSky":7664,"inisters":7665,"Ġworldwide":7666,"ĠFrederick":7667,"point":7668,"ĠIndonesia":7669,"Ġinvestigation":7670,"Ġshall":7671,"Ġcommit":7672,"Ġentirely":7673,"Ġban":7674,"uits":7675,"Ġfaced":7676,"Ġrise":7677,"ĠVar":7678,"ĠBilly":7679,"81":7680,"Histor":7681,"ĠIndians":7682,"astery":7683,"ĠRain":7684,"ĠAmb":7685,"ĠJordan":7686,"Ġneighbour":7687,"file":7688,"etry":7689,"ĠAle":7690,"James":7691,"ĠStewart":7692,"ureau":7693,"Ġcrown":7694,"ashi":7695,"ting":7696,"Ġaid":7697,"Ġselection":7698,"Ġcomposers":7699,"Ġdeveloping":7700,"ĠFac":7701,"ĠEarly":7702,"Ġ41":7703,"Ġemphas":7704,"Ġcriminal":7705,"isd":7706,"Ġappeal":7707,"2021":7708,"lay":7709,"Ġflying":7710,"ĠMaur":7711,"Ġfunding":7712,"oustic":7713,"Ġalt":7714,"uster":7715,"ĠGiants":7716,"spe":7717,"Reception":7718,"Ġwatch":7719,"ĠPa":7720,"Ġjoining":7721,"ĠHarvard":7722,"Ġsubsid":7723,"ĠHampshire":7724,"rete":7725,"Ġwaters":7726,"Ġcauses":7727,"Ġedited":7728,"yll":7729,"Ġinvolving":7730,"ĠSn":7731,"ĠTun":7732,"ĠLas":7733,"isf":7734,"Ġgrad":7735,"itals":7736,"Ġans":7737,"ĠSeattle":7738,"ĠRangers":7739,"Ġgreatest":7740,"uy":7741,"79":7742,"Ġseems":7743,"ĠVenezuel":7744,"ĠOpera":7745,"Ġreserve":7746,"Ġincorporated":7747,"equ":7748,"Ġfocused":7749,"ĠMission":7750,"Ġvoted":7751,"Ġedge":7752,"Ġinjured":7753,"Ġequal":7754,"Ġregiment":7755,"ĠMicro":7756,"Part":7757,"Sch":7758,"ĠGran":7759,"ĠFA":7760,"Ġdates":7761,"Ġresear":7762,"82":7763,"ĠYouth":7764,"rastructure":7765,"Ġintersection":7766,"Ġmagn":7767,"Ġchampionships":7768,"bridge":7769,"utation":7770,"ĠEven":7771,"ĠRyan":7772,"cussion":7773,"omy":7774,"71":7775,"ythm":7776,"Ġbelieve":7777,"Ġsuburb":7778,"Ġcatal":7779,"ĠPalace":7780,"ocratic":7781,"Ġgetting":7782,"ĠSingh":7783,"Ġbroken":7784,"Ġtask":7785,"itionally":7786,"uren":7787,"Ġvolunte":7788,"rak":7789,"Ġtranslated":7790,"Ġduty":7791,"63":7792,"ÑĤ":7793,"Ġfunds":7794,"Bel":7795,"ĠPeters":7796,"ĠMorgan":7797,"Ġanimated":7798,"Ġstrength":7799,"ĠSox":7800,"ĠHollywood":7801,"olly":7802,"nia":7803,"ĠBroadway":7804,"RC":7805,"uncredited":7806,"Ġresidential":7807,"Ġmales":7808,"ĠLiver":7809,"Ġfactory":7810,"ĠNob":7811,"ĠHorn":7812,"run":7813,"Paul":7814,"Ġrequest":7815,"ĠHeritage":7816,"Ġleads":7817,"asure":7818,"inking":7819,"Ġnickn":7820,"Ġengines":7821,"Ġmarg":7822,"ĠBlues":7823,"ĠDenmark":7824,"ĠExecutive":7825,"Order":7826,"chi":7827,"ĠOrleans":7828,"Ġcourses":7829,"1967":7830,"idel":7831,"ĠBasketball":7832,"Bur":7833,"Ġ1890":7834,"inter":7835,"hematics":7836,"Ġda":7837,"ĠABC":7838,"ĠDefense":7839,"Ġscale":7840,"ni":7841,"Italian":7842,"ĠDallas":7843,"Ã´":7844,"ĠHom":7845,"ĠRound":7846,"ĠBomb":7847,"Port":7848,"Ã¥":7849,"Ġment":7850,"ĠFund":7851,"ailand":7852,"fe":7853,"ĠGon":7854,"Ġspecifically":7855,"Ġformal":7856,"Ġpromote":7857,"Ġrailroad":7858,"--":7859,"Ġexpressed":7860,"ĠBeck":7861,"ĠTamil":7862,"atherine":7863,"Rich":7864,"ĠVik":7865,"ducational":7866,"Ġexperien":7867,"ĠYears":7868,"avalry":7869,"Ġresistance":7870,"Ġmist":7871,"Ġprice":7872,"ĠSee":7873,"Ġstands":7874,"ĠMountains":7875,"ĠPur":7876,"hop":7877,"Ġcrossing":7878,"Ġdivisions":7879,"Ġped":7880,"Populated":7881,"ishments":7882,"ĠBox":7883,"ÅŁ":7884,"ĠDet":7885,"Ġinvited":7886,"Ġregarded":7887,"Ġgets":7888,"ĠLl":7889,"Ġrivers":7890,"ĠGrant":7891,"ĠEver":7892,"Ġchain":7893,"Ġruled":7894,"ĠHungary":7895,"Ġwarn":7896,"ĠWalker":7897,"ĠFil":7898,"ĠEdinburgh":7899,"Ġbehavior":7900,"ĠDanish":7901,"ferred":7902,"Ġtrained":7903,"Ġexerc":7904,"Ġtries":7905,"ĠAgain":7906,"ĠPlace":7907,"ĠLower":7908,"Ġceremony":7909,"TS":7910,"Ġsinging":7911,"ĠRussell":7912,"August":7913,"then":7914,"Ġreturns":7915,"ĠDean":7916,"ancouver":7917,"Ġscheduled":7918,"Ġconvent":7919,"Ġ1906":7920,"ĠBart":7921,"gow":7922,"enz":7923,"ĠUtah":7924,"ĠRow":7925,"Ġchoice":7926,"Ġinfluenced":7927,"ners":7928,"ĠHungarian":7929,"Ġimprove":7930,"Ġ1904":7931,"ĠCrown":7932,"ushed":7933,"ĠBed":7934,"orses":7935,"Ġemp":7936,"aughters":7937,"ĠEnvironment":7938,"ographics":7939,"ĠCommander":7940,"ĠPalest":7941,"Ġproducing":7942,"ilk":7943,"1964":7944,"amic":7945,"1966":7946,"Ġille":7947,"Ġexped":7948,"rons":7949,"uins":7950,"ĠOfficer":7951,"ĠBirmingham":7952,"Ġreleg":7953,"bound":7954,"Ġvisual":7955,"Ġtack":7956,"Ġimproved":7957,"Ġtechniques":7958,"ĠNCAA":7959,"Ġ43":7960,"Ġflat":7961,"73":7962,"Ġcore":7963,"clusion":7964,"Ġannounc":7965,"Ġcopy":7966,"Ġenl":7967,"ĠRub":7968,"Ġsections":7969,"Ġfoundation":7970,"count":7971,"Ġdrivers":7972,"ĠÃī":7973,"ĠWard":7974,"Ġprotein":7975,"Ġdoor":7976,"attan":7977,"Ð¾Ð":7978,"ĠNA":7979,"Ġcategory":7980,"Ep":7981,"ĠGa":7982,"ĠClin":7983,"UC":7984,"Ġsymbol":7985,"orton":7986,"ovakia":7987,"Ġactual":7988,"ĠFurther":7989,"Ġsomew":7990,"ĠDue":7991,"Ġlat":7992,"err":7993,"1940":7994,"ĠDal":7995,"ĠAndre":7996,"Footballers":7997,"Ġdescribes":7998,"Ġchemical":7999,"Ġsuperv":8000,"Ġentertain":8001,"orer":8002,"entially":8003,"Ġsurg":8004,"Ġhour":8005,"FFFF":8006,"Ġfaith":8007,"Ġexhibition":8008,"Ġ1909":8009,"ĠVic":8010,"ĠReport":8011,"Ġguitarist":8012,"Ġunsuccessful":8013,"ĠTreat":8014,"PC":8015,"ĠCampbell":8016,"roc":8017,"Ġopportunity":8018,"SI":8019,"ĠBrooklyn":8020,"Ġselect":8021,"Ġdetails":8022,"Inter":8023,"Pres":8024,"Red":8025,"Ġlegend":8026,"oca":8027,"Ġgrounds":8028,"Ġ1905":8029,"ĠYank":8030,"aman":8031,"Ġsurname":8032,"ishment":8033,"cyclop":8034,"Ġimportance":8035,"ĠRights":8036,"ĠNatural":8037,"Ġemployees":8038,"intend":8039,"ĠCare":8040,"Ġdivers":8041,"Ġviolence":8042,"ci":8043,"Ġ51":8044,"insula":8045,"udi":8046,"tered":8047,"Ġsurvived":8048,"ĠFinland":8049,"Ġeasily":8050,"Ġcompete":8051,"ĠLov":8052,"Ġ65":8053,"ĠGill":8054,"Ġgang":8055,"Ġsell":8056,"rik":8057,"Ġsqu":8058,"Ġclean":8059,"Ġbottom":8060,"Ġvide":8061,"ĠVice":8062,"'re":8063,"ĠPatri":8064,"ĠKelly":8065,"Ġ1907":8066,"Ġwitness":8067,"Ġsession":8068,"Ġrepeated":8069,"1945":8070,"Crit":8071,"dr":8072,"ĠBush":8073,"Ġsynd":8074,"Ġadmitted":8075,"ĠMargaret":8076,"Ġfictional":8077,"1965":8078,"ducing":8079,"ĠDisney":8080,"ĠOttoman":8081,"Ġweather":8082,"ĠMes":8083,"ĠJohnny":8084,"Ġcontrolled":8085,"GBT":8086,"Ġarmed":8087,"ĠHend":8088,"Ġinduct":8089,"ĠBase":8090,"Ġpaintings":8091,"Ġbelief":8092,"Works":8093,"ellite":8094,"Ã¶r":8095,"ĠHell":8096,"ĠAlfred":8097,"ĠProduct":8098,"Ġquant":8099,"antly":8100,"Ġeye":8101,"ĠJosÃ©":8102,"69":8103,"ĠNav":8104,"tenance":8105,"ĠAustrian":8106,"Ġlimit":8107,"Ġ52":8108,"dy":8109,"Ġcombination":8110,"Ġimages":8111,"ĠJimmy":8112,"ON":8113,"Ġagency":8114,"Ġgraduate":8115,"Ġtennis":8116,"Ġrooms":8117,"annels":8118,"ĠVolume":8119,"anne":8120,"Ġtypical":8121,"onian":8122,"Ġaer":8123,"rong":8124,"election":8125,"Ġsequence":8126,"Ġstrateg":8127,"Commun":8128,"Ġgain":8129,"Ġearliest":8130,"Ġapplications":8131,"Ġsouthwest":8132,"osm":8133,"tery":8134,"pha":8135,"ĠLane":8136,"ĠVers":8137,"ĠLet":8138,"Ġopin":8139,"ĠAgency":8140,"ĠNorman":8141,"mphony":8142,"sea":8143,"argo":8144,"Ġskills":8145,"ĠWol":8146,"ĠKnow":8147,"olia":8148,"ĠPrefect":8149,"ĠAlexand":8150,"bi":8151,"Mc":8152,"ĠRobinson":8153,"Ġri":8154,"Ġowners":8155,"Ġregularly":8156,"aire":8157,"host":8158,"Ġsole":8159,"ultan":8160,"Ġdies":8161,"ogether":8162,"Ġreplace":8163,"iggest":8164,"Ġclimb":8165,"Ġcharges":8166,"Ġexact":8167,"Ġgarden":8168,"Ġ;":8169,"fish":8170,"ĠAdams":8171,"ĠAbout":8172,"ĠNord":8173,"Ġobjects":8174,"Ġlink":8175,"ĠMetro":8176,"Ġelectronic":8177,"Ġjump":8178,"rops":8179,"Jew":8180,"ĠKo":8181,"aha":8182,"Ġdocuments":8183,"ĠWoman":8184,"ĠKennedy":8185,"Ġkid":8186,"ĠPrincess":8187,"umin":8188,"Vill":8189,"Ġadvis":8190,"Robert":8191,"Ġoffensive":8192,"not":8193,"ĠGlas":8194,"edding":8195,"Ġterror":8196,"actor":8197,"inian":8198,"Ġretail":8199,"Ġzone":8200,"rang":8201,"Ġdistributed":8202,"ĠRand":8203,"Ġadvance":8204,"Ġproducers":8205,"MP":8206,"Ġcaught":8207,"Ġcourts":8208,"Ġtheater":8209,"Ġaccompan":8210,"ĠStanley":8211,"2022":8212,"ĠChall":8213,"Ġviews":8214,"ĠSud":8215,"Ġ55":8216,"finals":8217,";\"|":8218,"ĠLeban":8219,"ĠAustin":8220,"Ġcomposition":8221,"omas":8222,"ĠThompson":8223,"ĠBangl":8224,"final":8225,"Ġancest":8226,"lete":8227,"eton":8228,"Production":8229,"Ġsave":8230,"going":8231,"exual":8232,"Ġoperates":8233,"ĠWright":8234,"Ġitems":8235,"ĠGuinea":8236,"pi":8237,"Ġaccommod":8238,"ĠDyn":8239,"Ġuniform":8240,"ĠDerby":8241,"Ġconcluded":8242,"Ġveget":8243,"Ġ150":8244,"ĠMorris":8245,"If":8246,"ĠGary":8247,"ĠPeace":8248,"ĠCentury":8249,"Ġreduce":8250,"osure":8251,"ĠCrit":8252,"ĠColonel":8253,"ĠKan":8254,"Ġsubstant":8255,"Ġpurposes":8256,"ranean":8257,"ĠBetween":8258,"Ġnotably":8259,"Ġax":8260,"Ġargued":8261,"orrow":8262,"ĠSoccer":8263,"Ġproced":8264,"ĠThailand":8265,"Ġarchae":8266,"ĠAthletics":8267,"mont":8268,"Ġinform":8269,"away":8270,"ĠNBA":8271,"Ġmine":8272,"Ġrob":8273,"hab":8274,"Ġpool":8275,"Ġdisestablished":8276,"ES":8277,"Ġpurchase":8278,"etime":8279,"á»":8280,"Defunct":8281,"Ġones":8282,"mi":8283,"Ġ47":8284,"writers":8285,"Ġsteam":8286,"Ġreally":8287,"do":8288,"ĠFive":8289,"ĠPad":8290,"Ġrestored":8291,"Ġterminus":8292,"ĠLam":8293,"Ġhumans":8294,"aware":8295,"ifer":8296,"ĠBarry":8297,"ĠPeru":8298,"Ġsoci":8299,"ĠLocal":8300,"Ġadvoc":8301,"Ġrich":8302,"Ġteen":8303,"Two":8304,"Ġtank":8305,"Ġfine":8306,"Ġdie":8307,"ĠTak":8308,"eless":8309,"ĠCatal":8310,"ĠAssoci":8311,"ĠCollection":8312,"ĠLiverpool":8313,"Ġpenal":8314,"Ġcredited":8315,"Later":8316,"Ġclassic":8317,"Ġcorpor":8318,"Ġnegative":8319,"ĠFel":8320,"ĠCooper":8321,"Ġpersons":8322,"oda":8323,"Ġseventh":8324,"Ġrevolution":8325,"Air":8326,"illo":8327,"ĠShip":8328,"Ġupd":8329,"ĠOperation":8330,"othes":8331,"ĠThough":8332,"rot":8333,"Ġmeets":8334,"ĠGlobal":8335,"cing":8336,"ĠSaf":8337,"Afric":8338,"etta":8339,"Ġfranchise":8340,"Ġbatter":8341,"Ġ1902":8342,"ishers":8343,"Ġconsequ":8344,"Ġpresidential":8345,"ĠSaints":8346,"ĠVideo":8347,"ĠPC":8348,"Ġinterests":8349,"Ġcalling":8350,"ĠChristopher":8351,"Ġgoods":8352,"Ġstating":8353,"ĠOur":8354,"eta":8355,"Honours":8356,"Ġreality":8357,"Ġiniti":8358,"Ġopposite":8359,"ĠFather":8360,"George":8361,"Ġmagazines":8362,"Ġbran":8363,"Ġclin":8364,"Ġseparated":8365,"ĠNash":8366,"ĠUpper":8367,"Ġpublications":8368,"ĠMarket":8369,"Station":8370,"Ġinterpret":8371,"million":8372,"Taxa":8373,"ĠWayne":8374,"ĠRy":8375,"Ġmoment":8376,"iph":8377,"Ġveter":8378,"ception":8379,"who":8380,"DP":8381,"ĠVienna":8382,"Ġdeleg":8383,"ĠRabb":8384,"Ġ1903":8385,"Ġaccused":8386,"Ġrecept":8387,"ĠFried":8388,"Ġconqu":8389,"Ġcolour":8390,"ĠDonald":8391,"Ġresidence":8392,"1930":8393,"Ġwings":8394,"Ġstanding":8395,"ĠEvery":8396,"ĠBernard":8397,"ĠWa":8398,"Ġpainters":8399,"Ġ46":8400,"ĠNelson":8401,"Ġdamaged":8402,"Ġuniversities":8403,"Ġthick":8404,"ĠCarter":8405,"Ġphilosophy":8406,"ĠEvans":8407,"Mal":8408,"Ã«":8409,"Ġsubmar":8410,"ĠMethod":8411,"ĠYugoslav":8412,"Ġfan":8413,"Ġmolec":8414,"fessional":8415,"ĠFranklin":8416,"Ġkilomet":8417,"fare":8418,"Ã©n":8419,"Ġfavour":8420,"ĠRap":8421,"ĠCole":8422,"icit":8423,"opal":8424,"Ġideas":8425,"ĠGulf":8426,"Ġvalues":8427,"ĠBroadcasting":8428,"lon":8429,"iah":8430,"ĠJohann":8431,"Å¾":8432,"Pre":8433,"ĠStars":8434,"ategy":8435,"Ġduties":8436,"Cal":8437,"Ġaffected":8438,"inding":8439,"ĠSaturday":8440,"Ġpitch":8441,"June":8442,"Ġflu":8443,"Ãł":8444,"cat":8445,"Ġinterior":8446,"coming":8447,"Ġjurisd":8448,"ĠChen":8449,"ĠTrail":8450,"Ġchose":8451,"Ġstarred":8452,"ĠVerm":8453,"Ġphotograph":8454,"acon":8455,"ĠNative":8456,"iri":8457,"Ġobtain":8458,"1962":8459,"Ġdecade":8460,"Ġcosts":8461,"Ġshowing":8462,"Demographics":8463,"Ġaf":8464,"Ġworth":8465,"ulus":8466,"ĠTrophy":8467,"rene":8468,"Ġdevice":8469,"ĠMilan":8470,"Ġmilit":8471,"Ġ1880":8472,"1963":8473,"folk":8474,"Ġcoastal":8475,"Athlet":8476,"ĠShah":8477,"Ġintelligence":8478,"ĠOnce":8479,"Ġsecretary":8480,"lington":8481,"Ġcolleges":8482,"Ġprotected":8483,"Ġseconds":8484,"ĠChart":8485,"Ġmort":8486,"ĠSupport":8487,"Discography":8488,"Ġprovincial":8489,"lie":8490,"feld":8491,"Ġdismiss":8492,"Ġmus":8493,"Ġreception":8494,"ĠCulture":8495,"ielder":8496,"Ġstatement":8497,"Ġimprison":8498,"ĠHunt":8499,"Ġutil":8500,"acle":8501,"Bra":8502,"Ġcolonial":8503,"atures":8504,"October":8505,"Ġstret":8506,"Ġattached":8507,"ĠCass":8508,"ĠConstitution":8509,"amps":8510,"ivated":8511,"Ġdispl":8512,"Ġdrawn":8513,"ĠCher":8514,"Ġwhy":8515,"Ġnothing":8516,"Ġretained":8517,"Ġdidn":8518,"Ġanniversary":8519,"Ġtall":8520,"ĠVancouver":8521,"ĠRan":8522,"Ġ1901":8523,"Ġexamples":8524,"Ġreferences":8525,"Ġeyes":8526,"EP":8527,"ders":8528,"ĠCincinnati":8529,"Ġcharged":8530,"alia":8531,"Ġownership":8532,"Ġcandidates":8533,"Medalists":8534,"Ġflo":8535,"Ġlooking":8536,"Ġpercussion":8537,"ibl":8538,"Ġtrip":8539,"vant":8540,"ĠFight":8541,"lig":8542,"Ġpublishing":8543,"IP":8544,"Cons":8545,"ĠMurray":8546,"ht":8547,"Ġstood":8548,"ĠMall":8549,"ĠEnergy":8550,"ĠTraining":8551,"Ġcomed":8552,"ĠMix":8553,"abad":8554,"ĠAuthority":8555,"ĠJose":8556,"Ġdesigns":8557,"Ġbond":8558,"Ġassumed":8559,"Ġadvantage":8560,"ĠCamer":8561,"ĠThus":8562,"Ġdowntown":8563,"Ġbed":8564,"April":8565,"Ġbra":8566,"ĠCathedral":8567,"Ġregistered":8568,"Ġcontributions":8569,"Ġisol":8570,"Ġfactors":8571,"Ġreaction":8572,"ĠJazz":8573,"Ġtick":8574,"power":8575,"%,":8576,"itable":8577,"Ġinstruments":8578,"ilst":8579,"ebraska":8580,"Ġfest":8581,"ĠDiocese":8582,"ĠAy":8583,"Musical":8584,"Ġaw":8585,"Ġunf":8586,"Ġcapture":8587,"ĠMans":8588,"ĠTrade":8589,"Ġteachers":8590,"hattan":8591,"ĠMap":8592,"Transportation":8593,"ĠDaily":8594,"profit":8595,"ĠUnit":8596,"ĠChamber":8597,"Ġcoaching":8598,"OC":8599,"ĠCricket":8600,"ĠDub":8601,"Political":8602,"white":8603,"ĠGraham":8604,"Ġcycle":8605,"Ġfinals":8606,"Ġfruit":8607,"ĠUpon":8608,"Ġkeyboards":8609,"Ġdog":8610,"cia":8611,"ĠSeveral":8612,"ĠLegislative":8613,"Ġusers":8614,"ĠIan":8615,"ibbean":8616,"din":8617,"ĠBureau":8618,"iformes":8619,"ĠGuy":8620,"Ġsoundtrack":8621,"Ġwounded":8622,"ĠJason":8623,"lock":8624,"egas":8625,"Ġchance":8626,"ĠBurg":8627,"Note":8628,"ĠLithuan":8629,"fiction":8630,"Ġmotion":8631,"Ġstopped":8632,"ĠHold":8633,"Ġcommitted":8634,"ĠLib":8635,"inces":8636,"ĠGray":8637,"ĠMotor":8638,"ĠJun":8639,"Ġprize":8640,"ĠMarshall":8641,"Ġbudget":8642,"enger":8643,"osaur":8644,"?\"":8645,"rena":8646,"ĠMayor":8647,"ĠRacing":8648,"ĠDakota":8649,"Ġnor":8650,"Ġequivalent":8651,"ĠSteel":8652,"cious":8653,"ĠStri":8654,"Ġhosts":8655,"1961":8656,"MC":8657,"Ev":8658,"ĠAlliance":8659,"Ġcous":8660,"Ġemot":8661,"Ġdriving":8662,"ĠSC":8663,"ĠConfeder":8664,"Ġfired":8665,"Ġbiggest":8666,"assador":8667,"ĠBorough":8668,"Ġgrant":8669,"ĠDJ":8670,"SU":8671,"ĠCEO":8672,"Ġchair":8673,"vi":8674,"hu":8675,"etty":8676,"Ġarranged":8677,"Ġparticipate":8678,"Ġrunner":8679,"rm":8680,"Ġpraised":8681,"Ġheat":8682,"iterranean":8683,"Ġseed":8684,"ammals":8685,"ĠMond":8686,"ĠSarah":8687,"ĠAndy":8688,"icial":8689,"rod":8690,"ĠKu":8691,"plete":8692,"aptist":8693,"Ġrejected":8694,"Donald":8695,"Ġlanding":8696,"eenth":8697,"Ġgenera":8698,"Ġcoverage":8699,"ĠAnna":8700,"ĠEmer":8701,"ĠConvention":8702,"ĠSecret":8703,"Ġdivor":8704,"ĠAgric":8705,"Ðº":8706,"Ġdegrees":8707,"arus":8708,"ĪĴ":8709,"Ġprisoners":8710,"ĠPsych":8711,"Ġheaded":8712,"Ġpoll":8713,"ĠFleet":8714,"Ġdelivered":8715,"Ġmining":8716,"heme":8717,"Ġpeaked":8718,"uzz":8719,"ĠAlberta":8720,"Ġextremely":8721,"Ġcircum":8722,"uador":8723,"Ġarrival":8724,"Ġassass":8725,"July":8726,"Ġvary":8727,"orne":8728,"ĠSeason":8729,"Ġmouth":8730,"NC":8731,"Ġmedicine":8732,"Ġmissions":8733,"master":8734,"Ġselling":8735,"Ġappearing":8736,"September":8737,"Ġstorage":8738,"Ġqualified":8739,"ĠCommunications":8740,"Ġcomput":8741,"Sim":8742,"ĠML":8743,"ĠCarlos":8744,"Ġcollaboration":8745,"Ġsuggests":8746,"hill":8747,"1959":8748,"Ġchannels":8749,"otype":8750,"Ang":8751,"ĠPage":8752,"Ġunus":8753,"obby":8754,"bat":8755,"Ġsun":8756,"Ġstages":8757,"ĠInvest":8758,"Ġdepend":8759,"Ġsynthes":8760,"Ġcarrying":8761,"Em":8762,"rock":8763,"ĠMedicine":8764,"ĠCarn":8765,"Ġreplacement":8766,"Ġdoll":8767,"Ġtur":8768,"Ġmyth":8769,"ĠNHL":8770,"Ġresign":8771,"ĠCA":8772,"ivan":8773,"ĠTower":8774,"Ġshell":8775,"essions":8776,"ulum":8777,"Ġdescend":8778,"Ġnaval":8779,"ĠNever":8780,"ĠGlasgow":8781,"Town":8782,"1958":8783,"Ġattorney":8784,"ĠBlood":8785,"bal":8786,"urers":8787,"ffbbbb":8788,"ED":8789,"Ġsoil":8790,"iors":8791,"Ġfreedom":8792,"Municip":8793,"Ġfalls":8794,"Ġrenew":8795,"Ġpicture":8796,"ivia":8797,"ĠMess":8798,"ĠUEFA":8799,"ĠJerry":8800,"ĠMadrid":8801,"Ġotherwise":8802,"ĠLuther":8803,"ĠCommunist":8804,"ashed":8805,"Ġjourney":8806,"Ġdesigner":8807,"Ġ*":8808,"oka":8809,"Ġbanks":8810,"Ġnom":8811,"Ġadaptation":8812,"Ġmedieval":8813,"oenix":8814,"Cities":8815,"Ġlinked":8816,"ĠSongs":8817,"Ġcarbon":8818,"iency":8819,"Ġastr":8820,"ĠRio":8821,"Ġmountains":8822,"ĠBeg":8823,"Ġhur":8824,"Ġfrog":8825,"Ġdoct":8826,"iko":8827,"incorporated":8828,"ĠHas":8829,"Michael":8830,"Ġmanga":8831,"ĠCuba":8832,"ĠMind":8833,"ĠBuffalo":8834,"Ġbit":8835,"Ġaudio":8836,"ĠRena":8837,"Ġexecuted":8838,"atters":8839,"ĠFood":8840,"Ġconstituency":8841,"ĠMack":8842,"ĠCardinals":8843,"Ġahead":8844,"Ġassistance":8845,"via":8846,"rub":8847,"avan":8848,"Oper":8849,"Ġtied":8850,"ĠAmaz":8851,"Ġweekly":8852,"arest":8853,"Up":8854,"Ro":8855,"Ġinher":8856,"isode":8857,"ĠBible":8858,"ĠUkrainian":8859,"Ġexplos":8860,"Ġclassified":8861,"Ġextinct":8862,"Ġexperienced":8863,"Ġsignificantly":8864,"rix":8865,"Ġcapable":8866,"ĠMarie":8867,"Ġorchestra":8868,"oming":8869,"ĠTob":8870,"European":8871,"ĠBristol":8872,"ovo":8873,"Post":8874,"Ġborders":8875,"atern":8876,"App":8877,"ĠEqu":8878,"State":8879,"pping":8880,"Ġlearned":8881,"released":8882,"Spanish":8883,"icate":8884,"Ġpoem":8885,"ĠFalls":8886,"Ġlegislation":8887,"ĠAfghanistan":8888,"Ġfactor":8889,"uka":8890,"Ġprotest":8891,"Ġnewspapers":8892,"sson":8893,"umi":8894,"Ġsubd":8895,"Ġbusinessman":8896,"formance":8897,"Ġelement":8898,"Ġ54":8899,"later":8900,"Ġevolution":8901,"haw":8902,"riel":8903,"Ġjustice":8904,"Ġcollections":8905,"Ġuser":8906,"Ġconservation":8907,"Ġmanufacturing":8908,"ĠArkansas":8909,"Pal":8910,"Radio":8911,"Ġcommunication":8912,"Ġcup":8913,"1957":8914,"ĠPrefecture":8915,"Ġamateur":8916,"ĠCook":8917,"Ġlov":8918,"Ġassault":8919,"Ġrequirements":8920,"otan":8921,"ĠGriff":8922,"ĠSerbia":8923,"Gl":8924,"abled":8925,"OM":8926,"Ġliqu":8927,"Ġstayed":8928,"ĠTheater":8929,"species":8930,"Sir":8931,"Ġanch":8932,"itime":8933,"Ġdraf":8934,"imm":8935,"jamin":8936,"Ġsed":8937,"aments":8938,"))":8939,"Nor":8940,"Ġaccompl":8941,"usalem":8942,"Ġcoordin":8943,"ĠOrange":8944,"ĠPrimary":8945,"ĠMaj":8946,"Ġbelonged":8947,"ĠCollins":8948,"ĠAqu":8949,"Ġstreets":8950,"ĠScient":8951,"Ġsuccessor":8952,"ĠArmenian":8953,"Ġdating":8954,"ĠBud":8955,"Ġaccur":8956,"Ġcatch":8957,"Ġcovering":8958,"Ġphen":8959,"ĠEdition":8960,"itars":8961,"ĠBaker":8962,"ĠChairman":8963,"Ġpainted":8964,"yles":8965,"ĠDNA":8966,"roke":8967,"Ġbrain":8968,"Ġmembership":8969,"ĠEnt":8970,"ĠBrew":8971,"winning":8972,"Ġprepared":8973,"atche":8974,"ttps":8975,"Ġ1898":8976,"ĠAld":8977,"ĠFab":8978,"Ġvert":8979,"igs":8980,"icus":8981,"ĠBenn":8982,"Ġfrag":8983,"Alumni":8984,"ĠLions":8985,"ĠRichmond":8986,"ĠParish":8987,"ĠKr":8988,"Ġshel":8989,"acht":8990,"ĠAR":8991,"ĠRot":8992,"Current":8993,"Ġinstitution":8994,"Ġaccompanied":8995,"Bus":8996,"Ġdelay":8997,"ĠMaine":8998,"chang":8999,"ĠMunicipality":9000,"Ġrestaurant":9001,"1956":9002,"Ġdemand":9003,"resents":9004,"1955":9005,"ĠAP":9006,"phone":9007,"ĠBangladesh":9008,"ĠRest":9009,"castle":9010,"aired":9011,"ducer":9012,"ĠChem":9013,"ĠSite":9014,"Ġmedals":9015,"Ġscheme":9016,"Ġlists":9017,"Ġvideos":9018,"rehens":9019,"Ġpopularity":9020,"ĠMother":9021,"ampa":9022,"Ġsevere":9023,"top":9024,"web":9025,"Ġparallel":9026,"January":9027,"Ġshooting":9028,"Ġtesting":9029,"Ġexpression":9030,"orial":9031,"ĠPun":9032,"cm":9033,"Ġski":9034,"tha":9035,"ĠSoul":9036,"Ġfilmed":9037,"Ġtraded":9038,"Ġstruck":9039,"issue":9040,"ĠSymphony":9041,"Ġsubjects":9042,".âĢĿ":9043,"ĠUC":9044,"oked":9045,"eri":9046,"ĠNi":9047,"Count":9048,"commun":9049,"ĠConservative":9050,"Ġappropri":9051,"ĠSalv":9052,"December":9053,"othy":9054,"ĠRegulations":9055,"Ġpreced":9056,"ophone":9057,"Ġfishing":9058,"aku":9059,"Ġdiagn":9060,"Mod":9061,"ĠKon":9062,"Ġmeasures":9063,"ctic":9064,"Ġoccupation":9065,"ĠMeg":9066,"ĠIns":9067,"ĠChand":9068,"Ġpitched":9069,"mund":9070,"Ġplus":9071,"ĠProm":9072,"Ã¨re":9073,"door":9074,"ĠVel":9075,"Ġentering":9076,"Ġsegment":9077,"Ġhang":9078,"udson":9079,"Ġstring":9080,"ĠJudge":9081,"efef":9082,"Ġjudges":9083,"ĠNon":9084,"ournament":9085,"Ġagencies":9086,"asp":9087,"Ġminute":9088,"ĠCharlie":9089,"Ġorganisation":9090,"odge":9091,"Ġroughly":9092,"Ġinfrastructure":9093,"ario":9094,"uru":9095,"ĠRud":9096,"ĠSeven":9097,"Ġdetermine":9098,"Russian":9099,"Ġperhaps":9100,"SW":9101,"ĠNova":9102,"ĠPortland":9103,"ĠGib":9104,"Ġbranches":9105,"ĠNebraska":9106,"ĠHunter":9107,"!\"":9108,"Ġdefeating":9109,"ĠProtest":9110,"Ġmines":9111,"Ġfilled":9112,"Stud":9113,"War":9114,"Ġ1870":9115,"Ġkingdom":9116,"Ġbon":9117,"Ġdifferences":9118,"Ġpoets":9119,"MI":9120,"Ġflows":9121,"Ġ59":9122,"ĠAngl":9123,"stery":9124,"udden":9125,"Ġgolf":9126,"ĠEss":9127,"Ġinsc":9128,"ĠClassic":9129,"ĠManhattan":9130,"load":9131,"iper":9132,"Ġinvent":9133,"rations":9134,"ĠGlen":9135,"ĠBranch":9136,"ĠDog":9137,"Ġfiled":9138,"Ġromantic":9139,"Ġdaughters":9140,"boy":9141,"ĠPack":9142,"opes":9143,"ocol":9144,"Ġbroadcasting":9145,"ĠEcuador":9146,"Fl":9147,"Ġpractices":9148,"Ġdim":9149,"Ġcold":9150,"ĠHit":9151,"Ġplate":9152,"Ġpian":9153,"Ġ1899":9154,"ĠControl":9155,"ĠLud":9156,"1939":9157,"ĠPant":9158,"ĠSi":9159,"keeper":9160,"Scottish":9161,"elaide":9162,"estyle":9163,"Ġtex":9164,"ierra":9165,"Ġrepresents":9166,"ubb":9167,"ĠHawaii":9168,"Ġwine":9169,"ĠFitz":9170,"isations":9171,"ushing":9172,"hus":9173,"Ġdifference":9174,"Ġoffering":9175,"ĠLad":9176,"ĠAer":9177,"ĠĠĠĠĠĠĠĠĠĠĠĠĠĠĠĠ":9178,"Ġcontext":9179,"Ġ53":9180,"Ġskin":9181,"Ġmac":9182,"ĠDeputy":9183,"ĠNazi":9184,"ĠSign":9185,"ĠRomanian":9186,"ĠMitchell":9187,"agar":9188,"osph":9189,"ĠSpeed":9190,"Ġwave":9191,"ĠWarren":9192,"ido":9193,"ugs":9194,"Ġcited":9195,"Ġterritories":9196,"Ġcelebrated":9197,"orous":9198,"ĠElectric":9199,"ĠCanal":9200,"ĠDefence":9201,"Ġvessels":9202,"Ġencounter":9203,"Ġsigning":9204,"Ġpenalty":9205,"stances":9206,"Ġign":9207,"enberg":9208,"mate":9209,"Ġreplacing":9210,"Ġdestr":9211,"Ġswimming":9212,"ĠHum":9213,"iration":9214,"ĠPhot":9215,"Ġlicense":9216,"Ġsnow":9217,"Ġtechnique":9218,"Flora":9219,"Ġtransportation":9220,"Jewish":9221,"lett":9222,"ĠWindows":9223,"Im":9224,"apping":9225,"ture":9226,"ĠAlaska":9227,"iast":9228,"Ġlosses":9229,"ags":9230,"ĠCaribbean":9231,"Birds":9232,"type":9233,"ĠArchitect":9234,"Ġresponsibility":9235,"ĉĊ":9236,"Ġauthors":9237,"Ġrif":9238,"aja":9239,"Ġtemporary":9240,"ĠDraft":9241,"ĠEsp":9242,"DS":9243,"Genus":9244,"stown":9245,"ĠNation":9246,"Ġnote":9247,"Ġchapter":9248,"Ġsanct":9249,"DC":9250,"ĠAT":9251,"Ġinterested":9252,"Ġrestrict":9253,"ĠVenezuela":9254,"ĠSingles":9255,"Ġconcerns":9256,"Mark":9257,"pre":9258,"Ġsurre":9259,"ourg":9260,"Ġwor":9261,"Jos":9262,"1920":9263,"antine":9264,"isb":9265,"ĠMong":9266,"Ġcriticized":9267,"ĠLimited":9268,"DF":9269,"Endemic":9270,"Ġcongress":9271,"Ġdemolished":9272,"ellect":9273,"igo":9274,"Ġmeters":9275,"ĠSid":9276,"Ġ1895":9277,"Ġsquadron":9278,"ulu":9279,"irk":9280,"ĠLost":9281,"ĠFrid":9282,"ĠNorfolk":9283,"1942":9284,"Ġinjuries":9285,"Ġplane":9286,"Ġelevation":9287,"ĠNevada":9288,"Ġevening":9289,"enson":9290,"ĠHindu":9291,"ĠTol":9292,"mosp":9293,"brid":9294,"Ġjournalists":9295,"Second":9296,"ĠLock":9297,"Ġago":9298,"Ġensure":9299,"ĠRico":9300,"Ġsax":9301,"eme":9302,"Ġunderstanding":9303,"merce":9304,"Ġweak":9305,"forcement":9306,"Ġsupposed":9307,"Ġscientists":9308,"Ġhorror":9309,"Ġ1897":9310,"uin":9311,"Ġcards":9312,"Ġrelative":9313,"eneg":9314,"Ġ120":9315,"leyball":9316,"Ġlegs":9317,"Ġcredits":9318,"utions":9319,"Ġjunction":9320,"ĠCensus":9321,"ĠFull":9322,"erk":9323,"Ġshut":9324,"hand":9325,"Ġaspects":9326,"ictions":9327,"ĠZone":9328,"Ġcricketers":9329,"Ġspiritual":9330,"family":9331,"ĠAber":9332,"ĠJerusalem":9333,"1953":9334,"asts":9335,"Ġcheck":9336,"Ġmodified":9337,"Ġinvestment":9338,"Ġrequires":9339,"asi":9340,"Ġpopulations":9341,"ĠMichel":9342,"November":9343,"Ġtransition":9344,"Week":9345,"ĠLanguage":9346,"ĠDays":9347,"Ġtrail":9348,"ĠCBS":9349,"Ġhouseholds":9350,"Ġcommemor":9351,"WA":9352,"lean":9353,"Ġexpert":9354,"ĠExt":9355,"amer":9356,"ĠWor":9357,"ĠNep":9358,"anner":9359,"Ġoccasionally":9360,"fully":9361,"Ġcrowd":9362,"Ġpolicies":9363,"ML":9364,"Ġanime":9365,"isition":9366,"Ġalco":9367,"ĠCart":9368,"ĠJama":9369,"claimed":9370,"Ġportrayed":9371,"asm":9372,"Ġhelping":9373,"ĠSask":9374,"enne":9375,"ĠAnti":9376,"athy":9377,"Ġformally":9378,"uble":9379,"Ġquestions":9380,"stad":9381,"Ġ1896":9382,"fefef":9383,"fefefe":9384,"Gallery":9385,"Ġsomewhat":9386,"Ġscholar":9387,"Ġfixed":9388,"ĠLuis":9389,"Northern":9390,"ribed":9391,"ĠFinnish":9392,"operation":9393,"hai":9394,"Ġacoustic":9395,"Ġwooden":9396,"ĠAbbey":9397,"Ġbeach":9398,"ĠSS":9399,"bird":9400,"Ġreun":9401,"ĠDigital":9402,"Ġincorpor":9403,"Ġconvicted":9404,"Ġfrequency":9405,"ĠMi":9406,"enses":9407,"ĠSpirit":9408,"Ġexisted":9409,"Ġjobs":9410,"Ġnone":9411,"rypt":9412,"oro":9413,"Ġmaintenance":9414,"Ġcontroversy":9415,"ĠExp":9416,"ĠJenn":9417,"Season":9418,"ET":9419,"Ġdepos":9420,"aco":9421,"aders":9422,"Ġvictims":9423,"atically":9424,"ĠPictures":9425,"Organ":9426,"Ġcomponents":9427,"phibians":9428,"alph":9429,"ĠPrior":9430,"Ġchallenge":9431,"Male":9432,"ĠKeith":9433,"Ġmile":9434,"Ġcredit":9435,"ogle":9436,"rov":9437,"owell":9438,"alis":9439,"arting":9440,"acre":9441,"ĠTransport":9442,"Ġsoldier":9443,"emale":9444,"Ġadding":9445,"Ġheritage":9446,"Ġmob":9447,"soft":9448,"pent":9449,"Ġinnov":9450,"Ġwrest":9451,"Ġvolumes":9452,"Ġentertainment":9453,"angered":9454,"ĠKit":9455,"Ġrose":9456,"ĠSenator":9457,"iji":9458,"Ġdebuted":9459,"Dan":9460,"force":9461,"ĠBelgian":9462,"ĠBass":9463,"Ġagriculture":9464,"Ġindicate":9465,"resses":9466,"Ġbear":9467,"ĠLiving":9468,"ĠPav":9469,"Ġsuff":9470,"ĠLP":9471,"ĠNeg":9472,"ĠMean":9473,"omon":9474,"Ġdevices":9475,"ĠLarry":9476,"Ġthin":9477,"ĠTerry":9478,"Ġmemorial":9479,"ivation":9480,"1954":9481,"Ġboundary":9482,"ĠObl":9483,"ĠCapital":9484,"Ġcompletion":9485,"ĠHig":9486,"Ã¼n":9487,"Ġspeak":9488,"Ġthousands":9489,"ĠModel":9490,"Ġ56":9491,"Ġlicensed":9492,"otal":9493,"Ġpoly":9494,"udes":9495,"ĠParker":9496,"music":9497,"Ġabsor":9498,"Ġpoems":9499,"ĠRav":9500,"Ġinterchange":9501,"Charts":9502,"Î±":9503,"sters":9504,"Ġpitcher":9505,"LP":9506,"uart":9507,"Ġvic":9508,"Ġclassification":9509,"gressive":9510,"BM":9511,"ictionary":9512,"wig":9513,"zz":9514,"Ġcomics":9515,"Ġlap":9516,"1948":9517,"ulner":9518,"Ġplayoffs":9519,"know":9520,"Ġmobile":9521,"ĠStage":9522,"harm":9523,"Ġprime":9524,"Ġexpedition":9525,"ĠChang":9526,"ĠProfessional":9527,"ĠTele":9528,"ingen":9529,"Ġcriticism":9530,"Ġinfl":9531,"Ġsurrounded":9532,"Ġmovements":9533,"Ġtow":9534,"ĠDrive":9535,"ĠSprings":9536,"ĠRef":9537,"Ġrates":9538,"Ãª":9539,"Ġbattles":9540,"Ġsoul":9541,"actical":9542,"eoples":9543,"Ġshares":9544,"iege":9545,"inate":9546,"Ġwheel":9547,"1952":9548,"ĠFighter":9549,"Treat":9550,"ĠIv":9551,"ĠRobin":9552,"Ġpremiered":9553,"ĠLanka":9554,"http":9555,"Ġmanner":9556,"orp":9557,"ĠFisher":9558,"Ġrating":9559,"Ġsentenced":9560,"otton":9561,"HA":9562,"mates":9563,"ĠNet":9564,"Ġpapers":9565,"1944":9566,"roduction":9567,"1951":9568,"Ġmanusc":9569,"Ġ1885":9570,"idad":9571,"ĠBarbara":9572,"ĠMA":9573,"Class":9574,"Ġcrash":9575,"rior":9576,"Ġrend":9577,"Ġdecline":9578,"arked":9579,"African":9580,"bow":9581,"Ġgrown":9582,"ĠMovement":9583,"ĠPra":9584,"rez":9585,"Tom":9586,"anni":9587,"oga":9588,"Ġoption":9589,"ĠStra":9590,"1946":9591,"ricketer":9592,"ĠAdelaide":9593,"ĠMak":9594,"Ġaffairs":9595,"ĠWrestling":9596,"erbai":9597,"Lou":9598,"borne":9599,"Ġprocesses":9600,"ĠNam":9601,"teenth":9602,"ĠSr":9603,"ĠGreater":9604,"angerous":9605,"ĠCosta":9606,"Ġlongest":9607,"Ġcanc":9608,"ĠAlbum":9609,"Ġelder":9610,"Ġcrisis":9611,"ĠTurner":9612,"Ġaggreg":9613,"1949":9614,"Ġserial":9615,"ichi":9616,"Ġvisitors":9617,"ĠNorm":9618,"aukee":9619,"inae":9620,"Ġactivist":9621,"Ġha":9622,"ĠIce":9623,"EN":9624,"Cap":9625,"Ġga":9626,"Ġinstrumental":9627,"Ġwindow":9628,"Ag":9629,"ĠYam":9630,"Ġannually":9631,"1947":9632,"Ġforming":9633,"Ġcousin":9634,"ĠIvan":9635,"ĠLan":9636,"oret":9637,"Ġspr":9638,"ontin":9639,"Ġcontinuing":9640,"Ġmonarch":9641,"ĠFrances":9642,"Ġeleven":9643,"iere":9644,"ĠHarrison":9645,"Ġdomain":9646,"ework":9647,"Elect":9648,"Ġshore":9649,"Thomas":9650,"uras":9651,"ĠAdditionally":9652,"Ġstrip":9653,"ĠGun":9654,"Out":9655,"uber":9656,"Ġchildhood":9657,"unny":9658,"Ġdeclined":9659,"ĠStudio":9660,"reation":9661,"Mart":9662,"achi":9663,"Ġmir":9664,"Ġrelief":9665,"ĠRAF":9666,"Ġprofession":9667,"fly":9668,"ipients":9669,"ĠMuhammad":9670,"boys":9671,"ete":9672,"Ġprohib":9673,"ĠCultural":9674,"iformesFamily":9675,"Ġachieve":9676,"PR":9677,"Ġstrategy":9678,"ĠCork":9679,"oom":9680,"ĠArena":9681,"ĠPolitical":9682,"ĠOrganization":9683,"SO":9684,"Ġturning":9685,"ĠPil":9686,"oshi":9687,"geon":9688,"Ġartillery":9689,"1941":9690,"Ret":9691,"Ã³w":9692,"ĠWarner":9693,"Ġlasted":9694,"ĠLeeds":9695,"Ġsomeone":9696,"Ġ1892":9697,"ilia":9698,"Ġcounties":9699,"Ġdream":9700,"ĠPierre":9701,"using":9702,"ĠOliver":9703,"Tour":9704,"foot":9705,"ĠSystems":9706,"ĠNature":9707,"ĠEncyclop":9708,"ĠArchbishop":9709,"Ġextens":9710,"Ġreleases":9711,"sterdam":9712,"Ġ1894":9713,"izations":9714,"hered":9715,"Ġdrafted":9716,"What":9717,"White":9718,"amental":9719,"formerly":9720,"Ġdanc":9721,"ĠChel":9722,"Ġraise":9723,"ĠNBC":9724,"Ġinstance":9725,"atar":9726,"Ġmig":9727,"Ã¡s":9728,"Villages":9729,"ĠMediterranean":9730,"Ġpublisher":9731,"uli":9732,"Ġmissed":9733,"anian":9734,"ĠTrinity":9735,"kov":9736,"Ġcircuit":9737,"Fictional":9738,"ĠDragon":9739,"Hz":9740,"andal":9741,"ĠFloren":9742,"onies":9743,"body":9744,"Ġdiscip":9745,"certs":9746,"Ġplatforms":9747,"Royal":9748,"Ġpersonality":9749,"ĠSum":9750,"Ġphr":9751,"Che":9752,"oft":9753,"Rock":9754,"waukee":9755,"Ġhuge":9756,"ĠArabic":9757,"Ġeval":9758,"Ġdated":9759,"Ġ1860":9760,"Ġcommune":9761,"Ġreputation":9762,"Ġfram":9763,"Ġfighter":9764,"Ġhistorians":9765,"Ġremainder":9766,"break":9767,"Ġmental":9768,"Ġequipped":9769,"ĠVictorian":9770,"Ġinvolvement":9771,"Ġwithdraw":9772,"ifican":9773,"roph":9774,"Ġplanet":9775,"Ġcenters":9776,"Ġconsiderable":9777,"Ġfinding":9778,"Ġhelic":9779,"Ġdiseases":9780,"annon":9781,"ÅĦ":9782,"ĠHorse":9783,"ribute":9784,"uez":9785,"ĠAlt":9786,"Ġsuicide":9787,"ĠBird":9788,"ilty":9789,"Ġtell":9790,"ipper":9791,"ĠTang":9792,"roat":9793,"ĠOnline":9794,"cks":9795,"Hen":9796,"Ġliteracy":9797,"omp":9798,"Ġmonument":9799,"alse":9800,"ĠKirk":9801,"Ġfled":9802,"ificance":9803,"1936":9804,"eful":9805,"Ġbiography":9806,"Ġimag":9807,"Ġwarm":9808,"ĠMult":9809,"ĠSyn":9810,"ĠUnd":9811,"à¦":9812,"icon":9813,"vision":9814,"bie":9815,"ricane":9816,"Ġpron":9817,"ĠRace":9818,"Ġmessage":9819,"Ġfear":9820,"racts":9821,"ĠBobby":9822,"Ġdeputy":9823,"ĠStorm":9824,"Ġrebuilt":9825,"keley":9826,"Ġathletes":9827,"ĠAthens":9828,"Ġsurf":9829,"ĠLear":9830,"Ġunderground":9831,"Ġchapel":9832,"Ġproposal":9833,"Charles":9834,"ĠKap":9835,"ĠMuslims":9836,"Ġpatrol":9837,"ĠDiamond":9838,"King":9839,"Ġexternal":9840,"utting":9841,"Ġguitars":9842,"ĠLGBT":9843,"mo":9844,"ĠYe":9845,"Ġmarkets":9846,"ĠCraig":9847,"Ġdeparture":9848,"Ġdistinguished":9849,"ĠNicholas":9850,"Ġsleep":9851,"Ġ1889":9852,"Ġmode":9853,"Ġeggs":9854,"Ġles":9855,"ĠChron":9856,"Ġsolution":9857,"ripts":9858,"ĠPradesh":9859,"ĠArgentine":9860,"February":9861,"ĠTas":9862,"Ġsuspended":9863,"Ġvenue":9864,"Que":9865,"Ġsecure":9866,"ĠEthiop":9867,"Ġhappened":9868,"ĠGot":9869,"ĠCrow":9870,"Ġopinion":9871,"They":9872,"ĠClay":9873,"Ġjurisdiction":9874,"1937":9875,"1943":9876,"ĠAviation":9877,"Hung":9878,"ffield":9879,"ĠShel":9880,"Ġnav":9881,"ĠConstant":9882,"Ġsort":9883,"Ġ1893":9884,"ĠEconomic":9885,"Int":9886,"oko":9887,"Ġswit":9888,"verseas":9889,"ounsel":9890,"Professional":9891,"ĠEug":9892,"ĠHeb":9893,"'ve":9894,"ĠPrincip":9895,"Ġinfluential":9896,"Ġflowers":9897,"ĠEston":9898,"Live":9899,"raham":9900,"ewhere":9901,"ĠSultan":9902,"ĠVas":9903,"ĠPlant":9904,"pm":9905,"Ġdrop":9906,"ĠGround":9907,"Ġrescue":9908,"Ġintent":9909,"dist":9910,"Ġchanging":9911,"Ġemergency":9912,"Ġviolin":9913,"celona":9914,"ĠType":9915,"Ġspoken":9916,"Ġassign":9917,"Me":9918,"nik":9919,"Ġparks":9920,"Ġlieutenant":9921,"owski":9922,"Ġcool":9923,"Ġgather":9924,"........":9925,"ĠKum":9926,"called":9927,"pop":9928,"ancell":9929,"Ġinnings":9930,"ĠUrban":9931,"itects":9932,"ĠBey":9933,"ĠMaced":9934,"ĠCommons":9935,"ĠBuch":9936,"ĠSerbian":9937,"Ġillegal":9938,"ĠHudson":9939,"Ġbringing":9940,"ĠWW":9941,"Ġagents":9942,"hum":9943,"Ã¶n":9944,"mediate":9945,"Ġhip":9946,"Ġ57":9947,"Ġexcell":9948,"Ġfold":9949,"Ġ58":9950,"Recipients":9951,"Ġarc":9952,"ĠSha":9953,"Ġ66":9954,"urst":9955,"iya":9956,"ĠSide":9957,"Ġremember":9958,"Ġride":9959,"ĠIsa":9960,"ĠPast":9961,"Ġorient":9962,"EL":9963,"ĠRoll":9964,"ĠAlice":9965,"Ġ().":9966,"Ġphotography":9967,"rystal":9968,"Ġtie":9969,"ĠBarn":9970,"ĠCelt":9971,"Tur":9972,"ĠEagles":9973,"Ġoccasions":9974,"Ġtheat":9975,"ĠSnow":9976,"Old":9977,"Ġdub":9978,"Just":9979,"Ġpip":9980,"Conn":9981,"Ġsees":9982,"Ġresid":9983,"ĠJonathan":9984,"Ġod":9985,"Ġdig":9986,"Gold":9987,"ĠChallenge":9988,"etween":9989,"weep":9990,"dest":9991,"Ġemigrants":9992,"Ġhorses":9993,"ĠAdmiral":9994,"\";":9995,"ĠTrack":9996,".'":9997,"Ġfile":9998,"Ġbes":9999,"Ġgay":10000,"1918":10001,"onna":10002,"Ġcamera":10003,"Ġnations":10004,"Ġsurgery":10005,"300":10006,"Ġuncle":10007,"Ġdebate":10008,"Deaths":10009,"ĠHav":10010,"ulating":10011,"ĠPhoenix":10012,"Ġqualifying":10013,"Ġ1000":10014,"ĠFace":10015,"Sl":10016,"ĠIranian":10017,"eria":10018,"ocument":10019,"Ġartistic":10020,"aze":10021,"Vol":10022,"holm":10023,"ĠVincent":10024,"Ġmoist":10025,"Ġ1865":10026,"Ġ1861":10027,"lane":10028,"Ġleagues":10029,"ĠJe":10030,"1935":10031,"Ġ1891":10032,"ĠLux":10033,"istical":10034,"Ġhonors":10035,"Ġteach":10036,"Ġpercentage":10037,"Ġtreated":10038,"ricted":10039,"Ġpod":10040,"ĠBenjamin":10041,"ĠFreedom":10042,"Ġcontroversial":10043,"Ġdenied":10044,"Ä«":10045,"Ireland":10046,"agers":10047,"occ":10048,"inations":10049,"ĠSoutheast":10050,"ĠDenver":10051,"Ġresemb":10052,"ĠPi":10053,"Ġwat":10054,"apped":10055,"enos":10056,"Filmography":10057,"ĠTerritory":10058,"lar":10059,"ĠPin":10060,"itis":10061,"mat":10062,"Ġprinted":10063,"Mount":10064,"Ġanything":10065,"Ġhonour":10066,"Ġeliminated":10067,"ĠCob":10068,"ĠMars":10069,"ĠSmall":10070,"ĠRepresentative":10071,"atra":10072,"itations":10073,"eli":10074,"Ġadopt":10075,"Ġprompt":10076,"Ġswitch":10077,"ĠBund":10078,"Ġvessel":10079,"ĠTib":10080,"1938":10081,"ĠCharlotte":10082,"ĠLloyd":10083,"ĠMD":10084,"ĠFif":10085,"bul":10086,"Ġframe":10087,"ĠTech":10088,"Ġsurviving":10089,"Ġdensity":10090,"ĠRic":10091,"cos":10092,"Top":10093,"ĠPle":10094,"ĠTournament":10095,"ĠSerge":10096,"Ġlawyers":10097,"rose":10098,"ĠBath":10099,"ĠJosh":10100,"Ġtribut":10101,"ĠGrey":10102,"Mont":10103,"ĠAction":10104,"Ġappointment":10105,"ĠMonte":10106,"ĠSecondary":10107,"Ġtests":10108,"Ġminimum":10109,"ouch":10110,"Cy":10111,"ĠGoth":10112,"Ġaccounts":10113,"Ġvalid":10114,"Univers":10115,"Ġoperational":10116,"Ġinfantry":10117,"Ġweapon":10118,"Ġnetworks":10119,"ectors":10120,"ingly":10121,"ĠCode":10122,"ĠMagn":10123,"Ġpreserved":10124,"ĠVI":10125,"ĠEddie":10126,"Ġindicated":10127,"Ġgene":10128,"Ġrelocated":10129,"Big":10130,"ĠDelhi":10131,"ĠPel":10132,"backs":10133,"Land":10134,"ullivan":10135,"Ġbuy":10136,"Ġadults":10137,"Go":10138,"fielder":10139,"Ġtools":10140,"Ġdisestablishments":10141,"ĠExper":10142,"ĠStre":10143,"Ġexplained":10144,"Ġmarketing":10145,"ellectual":10146,"cht":10147,"Ġfestivals":10148,"ĠHolland":10149,"ifted":10150,"pers":10151,"olar":10152,"Ġrout":10153,"ĠMann":10154,"ospitals":10155,"ĠFine":10156,"otyp":10157,"Ġeth":10158,"Ġgrey":10159,"Ġconcrete":10160,"ĠEgyptian":10161,"ships":10162,"abilities":10163,"ĠJoy":10164,"Ġclan":10165,"Ġperfect":10166,"ĠMagic":10167,"Ġarrangement":10168,"Pat":10169,"Ġincreasingly":10170,"Ġrepr":10171,"Ġworship":10172,"Ġhabitats":10173,"ruit":10174,"These":10175,"gom":10176,"Ġtenure":10177,"ĠAngels":10178,"Ġstrongly":10179,"Richard":10180,"ĠSad":10181,"ĠTon":10182,"ĠLate":10183,"Ġ250":10184,"Ġbridges":10185,"ĠCold":10186,"ĠMinor":10187,"Final":10188,"urring":10189,"helm":10190,"ĠYankees":10191,"Ġcrosses":10192,"Ġtransm":10193,"fire":10194,"Ġexists":10195,"alg":10196,"ĠBaptist":10197,"Ġsufficient":10198,"Ġeighth":10199,"ĠVegas":10200,"Ġpregn":10201,"Ġnurs":10202,"Ġassociate":10203,"pread":10204,"However":10205,"Ġdonated":10206,"Ġexperiences":10207,"Ġbenefit":10208,"Ġphilos":10209,"Ġ72":10210,"ĠBert":10211,"Ġsettlements":10212,"sis":10213,"pin":10214,"ĠHope":10215,"Ġwides":10216,"ĠDennis":10217,"Peter":10218,"ĠAttorney":10219,"ĠVermont":10220,"uckland":10221,"etition":10222,"Ġgone":10223,"Ġ1862":10224,"Ġpric":10225,"izer":10226,"ĠFalc":10227,"Ġterminal":10228,"ĠJa":10229,"ĠBuddhist":10230,"Ġeffectively":10231,"Ġtoured":10232,"ĠPay":10233,"ĠMick":10234,"Ġtempor":10235,"ĠBrand":10236,"rehensive":10237,"issions":10238,"Green":10239,"ĠByz":10240,"Many":10241,"erate":10242,"ĠOil":10243,"gate":10244,"Sam":10245,"Ġneck":10246,"Ġfurn":10247,"Ġcharacteristics":10248,"ĠFlight":10249,"Ġboats":10250,"Ġchamber":10251,"ĠChristians":10252,"Ġcrimes":10253,"ĠSoft":10254,"Ġparticipation":10255,"Ġthirty":10256,"Ġundert":10257,"Another":10258,"isch":10259,"but":10260,"Ġconsp":10261,"Ġperiods":10262,"VP":10263,"ĠFriends":10264,"iscopal":10265,"mel":10266,"trans":10267,"ĠPerson":10268,"onymous":10269,"Ġsatellite":10270,"ĠStandard":10271,"Ġtribe":10272,"Ġapparently":10273,"Ġwhilst":10274,"ĠLog":10275,"nic":10276,"enburg":10277,"ĠSA":10278,"Ġdepending":10279,"Ġassembly":10280,"shaped":10281,"ĠCroatia":10282,"ĠMalt":10283,"ĠTreaty":10284,"Ġcompetitive":10285,"Ġfur":10286,"usted":10287,"ĠCond":10288,"Ġgall":10289,"Ġblocks":10290,"ĠBav":10291,"ĠWang":10292,"ĠCR":10293,"terior":10294,"Ġhear":10295,"Ġtunnel":10296,"Ġcable":10297,"Ġneut":10298,"ruption":10299,"Ġsubtropical":10300,"ĠRogers":10301,"wyn":10302,"ĠBachelor":10303,"odore":10304,"Ġrepair":10305,"Ġsudden":10306,"Ġunusual":10307,"Ġtribes":10308,"Christian":10309,"ĠLiterature":10310,"Ġyoungest":10311,"Ġaqu":10312,"Ġtexts":10313,"ĠHugh":10314,"ĠLion":10315,"EE":10316,"Ġvisiting":10317,"Ġfantasy":10318,"ĠSalt":10319,"ĠWes":10320,"Ġrounds":10321,"maker":10322,"Ġatmosp":10323,"ĠSteven":10324,"inental":10325,"quir":10326,"Ġapartment":10327,"Ġattractions":10328,"ĠView":10329,"Ġinducted":10330,"Ġabsence":10331,"Ġvisible":10332,"Ġsafe":10333,"Ġattributed":10334,"Ġadvertising":10335,"igion":10336,"Ġwet":10337,"ĠPhilippine":10338,"haus":10339,"Ġfriendly":10340,"encer":10341,"Ġenters":10342,"Ġmonastery":10343,"Educational":10344,"ĠAmsterdam":10345,"Ġearn":10346,"Ġmixing":10347,"abel":10348,"Ġmovies":10349,"Ġ1888":10350,"ĠJefferson":10351,"Ġgender":10352,"Ġasks":10353,"âĢł":10354,"ĠMcL":10355,"ĠCad":10356,"iser":10357,"Camp":10358,"Ġ1863":10359,"Ġsponsored":10360,"Ġwhereas":10361,"Ġgreatly":10362,"Ġeat":10363,"Ġbeautiful":10364,"ĠMason":10365,"Frank":10366,"Ġ99":10367,"Ġdepth":10368,"ipped":10369,"Ġprocessing":10370,"IM":10371,"Ġlandscape":10372,"riptions":10373,"Ġ63":10374,"Song":10375,"nan":10376,"ĠBuc":10377,"ĠGor":10378,"cano":10379,"Ġdestruction":10380,"ĠEconom":10381,"Ġrecommended":10382,"ĠSic":10383,"Ġceleb":10384,"erie":10385,"Ġceased":10386,"aran":10387,"Ã¦":10388,"Ġhen":10389,"ĠMunich":10390,"rus":10391,"wright":10392,"iest":10393,"achment":10394,"eva":10395,"olen":10396,"ĠBright":10397,"oj":10398,"Ġseek":10399,"ĠRovers":10400,"Ġ1864":10401,"Ġmassive":10402,"Ġexception":10403,"Ġphone":10404,"olition":10405,"sa":10406,"League":10407,"assy":10408,"Ġrelationships":10409,"ĠEdwards":10410,"pine":10411,"Ġwants":10412,"Ġleaf":10413,"Ġcolony":10414,"'ll":10415,"ĠConservation":10416,"Ð»":10417,"ĠRidge":10418,"okie":10419,"Ġwindows":10420,"fers":10421,"eda":10422,"OT":10423,"Ġlocally":10424,"ĠHann":10425,"Ġwrong":10426,"Ġpredomin":10427,"ĠBog":10428,"ĠSig":10429,"eyer":10430,"Ġvision":10431,"mpt":10432,"overy":10433,"Ġsatisf":10434,"Ġapproval":10435,"Ġindicates":10436,"Ġsupplies":10437,"Ġaffiliated":10438,"auc":10439,"Ġmartial":10440,"Ġcinema":10441,"asant":10442,"erset":10443,"Ġtransc":10444,"game":10445,"Ġschedule":10446,"oi":10447,"Companies":10448,"ĠHem":10449,"Ġsubspecies":10450,"ĠMend":10451,"Ġoutput":10452,"Ġconcerts":10453,"Ġattracted":10454,"ellion":10455,"ĠChristianity":10456,"Ġthemes":10457,"scar":10458,"ĠBrid":10459,"andom":10460,"Ġrhythm":10461,"levard":10462,"Ġmoves":10463,"Brazil":10464,"Ġacted":10465,"ported":10466,"Ġdrew":10467,"ĠBarcelona":10468,"ĠOperations":10469,"ĠSay":10470,"Ġmuseums":10471,"Municipalities":10472,"Ġinner":10473,"ĠSection":10474,"ĠNat":10475,"Ġknew":10476,"1934":10477,"Ġwedding":10478,"itual":10479,"ĠAzerbai":10480,"Ġid":10481,"ennial":10482,"Under":10483,"ĠGet":10484,"ĠCer":10485,"such":10486,"ĠSche":10487,"Ġdrummer":10488,"Ġ1886":10489,"rise":10490,"Ġeasy":10491,"ĠMovie":10492,"Academic":10493,"ĠMasters":10494,"Ġamongst":10495,"ĠPeak":10496,"ĠPirates":10497,"iw":10498,"atchewan":10499,"1933":10500,"ĠQuarter":10501,"Ġremix":10502,"reck":10503,"Ġeverything":10504,"ĠBerkeley":10505,"Ġarchitectural":10506,"rier":10507,"country":10508,"ĠContemporary":10509,"Ġbases":10510,"peare":10511,"ĠBaby":10512,"ĠCurt":10513,"ĠPatt":10514,"rington":10515,"Miss":10516,"Ġposted":10517,"ĠNeil":10518,"Ġpredecess":10519,"Ġimmediate":10520,"Ġcaps":10521,"hy":10522,"amese":10523,"Ġ1850":10524,"Baseball":10525,"1932":10526,"Ġmeetings":10527,"How":10528,"ĠHeavy":10529,"Ġtherap":10530,"Ġrabb":10531,"ĠEvent":10532,"Sport":10533,"Ġacknow":10534,"ĠRing":10535,"Atl":10536,"Ġrecru":10537,"Ġsuffering":10538,"ĠLis":10539,"utter":10540,"ĠGay":10541,"Mag":10542,"Ġhttp":10543,"Ġpicked":10544,"theless":10545,"1931":10546,"ershire":10547,"Ġtrading":10548,"Ġbats":10549,"ossible":10550,"akespeare":10551,"Ġwars":10552,"utton":10553,"pat":10554,"Ġdiam":10555,"Ã±a":10556,"closed":10557,"Ġspaces":10558,"ĠBulgaria":10559,"Law":10560,"Ġcompeting":10561,"Ġpalace":10562,"Ġdecides":10563,"original":10564,"Ġpatient":10565,"Dep":10566,"Ġrepresentatives":10567,"def":10568,"Ġshift":10569,"Dou":10570,"ĠBears":10571,"ĠPolicy":10572,"Ġdrugs":10573,"esignated":10574,"Sm":10575,"graduate":10576,"ĠPeninsula":10577,"ĠBrun":10578,"ĠCrime":10579,"ĠPersian":10580,"var":10581,"Little":10582,"Ġelectoral":10583,"Ġstyles":10584,"ĠAS":10585,"ailing":10586,"Ġbreeding":10587,"liga":10588,"Ġcolle":10589,"Ġpatron":10590,"ĠCommissioner":10591,"ĠProp":10592,"Ġwidespread":10593,"Ġministers":10594,"ĠBatt":10595,"Ġgraduating":10596,"ĠClinton":10597,"ourse":10598,"ĠCou":10599,"berry":10600,"ĠGermans":10601,"high":10602,"jab":10603,"ĠOblast":10604,"Ġdeployed":10605,"amics":10606,"Ġhorn":10607,"ĠHear":10608,"RS":10609,"Ġextent":10610,"amous":10611,"Ġ1887":10612,"Ġmurdered":10613,"ĠUniversal":10614,"ĠPic":10615,"Ġsignificance":10616,"ĠChester":10617,"Ġratio":10618,"Love":10619,"Ġbrick":10620,"bus":10621,"Ġrestoration":10622,"Ġsigns":10623,"ĠUlt":10624,"Ġlocomotives":10625,"rieved":10626,"bes":10627,"ĠRams":10628,"Ġduo":10629,"Ġpanel":10630,"Ġ95":10631,"Ġstable":10632,"Ġdress":10633,"ĠOttawa":10634,"Ġ62":10635,"Ġerected":10636,"ublished":10637,"Ġgradually":10638,"Ġ85":10639,"gomery":10640,"ĠKur":10641,"Ġunderstand":10642,"Ġdisb":10643,"ixon":10644,"Hol":10645,"Ġrapidly":10646,"ĠMembers":10647,"Ġdefence":10648,"ĠLiga":10649,"viously":10650,"hour":10651,"ĠAssistant":10652,"Ġopportunities":10653,"wald":10654,"Ġnomination":10655,"ĠOber":10656,"flow":10657,"ĠGilbert":10658,"ĠERA":10659,"opt":10660,"Ġranks":10661,"ĠHarold":10662,"ĠGonz":10663,"cho":10664,"ĠShaw":10665,"Ġnormally":10666,"Argent":10667,"eric":10668,"Ġdual":10669,"celand":10670,"ĠHad":10671,"ĠLauren":10672,"Ġcricketer":10673,"Ġhat":10674,"agre":10675,"erted":10676,"Ġtraveled":10677,"BO":10678,"ĠBrisb":10679,"Ġelectron":10680,"Ġupgr":10681,"mill":10682,"Ġtransmission":10683,"Add":10684,"ĠNigeria":10685,"Ġbegun":10686,"1922":10687,"1929":10688,"arat":10689,"ĠHerbert":10690,"Amphibians":10691,"imir":10692,"Ġneuro":10693,"ijing":10694,"ĠCatherine":10695,"Ġclaiming":10696,"Ġsend":10697,"Ġloyal":10698,"ĠRac":10699,"Writers":10700,"strong":10701,"Ġexperimental":10702,"Swed":10703,"Ġgenre":10704,"Ġsessions":10705,"ĠNC":10706,"Ġ76":10707,"Ġgiant":10708,"Ġdetailed":10709,"raction":10710,"ĠBrisbane":10711,"onda":10712,"Ġcontribution":10713,"ĠMarvel":10714,"new":10715,"Ġguide":10716,"ĠInstead":10717,"Ġ69":10718,"Ġthousand":10719,"Saint":10720,"Ġdescribe":10721,"ĠGrove":10722,"rys":10723,"only":10724,"Ġ61":10725,"aton":10726,"opy":10727,"Ġib":10728,"Ġeditions":10729,"á¹":10730,"Ġ1884":10731,"Ġillness":10732,"lik":10733,"zes":10734,"oku":10735,"ĠLebanon":10736,"ĠFaculty":10737,"Ġenjoyed":10738,"Ġfrequent":10739,"Irish":10740,"Ġfil":10741,"ĠHerman":10742,"Ġrepresentation":10743,"Ġattending":10744,"ĠHarbor":10745,"Ġstatue":10746,"lia":10747,"ĠMul":10748,"Alex":10749,"oard":10750,"Ġhal":10751,"Ġ68":10752,"alus":10753,"ĠYu":10754,"Ġreveals":10755,"ĠProductions":10756,"was":10757,"ĠDelaware":10758,"Ġholid":10759,"1928":10760,"Ġcasual":10761,"asha":10762,"Ġmast":10763,"ento":10764,"eters":10765,"ĠGrade":10766,"Ġwrestling":10767,"Ġformations":10768,"ĠPont":10769,"ĠMig":10770,"Ġ67":10771,"agi":10772,"ĠReds":10773,"Ġruling":10774,"Ġuseful":10775,"Ġrefug":10776,"Ġemployment":10777,"Ġdiscovery":10778,"Ġpartly":10779,"Ġtruth":10780,"Ġafterwards":10781,"ĠExpl":10782,"ĠBengal":10783,"Mr":10784,"Ġsupports":10785,"Ġmerger":10786,"itially":10787,"Ġdrawing":10788,"Ġhundreds":10789,"ĠSah":10790,"legiate":10791,"apse":10792,"1927":10793,"ĠInsp":10794,"ultane":10795,"Ġbin":10796,"Books":10797,"iour":10798,"osl":10799,"ĠHab":10800,"Ġwrites":10801,"Ġtort":10802,"Ġmall":10803,"Ġfix":10804,"ĠSurvey":10805,"Ġthing":10806,"iche":10807,"ardens":10808,"rows":10809,"iu":10810,"empt":10811,"Ġrecovered":10812,"Ġasc":10813,"ĠHelen":10814,"oons":10815,"ĠHerz":10816,"ĠArtist":10817,"Ġconnecting":10818,"ĠGang":10819,"forming":10820,"went":10821,"Ġfoss":10822,"ĠRaid":10823,"ĠRalph":10824,"Ġoperator":10825,"Ġpassage":10826,"Ġcomplic":10827,"Players":10828,"Ġsentence":10829,"ĠWallace":10830,"ĠFriday":10831,"Ġpul":10832,"ĠBald":10833,"ifies":10834,"sor":10835,"atha":10836,"ĠDeep":10837,"Ġabroad":10838,"ĠButler":10839,"ĠMurphy":10840,"ĠAround":10841,"ĠNewcastle":10842,"Ġindigenous":10843,"uable":10844,"Ġconversion":10845,"Ġeveryone":10846,"ĠSP":10847,"Ġdiscontin":10848,"Ġgrandfather":10849,"Ġdefinition":10850,"monton":10851,"osc":10852,"uba":10853,"IL":10854,"ĠSusan":10855,"ĠWalt":10856,"minute":10857,"Ġchoose":10858,"agons":10859,"ĠAuckland":10860,"ĠSeb":10861,"NT":10862,"page":10863,"upt":10864,"ĠPetersburg":10865,"Ġnest":10866,"person":10867,"ĠÃĹ":10868,"ĠComputer":10869,"ĠToy":10870,"ildren":10871,"Ġintegrated":10872,"eties":10873,"ĠRivers":10874,"ĠPerry":10875,"oker":10876,"Ġcustomers":10877,"anti":10878,"iology":10879,"Despite":10880,"Ġcul":10881,"Ġparticipants":10882,"Ġve":10883,"Ġresumed":10884,"Government":10885,"RT":10886,"Ġcivilian":10887,"ĠCoach":10888,"Ġbright":10889,"Ġsubsidiary":10890,"Ġconst":10891,"Ġroots":10892,"Sal":10893,"ĠBond":10894,"ĠYang":10895,"ĠSierra":10896,"ente":10897,"athon":10898,"Ġwick":10899,"ĠTed":10900,"Ġcancelled":10901,"Ġcomponent":10902,"Ġranking":10903,"igible":10904,"ĠChapel":10905,"rano":10906,"ĠProtestant":10907,"ussia":10908,"opsis":10909,"Jim":10910,"Ġmarry":10911,"Ġyield":10912,"arged":10913,"aba":10914,"Ġoccasion":10915,"rip":10916,"ĠAnglican":10917,"hal":10918,"gary":10919,"Ġspin":10920,"Ġ1881":10921,"ĠVlad":10922,"Ġbonus":10923,"Ġgymn":10924,"Ġhearing":10925,"Ġcommanded":10926,"ĠLag":10927,"Ġconcerned":10928,"Ġexcav":10929,"tailed":10930,"minster":10931,"aho":10932,"occo":10933,"Ġmerchant":10934,"care":10935,"ĠMol":10936,"Ġproport":10937,"ieg":10938,"Ġreaches":10939,"Ġparent":10940,"ĠSheffield":10941,"Ġpartially":10942,"unes":10943,"ĠTransportation":10944,"ĠRight":10945,"Ġparam":10946,"ulnerable":10947,"Ġready":10948,"sted":10949,"Ġstudying":10950,"ffee":10951,"ĠShang":10952,"Ġgrades":10953,"Ġincidents":10954,"Ġspoke":10955,"ĠSak":10956,"Ġcategories":10957,"Ġbid":10958,"Ġlose":10959,"ĠShin":10960,"mand":10961,"ĠConstruction":10962,"1925":10963,"Ġwire":10964,"endar":10965,"ĠCurrent":10966,"1919":10967,"ĠLar":10968,"Ġregime":10969,"Ġpossession":10970,"ĠFly":10971,"Ġguilty":10972,"Ġcontroll":10973,"ĠArtillery":10974,"Ġstrict":10975,"ĠLen":10976,"ĠPedro":10977,"ĠTu":10978,"idal":10979,"Ġabuse":10980,"ĠKay":10981,"Ġaccord":10982,"ĠExchange":10983,"Ġshopping":10984,"ĠTag":10985,"Ġfee":10986,"1924":10987,"ĠKle":10988,"Ġproductions":10989,"Ġconcentration":10990,"ĠHebrew":10991,"Ġchoir":10992,"Ġmanufacturers":10993,"Kn":10994,"Ġfalling":10995,"emed":10996,"ĠWas":10997,"ĠFormer":10998,"Ġbanned":10999,"rooms":11000,"Ġhonorary":11001,"ospel":11002,"1914":11003,"iza":11004,"Ġcharacterized":11005,"ĠLac":11006,"izz":11007,"ilis":11008,"400":11009,"ĠEU":11010,"Ġpseud":11011,"Ġopponents":11012,"Ġconvention":11013,"iture":11014,"Ġemerged":11015,"omic":11016,"Sk":11017,"Ġsubstitute":11018,"ĠStuart":11019,"Ġkeeping":11020,".),":11021,"Ġorganisations":11022,"otten":11023,"Ġspending":11024,"Ġmonitor":11025,"ĠTommy":11026,"ĠCircuit":11027,"Ġencouraged":11028,"math":11029,"Ġdoubles":11030,"exp":11031,"ĠWinn":11032,"ĠInv":11033,"ĠReed":11034,"ĠPanama":11035,"ĠYale":11036,"ederation":11037,"elta":11038,"ographers":11039,"ĠRoom":11040,"ĠHughes":11041,"cycle":11042,"imo":11043,"Ġlakes":11044,"Ġsupporters":11045,"case":11046,"Ġbelonging":11047,"Ġrub":11048,"world":11049,"arant":11050,"Ġcoat":11051,"iveness":11052,"Ġconvert":11053,"Ġcorporate":11054,"ĠMonteneg":11055,"Dutch":11056,"live":11057,"Long":11058,"ront":11059,"Ġ1882":11060,"1926":11061,"ĠOverall":11062,"Tor":11063,"ĠMerc":11064,"Ġprovision":11065,"ĠDest":11066,"owed":11067,"Ġinsurance":11068,"cester":11069,"Ġassets":11070,"Ġimmigrants":11071,"ĠSÃ£o":11072,"Ġscientist":11073,"ĠGhost":11074,"ĠShakespeare":11075,"Ġconj":11076,"abe":11077,"ĠDin":11078,"Ġ77":11079,"Ġlimits":11080,"VID":11081,"eals":11082,"Ġpale":11083,"Ġbishops":11084,"eting":11085,"rets":11086,"Ġreporter":11087,"Adm":11088,"ĠMorning":11089,"Ġpersp":11090,"Ġresolution":11091,"Ġ78":11092,"log":11093,"ĠAllied":11094,"ĠRou":11095,"gun":11096,"Ġidentify":11097,"ĠBeaut":11098,"ĠApple":11099,"Ġninth":11100,"ĠSaskatchewan":11101,"ĠAway":11102,"ephew":11103,"ĠAnglo":11104,"ĠMadison":11105,"Mad":11106,"Ġcontinu":11107,"ĠSor":11108,"Politicians":11109,"ĠSwan":11110,"Ġmasc":11111,"Ġspell":11112,"Ġnovelists":11113,"Ġmanufacturer":11114,"Ġelse":11115,"Ġbenefits":11116,"pring":11117,"Ġcolors":11118,"ĠDra":11119,"Ġfacilit":11120,"Ġmatters":11121,"Ġbattalion":11122,"Ġreven":11123,"gorith":11124,"ĠSuz":11125,"ĠGrace":11126,"Ġsurviv":11127,"ĠMS":11128,"ĠGoogle":11129,"Ġsuperior":11130,"Ġtorn":11131,"Ġsympt":11132,"itarian":11133,"Ġtraditions":11134,"Ġpure":11135,"'d":11136,"Ġmarine":11137,"Ġouter":11138,"Ġnoble":11139,"Ġgovernments":11140,"Ġliquid":11141,"entle":11142,"allest":11143,"ĠLem":11144,"ĠIndustry":11145,"ĠSlovakia":11146,"ĠJess":11147,"ĠTerm":11148,"ĠBoulevard":11149,"ibraries":11150,"Ġhighlight":11151,"ĠKos":11152,"Ġbehalf":11153,"ĠSomerset":11154,"Novels":11155,"hl":11156,"Ã©r":11157,"auer":11158,"ĠNE":11159,"Ġinaugural":11160,"ĠDanny":11161,"Ġquarterback":11162,"rors":11163,"Ġalcohol":11164,"Us":11165,"Ġfacing":11166,"hetic":11167,"Ġdiameter":11168,"ĠSoon":11169,"sub":11170,"Ġbaby":11171,"ĠMunicipal":11172,"KO":11173,"ĠCase":11174,"London":11175,"ottingham":11176,"ĠPearl":11177,"ĠJunction":11178,"Ġclothing":11179,"htm":11180,"Ġgallery":11181,"ĠIC":11182,"ĠJar":11183,"Ġextreme":11184,"elected":11185,"Ġ74":11186,"Ġtwin":11187,"ĠConserv":11188,"ĠPul":11189,"itol":11190,"four":11191,"Ġkidn":11192,"Ġproduces":11193,"Ġvast":11194,"amep":11195,"ĠArchive":11196,"ĠConfederate":11197,"Ġheir":11198,"aca":11199,"ĠBear":11200,"ĠMilwaukee":11201,"Ġdriven":11202,"Before":11203,"ĠIndustrial":11204,"rag":11205,"ĠArchives":11206,"ĠÃģ":11207,"ĠIndianapolis":11208,"ĠMusical":11209,"bone":11210,"ĠTechnical":11211,"ĠBod":11212,"Ġcargo":11213,"Ġhunting":11214,"elia":11215,"Ġanyone":11216,"Ġseeking":11217,"Ġexcess":11218,"etti":11219,"film":11220,"etch":11221,"ĠWald":11222,"agonist":11223,"Ġreportedly":11224,"Ġdominated":11225,"ethyl":11226,"Ġtalent":11227,"1921":11228,"ouncill":11229,"Ġmounted":11230,"Ġorn":11231,"ĠFlorence":11232,"ĠKid":11233,"Ġrecommend":11234,"Ġsilent":11235,"ĠKnights":11236,"ĠArc":11237,"Ġdesignation":11238,"Ġescort":11239,"AP":11240,"RI":11241,"lu":11242,"ĠKenya":11243,"Mass":11244,"Sil":11245,"ĠStudents":11246,"Ġnominations":11247,"ĠOakland":11248,"Ãī":11249,"Tim":11250,"Rivers":11251,"unswick":11252,"ĠBulgarian":11253,"Ġinhab":11254,"Ġocean":11255,"Transport":11256,"ĠDodgers":11257,"Ġphenomen":11258,"Ġcoached":11259,"Ġsteps":11260,"Prot":11261,"ĠCornwall":11262,"Ã©d":11263,"Ġmathematics":11264,"ĠâĤ":11265,"Ġstudios":11266,"Short":11267,"ĠPerth":11268,"Ġwel":11269,"College":11270,"ĠÅł":11271,"Ġtouring":11272,"actory":11273,"Ġsubstantial":11274,"imation":11275,"ĠRenaissance":11276,"Ġcloser":11277,"Ġexclusively":11278,"Ġcash":11279,"Ġstruggle":11280,"Ġkit":11281,"ĠMontgomery":11282,"ĠGT":11283,"Ġmanufactured":11284,"Ġathletic":11285,"Ġjournals":11286,"Ġbeating":11287,"Ġresearchers":11288,"ĠGolf":11289,"1923":11290,"ĠRoche":11291,"ĠPrice":11292,"cons":11293,"ĠHob":11294,"Ġ1876":11295,"Ġdoesn":11296,"ĠSaudi":11297,"ĠIss":11298,"Ġsample":11299,"ĠFlow":11300,"ĠHarvey":11301,"Ġfit":11302,"Ġdiocese":11303,"SD":11304,"Ġlock":11305,"ĠUg":11306,"Rob":11307,"Bre":11308,"otion":11309,"Ġorigins":11310,"Ġpatterns":11311,"she":11312,"furt":11313,"ificial":11314,"hibition":11315,"Ġviewed":11316,"ĠVenice":11317,"Ġclar":11318,"ĠZe":11319,"Ġelectrical":11320,"anced":11321,"Ġsalt":11322,"Ġdrum":11323,"ĠKun":11324,"Western":11325,"Ġminority":11326,"ĠReturn":11327,"ipino":11328,"Ġtomb":11329,"ĠColumbus":11330,"Ġthir":11331,"Ġphotographs":11332,"eto":11333,"ĠWellington":11334,"sequently":11335,"Ġaimed":11336,"Ġinvolves":11337,"Ġvariant":11338,"Columb":11339,"ĠLamb":11340,"Ġgenetic":11341,"Ġgolden":11342,"kar":11343,"ĠPrest":11344,"eras":11345,"Ġnucle":11346,"1910":11347,"BL":11348,"Ġproteins":11349,"Ġlingu":11350,"embourg":11351,"ĠHenri":11352,"ĠAdv":11353,"Ġbacter":11354,"Ġimpress":11355,"Ben":11356,"uran":11357,"Grand":11358,"Ġappropriate":11359,"Ġcemetery":11360,"istani":11361,"ĠWells":11362,"Ġclosing":11363,"Ġrestricted":11364,"Ġathletics":11365,"Ã©l":11366,"ĠPete":11367,"Ġpeoples":11368,"Ġurg":11369,"making":11370,"bel":11371,"hematic":11372,"Ġelectricity":11373,"Ġvoting":11374,"Ġdiverse":11375,"reprene":11376,"ĠSeg":11377,"ĠEncyclopedia":11378,"ĠIndependence":11379,"Ġboundaries":11380,"ĠPhillips":11381,"ema":11382,"Ġconnect":11383,"Ġparliamentary":11384,"ĠVilla":11385,"Ġspeaking":11386,"Ġsurvive":11387,"Ġadvice":11388,"ĠHamb":11389,"onomous":11390,"Ġexplo":11391,"Ġcommenced":11392,"encing":11393,"onnie":11394,"Ġprovinces":11395,"ĠBrowns":11396,"ĠScotia":11397,"vet":11398,"disc":11399,"anthrop":11400,"ĠHein":11401,"ĠBened":11402,"ĠArnold":11403,"Ġregulations":11404,"Ġpublicly":11405,"alysis":11406,"Ġneither":11407,"áº":11408,"ĠAlong":11409,"Ġremove":11410,"2023":11411,"inda":11412,"umberland":11413,"ĠLeo":11414,"Ġ71":11415,"ĠDevil":11416,"uations":11417,"Ġexceed":11418,"Ġeldest":11419,"Ġconnections":11420,"alam":11421,"Bob":11422,"Ġtrend":11423,"ĠBeijing":11424,"Ġrelation":11425,"ĠCoal":11426,"tracks":11427,"Ġsoap":11428,"Ġfitted":11429,"ĠPalmer":11430,"Ġexposed":11431,"ĠEsc":11432,"quarter":11433,"issa":11434,"Ġ1875":11435,"direct":11436,"ĠBM":11437,"Ġphysician":11438,"Ġ96":11439,"Ġconductor":11440,"Ġtrials":11441,"Ġprinciples":11442,"Ġfra":11443,"ĠRuth":11444,"ĠYugoslavia":11445,"Ġbreaking":11446,"Results":11447,"ĠPerformance":11448,"Ġseeing":11449,"oned":11450,"ĠDame":11451,"Ġweekend":11452,"ĠScar":11453,"rating":11454,"Ġempt":11455,"scale":11456,"ĠIP":11457,"ods":11458,"Ġsuitable":11459,"Ġturb":11460,"ĠAncient":11461,"aru":11462,"ĠPut":11463,"ĠOg":11464,"erally":11465,"Super":11466,"Ġju":11467,"ĠManuel":11468,"Ġarrangements":11469,"Ġscope":11470,"Ġnickname":11471,"marks":11472,"ĠVern":11473,"Ġ1867":11474,"Ġassisted":11475,"ivic":11476,"Ġearning":11477,"plex":11478,"Ġwearing":11479,"Ġfalse":11480,"rency":11481,"acked":11482,"Ġ600":11483,"Ġty":11484,"Do":11485,"inceton":11486,"Ġflora":11487,"Ġaffiliate":11488,"Ġphoto":11489,"ĠIb":11490,"Ġestablishing":11491,"anim":11492,"Ġcommunications":11493,"ĠActor":11494,"Ġsummary":11495,"ovanni":11496,"ĠProfile":11497,"rost":11498,"ĠBour":11499,"ĠTasman":11500,"abric":11501,"Ġsecured":11502,"Ġgram":11503,"Ġsisters":11504,"ĠDrama":11505,"Blue":11506,"Ġbreast":11507,"Ġcoup":11508,"Ġ1878":11509,"ĠIceland":11510,"Israel":11511,"ancellor":11512,"IR":11513,"Ġ110":11514,"stance":11515,"Critical":11516,"ĠLead":11517,"ĠKill":11518,"avia":11519,"Ġmanage":11520,"ĠMahar":11521,"ĠSz":11522,"ĠScout":11523,"ĠCampaign":11524,"usk":11525,"Ġgat":11526,"avor":11527,"Ġthrone":11528,"Ġimplemented":11529,"lee":11530,"Ġhoused":11531,"ĠAires":11532,"orious":11533,"Ġboss":11534,"Ġ73":11535,"Ġcharity":11536,"Ġpictures":11537,"Ġcabinet":11538,"ĠPy":11539,"iliar":11540,"Ġassemb":11541,"Ġsequel":11542,"Its":11543,"Treaties":11544,"Ġdatabase":11545,"Ġapply":11546,"ĠDivis":11547,"Ġsimultane":11548,"Ġdecisions":11549,"second":11550,"ĠTogether":11551,"playing":11552,"Ġ1871":11553,"ĠMust":11554,"1917":11555,"ĠFlying":11556,"Ġtanks":11557,"ĠCruz":11558,"iffer":11559,"mother":11560,"artet":11561,"atta":11562,"Ġ82":11563,"Ġactivists":11564,"Ġ1840":11565,"ortion":11566,"ĠRaymond":11567,"Ġfunctional":11568,"ĠMeanwhile":11569,"ifts":11570,"ĠOriginally":11571,"Ġdesire":11572,"Ġgardens":11573,"Mel":11574,"ĠMarin":11575,"Ġ88":11576,"Ġ1883":11577,"ĠMik":11578,"ĠBrunswick":11579,"Ġcontinuous":11580,"ĠFerr":11581,"Ġ1879":11582,"ĠImm":11583,"Ġsight":11584,"ĠNext":11585,"Ġdispute":11586,"USA":11587,"anion":11588,"pres":11589,"ĠCarr":11590,"Ġswitched":11591,"Ġtons":11592,"ĠLC":11593,"Ġevac":11594,"edo":11595,"ĠSheriff":11596,"afe":11597,"unning":11598,"Ġindex":11599,"cover":11600,"ĠUnlike":11601,"Ġdangerous":11602,"ĠTibet":11603,"Ġqualify":11604,"ĠPick":11605,"rien":11606,"ĠCalc":11607,"ĠMachine":11608,"uta":11609,"Ġrated":11610,"ĠNashville":11611,"first":11612,"Ġoutstanding":11613,"Ġsang":11614,"ĠSuch":11615,"ĠFuture":11616,"enders":11617,"ĠMethodist":11618,"roe":11619,"ĠKath":11620,"front":11621,"iens":11622,"notes":11623,"ĠWag":11624,"fficiency":11625,"ĠStudy":11626,"ĠCP":11627,"ĠRat":11628,"Ġcreative":11629,"ĠQual":11630,"Ġfarmers":11631,"Jack":11632,"elfare":11633,"bbffbb":11634,"Ġalternate":11635,"Ġpossibility":11636,"Ġfauna":11637,"ĠSumm":11638,"Ġacquisition":11639,"ĠST":11640,"overe":11641,"ĠCant":11642,"ĠBelf":11643,"Ġessential":11644,"EM":11645,"ĠNear":11646,"ovan":11647,"Ġritual":11648,"angle":11649,"Ġtournaments":11650,"Mac":11651,"ĠMontana":11652,"Ġorganised":11653,"ĠSyl":11654,"Ġtruck":11655,"Ġdeparted":11656,"Ġtram":11657,"Ġscen":11658,"ĠFeat":11659,"Ġfill":11660,"Ġsettlers":11661,"ĠMoz":11662,"ĠKil":11663,"ĠYellow":11664,"Ġemperor":11665,"arr":11666,"Ġmechanism":11667,"ĠPeng":11668,"Ġgenerated":11669,"Ġ79":11670,"story":11671,"Bill":11672,"ĠNy":11673,"ocket":11674,"Ġlabour":11675,"Ġ1872":11676,"Ġ1868":11677,"ĠSerie":11678,"Tube":11679,"ricks":11680,"Ġintellectual":11681,"Ġsubmarine":11682,"Main":11683,"ĠCreat":11684,"ĠFoster":11685,"Ġhelps":11686,"Ġopponent":11687,"Ġdominant":11688,"ĠCle":11689,"ĠAdvis":11690,"histor":11691,"ĠNumber":11692,"ĠProtection":11693,"Ġrecipient":11694,"ĠMills":11695,"Ġcattle":11696,"Ġcanal":11697,"ĠWilhelm":11698,"ĠIntelligence":11699,"Ġimperial":11700,"boro":11701,"Ġrecognised":11702,"ĠCircle":11703,"Ġtribute":11704,"ĠLor":11705,"HC":11706,"ĠLeonard":11707,"Ġcamps":11708,"ĠDictionary":11709,"ĠGuitar":11710,"ĠEssex":11711,"Ġrunners":11712,"Ġcongreg":11713,"Ġforg":11714,"ĠGust":11715,"lain":11716,"Ġ1874":11717,"entry":11718,"Ġnovelist":11719,"Ġpermission":11720,"Ġclearly":11721,"Ġaviation":11722,"ĠGregory":11723,"Ġnotice":11724,"%),":11725,"asted":11726,"ĠSul":11727,"Ġblues":11728,"Ġclosure":11729,"Ġmechanical":11730,"ĠChapter":11731,"Ġclock":11732,"Ġfunded":11733,"Ġconcerning":11734,"quer":11735,"ĠPrivate":11736,"Common":11737,"isp":11738,"Ġsongwriter":11739,"asia":11740,"ĠCov":11741,"ĠSet":11742,"ĠLuke":11743,"Ġcathedral":11744,"Pan":11745,"Ġbelieves":11746,"France":11747,"Ġreduction":11748,"vol":11749,"Ġconstitution":11750,"idency":11751,"ĠPep":11752,"Ġrarely":11753,"ĠNathan":11754,"Ġconfig":11755,"ĠCox":11756,"ĠErnest":11757,"cf":11758,"appe":11759,"Ġcompens":11760,"ameplay":11761,"esis":11762,"ĠOutstanding":11763,"OL":11764,"ĠRif":11765,"ĠCroatian":11766,"offs":11767,"prus":11768,"BE":11769,"Ġpersu":11770,"Ġvirus":11771,"ĠCha":11772,"ĠWatson":11773,"unda":11774,"Ġbuses":11775,"AN":11776,"ĠProduction":11777,"Ġcircumstances":11778,"ĠRhodes":11779,"ĠBorn":11780,"ĠBrig":11781,"thlete":11782,"Ġsailed":11783,"ieu":11784,"riculum":11785,"Ġoriginated":11786,"Ġstim":11787,"SPN":11788,"irth":11789,"ĨĴ":11790,"omo":11791,"Athletes":11792,"overty":11793,"Cath":11794,"rift":11795,"ĠAx":11796,"Ġcompleting":11797,"ĠEight":11798,"ahan":11799,"Ġuncertain":11800,"Ġdisplayed":11801,"ĠMicrosoft":11802,"ĠSocialist":11803,"nut":11804,"ĠViol":11805,"ĠShir":11806,"ĠRange":11807,"Ġillustrated":11808,"ĠSean":11809,"Ġ1866":11810,"Ġcrossed":11811,"Bro":11812,"race":11813,"ĠIsle":11814,"ija":11815,"Fore":11816,"Ġrelegated":11817,"Ġpartners":11818,"Ġtrump":11819,"Ġrecruit":11820,"ĠStein":11821,"oots":11822,"Ġpointed":11823,"Ġdiver":11824,"Ġcarries":11825,"hall":11826,"ĠBiography":11827,"Soviet":11828,"Ġdoors":11829,"oque":11830,"oday":11831,"enton":11832,"ĠCongo":11833,"dal":11834,"ĠStories":11835,"ĠNorthwest":11836,"ĠAbraham":11837,"ĠFish":11838,"Ġlabels":11839,"Let":11840,"ĠGuild":11841,"ĠPoetry":11842,"Ġdebt":11843,"ĠCOVID":11844,"Ġgauge":11845,"Ġpand":11846,"Ġthereafter":11847,"Ġanswer":11848,"ĠMTV":11849,"Ġconstitut":11850,"Ġbull":11851,"ĠWed":11852,"ffcc":11853,"ĠApost":11854,"Ġongoing":11855,"ĠMath":11856,"],":11857,"iliary":11858,"two":11859,"Burials":11860,"ĠEagle":11861,"Ġexpect":11862,"erala":11863,"Ġtool":11864,"ĠWithin":11865,"Ġlowest":11866,"Ġagree":11867,"Ġ1877":11868,"Selected":11869,"Î¿":11870,"Ġrising":11871,"ĠTong":11872,"ĠTree":11873,"estone":11874,"Ġvictim":11875,"Ġnephew":11876,"Ġcommented":11877,"Rugby":11878,"Ġbankrupt":11879,"Ġmarks":11880,"Ġfifteen":11881,"Ġtight":11882,"Ġconservative":11883,"Ġ81":11884,"City":11885,"ĠMort":11886,"Ġranging":11887,"mid":11888,"rawn":11889,"ĠWheel":11890,"Ġmor":11891,"kg":11892,"Ġbroadcasts":11893,"Ġels":11894,"leph":11895,"Di":11896,"ĠGate":11897,"Ġwaste":11898,"adows":11899,"ĠBraves":11900,"ĠDevon":11901,"Ġlatest":11902,"ĠMuch":11903,"written":11904,"ĠCycl":11905,"ahl":11906,"Ġidentical":11907,"yler":11908,"Ġoverseas":11909,"ĠDemocrat":11910,"Ġca":11911,"ĠMidd":11912,"Ġalgorith":11913,"BB":11914,"1916":11915,"ovina":11916,"Ġdistribut":11917,"ĠTodd":11918,"onial":11919,"ĠClarke":11920,"Ġranges":11921,"Ġinsects":11922,"Ġriding":11923,"uclear":11924,"ĠNewton":11925,"Ġsynonym":11926,"ĠBach":11927,"Ġstress":11928,"team":11929,"isen":11930,"Ġsung":11931,"ĠNancy":11932,"ĠKrist":11933,"Ġdismissed":11934,"acional":11935,"Ġsuppress":11936,"Ġdiscussion":11937,"Musicians":11938,"Sur":11939,"Ġhapp":11940,"Ġincreases":11941,"ĠAges":11942,"Group":11943,"Ġtorped":11944,"ĠTax":11945,"brook":11946,"hematical":11947,"ĠBrooks":11948,"Ġvocalist":11949,"Ġretiring":11950,"Ġliberal":11951,"ĠVict":11952,"Ġabolished":11953,"ĠBeh":11954,"ĠBuenos":11955,"ĠAlger":11956,"ĠXI":11957,"rea":11958,"phis":11959,"overeign":11960,"ĠEnvironmental":11961,"omber":11962,"ĠBes":11963,"Ġdepartments":11964,"Val":11965,"iden":11966,"aelic":11967,"ĠRu":11968,"Ġmidfield":11969,"Ġreorgan":11970,"uer":11971,"|}":11972,"ĠKin":11973,"ĠAnnual":11974,"Ġlanded":11975,"Ġrevised":11976,"Ġflights":11977,"Ġ98":11978,"Ġrib":11979,"Three":11980,"Ġphysics":11981,"tz":11982,"month":11983,"Washington":11984,"ĠFormula":11985,"1915":11986,"Ġcharter":11987,"aris":11988,"Ġorche":11989,"Ġ1873":11990,"Chinese":11991,"Ġscholarship":11992,"Ġelsewhere":11993,"ĠStill":11994,"ĠOriginal":11995,"Business":11996,"Ġsaved":11997,"Ġparking":11998,"Ġacknowled":11999,"Ġ101":12000,"aeus":12001,"ĠArticle":12002,"ĠManager":12003,"Ġstretch":12004,"Ġtours":12005,"âĢľ":12006,"Ġslaves":12007,"Ġwalking":12008,"ĠNan":12009,"ĠTampa":12010,"ĠBennett":12011,"ĠHits":12012,"ĠFranÃ§":12013,"Ġbiological":12014,"Record":12015,"Ġconclusion":12016,"ĠArabia":12017,"Ġrequested":12018,"adier":12019,"Ġwealthy":12020,"Ġrestaurants":12021,"Met":12022,"Ġcod":12023,"Ġmans":12024,"ĠRhode":12025,"Ġguests":12026,"Serv":12027,"Ġelementary":12028,"ĠJen":12029,"ĠLegion":12030,"Ġtreaty":12031,"Ġborough":12032,"Ġmetropolitan":12033,"Ġvertical":12034,"earing":12035,"Ġsustain":12036,"ĠFriedrich":12037,"ocracy":12038,"Ġsummit":12039,"ĠBosnia":12040,"ĠCubs":12041,"Ġcompiled":12042,"Str":12043,"ĠEld":12044,"Ġaccessible":12045,"Ġalter":12046,"Ġscores":12047,"SE":12048,"ĠHaz":12049,"ontane":12050,"Ġmal":12051,"ilo":12052,"Ġpowered":12053,"Ġslave":12054,"ĠSpencer":12055,"songwriter":12056,"dess":12057,"ĠSweet":12058,"Ġrevenue":12059,"ĠBanks":12060,"Ġengineers":12061,"Ġpursue":12062,"Ġbalance":12063,"Ġenforcement":12064,"igin":12065,"Ġattempting":12066,"Ġdiscussed":12067,"Ġwithdrew":12068,"Ġdefenders":12069,"Ġimplementation":12070,"ea":12071,"Ġ92":12072,"Ġinitiated":12073,"ĠFinance":12074,"Ġtot":12075,"uncan":12076,"ĠData":12077,"Ġbelongs":12078,"Ġalive":12079,"Ġresponded":12080,"ĠCC":12081,"Ġdistingu":12082,"Ġpriests":12083,"Great":12084,"Ġviolent":12085,"Ġessay":12086,"Ġinterviews":12087,"ĠArchitecture":12088,"Ġconstitutional":12089,"ĠSang":12090,"Ġmini":12091,"imen":12092,"Ġprince":12093,"elect":12094,"Tra":12095,"ĠSullivan":12096,"named":12097,"Ġlift":12098,"omi":12099,"ĠAaron":12100,"ĠMarqu":12101,"uchi":12102,"erals":12103,"Äĩ":12104,"icas":12105,"Joseph":12106,"erated":12107,"Ġretreat":12108,"Ġtraditionally":12109,"Ġaffair":12110,"Ġmeat":12111,"Ġrandom":12112,"Os":12113,"ĠMut":12114,"ĠAB":12115,"Ġmanaging":12116,"Ġmarch":12117,"ĠDavies":12118,"ĠDuc":12119,"Ġsporting":12120,"ĠDol":12121,"Ġexecution":12122,"ansk":12123,"Ġisolated":12124,"Distribution":12125,"Ġdiet":12126,"Ġpreferred":12127,"Ġdiscrim":12128,"Ġfat":12129,"kan":12130,"Ġtopics":12131,"ĠGaz":12132,"illon":12133,"Ġstyl":12134,"ĠSpart":12135,"Ġdisbanded":12136,"ĠByzantine":12137,"Ġbutter":12138,"Ġsubmitted":12139,"Ġvisits":12140,"ben":12141,"atsu":12142,"Ġpremiere":12143,"Ġaccomp":12144,"ĠBros":12145,"ĠOcc":12146,"ivo":12147,"mers":12148,"Ġmos":12149,"ĠShar":12150,"ĠOct":12151,"Ann":12152,"Ġintrod":12153,"ĠMC":12154,"Ġmachines":12155,"ĠCalgary":12156,"pose":12157,"ĠKitt":12158,"Ġexpand":12159,"apur":12160,"ĠDesert":12161,"Ġpret":12162,"ĠLoss":12163,"ĠDh":12164,"ternoon":12165,"ĠJoint":12166,"Ġspend":12167,"Ġbrigade":12168,"FI":12169,"Ġhybrid":12170,"Ø§":12171,"abil":12172,"Singles":12173,"NS":12174,"egal":12175,"Ġpropag":12176,"official":12177,"Henry":12178,"asks":12179,"ilian":12180,"Ġ800":12181,"ĠPunjab":12182,"iracy":12183,"Ġviewers":12184,"ĠNottingham":12185,"onica":12186,"Ġlayer":12187,"Ġpunk":12188,"Release":12189,"Economy":12190,"Ġsmooth":12191,"ĠBeth":12192,"hm":12193,"ĠSold":12194,"ĠHeights":12195,"Ġsolar":12196,"ĠFolk":12197,"ĠStanford":12198,"ĠTreas":12199,"ĠDaw":12200,"Ġpreparation":12201,"ĠAFL":12202,"Mor":12203,"opened":12204,"ĠKra":12205,"ÄŁ":12206,"rn":12207,"ĠâĤ¬":12208,"ĠCele":12209,"Politics":12210,"Ġlisten":12211,"Ġprest":12212,"ĠIng":12213,"Ġanimation":12214,"ucker":12215,"free":12216,"1912":12217,"ĠPand":12218,"Head":12219,"irts":12220,"ĠFoot":12221,"Ġsymptoms":12222,"illes":12223,"Ġstrategic":12224,"arten":12225,"odia":12226,"ioned":12227,"ĠWals":12228,"Ġdelivery":12229,"Ġcentres":12230,"Ġphotos":12231,"enti":12232,"uku":12233,"ymph":12234,"Ġbrands":12235,"ĠSyria":12236,"Ġextensively":12237,"ovich":12238,"ĠNepal":12239,"Ġdistinctive":12240,"ĠArg":12241,"Ġenroll":12242,"ĠAmazon":12243,"fin":12244,"1913":12245,"Between":12246,"ĠGuardian":12247,"Ġclinical":12248,"ĠVe":12249,"ĠVersion":12250,"ĠKer":12251,"ygen":12252,"este":12253,"Ice":12254,"Ġavo":12255,"Ġcontested":12256,"Ġninet":12257,"ĠArmenia":12258,"ĠLaz":12259,"apters":12260,"Ġbeauty":12261,"ĠJoan":12262,"Ġow":12263,"RO":12264,"ussels":12265,"Ġunlike":12266,"ĠRabbi":12267,"eing":12268,"Ġfarming":12269,"Ġmaps":12270,"Ġintention":12271,"Ġreporting":12272,"Ġsounds":12273,"ĠFig":12274,"sized":12275,"VA":12276,"Ġanthrop":12277,"ĠJava":12278,"Ġbio":12279,"Ġcertified":12280,"Ġprinciple":12281,"ĠLomb":12282,"Ġadventure":12283,"Ġusage":12284,"ibilities":12285,"ĠMine":12286,"ĠMang":12287,"lights":12288,"urse":12289,"ĠTherefore":12290,"Ġarriving":12291,"ref":12292,"ĠHD":12293,"Ġvictories":12294,"ystem":12295,"ĠCH":12296,"Ġarrives":12297,"Ġcomprehensive":12298,"Ġconnects":12299,"Ġconfess":12300,"Ġsugar":12301,"Ġpartial":12302,"ĠCeltic":12303,"ollo":12304,"Ġhoriz":12305,"strument":12306,"ĠKrish":12307,"ĠActress":12308,"ĠChair":12309,"Ġ93":12310,"ĠManit":12311,"Ġdisch":12312,"ĠEdmonton":12313,"ĠOw":12314,"piece":12315,"ĠIsaac":12316,"aude":12317,"ĠLess":12318,"Ġinternationally":12319,"ishi":12320,"Ġsteep":12321,"ĠEconomics":12322,"Ġmanif":12323,"ĠMonday":12324,"arc":12325,"post":12326,"Ġexpensive":12327,"osexual":12328,"Ġhills":12329,"ulg":12330,"Ġdevoted":12331,"Ġflew":12332,"Ġrocks":12333,"ĠClare":12334,"Ġsurpr":12335,"Ġextend":12336,"umps":12337,"iership":12338,"Basketball":12339,"Ham":12340,"alling":12341,"Ġtravelled":12342,"agle":12343,"Ġrid":12344,"ceived":12345,"Ġspots":12346,"ĠGardens":12347,"olics":12348,"Louis":12349,"Ġmargin":12350,"ĠNAS":12351,"Ġburned":12352,"ĠBlock":12353,"ĠStef":12354,"ĠPod":12355,"Ġblow":12356,"length":12357,"ĠPlanet":12358,"irgin":12359,"tains":12360,"etters":12361,"ĠCuban":12362,"Ġpupils":12363,"Ġconventional":12364,"DE":12365,"green":12366,"ĠHat":12367,"Ġannex":12368,"terbury":12369,"Ġrespective":12370,"Ġlooked":12371,"ĠCyprus":12372,"Ġgate":12373,"Ġtravels":12374,"Ġcorresponding":12375,"core":12376,"Ġcave":12377,"Ġlinear":12378,"ĠArtists":12379,"rupted":12380,"itus":12381,"namese":12382,"ĠSoph":12383,"Ġspecialized":12384,"stand":12385,"ĠTalk":12386,"Ġsymp":12387,"Ġtub":12388,"arrier":12389,"ĠLuxembourg":12390,"elin":12391,"Ġintercept":12392,"Ġargument":12393,"Ġexercise":12394,"Ġstem":12395,"Ġneighbourhood":12396,"enda":12397,"Ġsav":12398,"Ġearthqu":12399,"ĠJamaica":12400,"Ġreceives":12401,"Ġaboard":12402,"vor":12403,"1900":12404,"Ġcartoon":12405,"ĠHigher":12406,"ju":12407,"rous":12408,"Ġmathematic":12409,"ĠCraw":12410,"iott":12411,"Ġward":12412,"ĠSter":12413,"omed":12414,"ĠOwn":12415,"ĠKate":12416,"Ġcampaigns":12417,"ĠCardinal":12418,"eca":12419,"ĠWonder":12420,"Ġwider":12421,"Ġremote":12422,"Ġstructural":12423,"Ġhyper":12424,"Ġusual":12425,"Syn":12426,"Ġcruc":12427,"ĠTransit":12428,"ĠHarper":12429,"Ġsculpture":12430,"ĠLaura":12431,".:":12432,"Ġideal":12433,"sur":12434,"ocene":12435,"ĠYouTube":12436,"Ġwritings":12437,"Ur":12438,"Ġcrops":12439,"ĠNak":12440,"quest":12441,"ĠWoods":12442,"itic":12443,"Ġties":12444,"esty":12445,"Ġdrink":12446,"Ġsimpl":12447,"headed":12448,"ĠWorkers":12449,"Ġrecovery":12450,"ĠAw":12451,"Ġinitiative":12452,"ĠJur":12453,"Ġclergy":12454,"ĠStudent":12455,"Ġinherited":12456,"ĠEC":12457,"hin":12458,"Ġfocuses":12459,"Ġpole":12460,"Ġpractical":12461,"Ġattendance":12462,"ĠParad":12463,"ĠGeoff":12464,"ĠSO":12465,"ĠOpp":12466,"Ġtemporarily":12467,"ĠTales":12468,"iao":12469,"archy":12470,"addy":12471,"Ġstops":12472,"Ġreact":12473,"ĠAccess":12474,"ĠTrain":12475,"Ġtourist":12476,"ĠEvangel":12477,"ĠMalay":12478,"ĠDemocrats":12479,"list":12480,"Ġportrait":12481,"Den":12482,"icing":12483,"ovsky":12484,"Ġprol":12485,"Ġroot":12486,"ĠParks":12487,"Ġlogo":12488,"Ġassists":12489,"Ġbay":12490,"Ma":12491,"owder":12492,"ĠChan":12493,"Ġ97":12494,"Ġrect":12495,"Ġescaped":12496,"ĠWeekly":12497,"ĠGamb":12498,"Ġblog":12499,"ĠDelta":12500,"Ġelevated":12501,"Ġcooper":12502,"ska":12503,"Ġdepicted":12504,"Ġknock":12505,"Ġcongressional":12506,"ĠPath":12507,"ĠPlayers":12508,"ĠOwen":12509,"lift":12510,"Ġboxing":12511,"ĠOrd":12512,"Ġventure":12513,"ĠCec":12514,"Acc":12515,"Ġhidden":12516,"acco":12517,"ardi":12518,"ĠLex":12519,"Central":12520,"Ġbath":12521,"ĠRus":12522,"Ġaltitude":12523,"Every":12524,"Oh":12525,"ĠVoice":12526,"Ġpilots":12527,"Day":12528,"erness":12529,"Ġshops":12530,"Non":12531,"uto":12532,"ĠHighland":12533,"abul":12534,"ĠFaith":12535,"Ġmagic":12536,"Ġinterpretation":12537,"ĠTiger":12538,"Ġnut":12539,"Ġloop":12540,"ĠAzerbaijan":12541,"Ġexit":12542,"feat":12543,"ĠGabriel":12544,"Ġchest":12545,"ĠKerala":12546,"writing":12547,"ashire":12548,"ĠTall":12549,"amine":12550,"Ġresort":12551,"ĠTrad":12552,"Four":12553,"Ġevil":12554,"Ġreservoir":12555,"Ġdesert":12556,"parts":12557,"Ġseeds":12558,"ĠLeic":12559,"inyl":12560,"Ġchron":12561,"acles":12562,"ĠNapole":12563,"Ġpromoting":12564,"Ġexcellent":12565,"areness":12566,"Ġdebuts":12567,"zing":12568,"Ġdescribing":12569,"Ġpioneer":12570,"Ġfuneral":12571,"gie":12572,"Ġprey":12573,"Ġdissolved":12574,"velt":12575,"GM":12576,"Ġnegotiations":12577,"week":12578,"onso":12579,"Los":12580,"Ġ1869":12581,"ĠAndrews":12582,"ĠStockholm":12583,"avier":12584,"lit":12585,"Ġtemperatures":12586,"igrated":12587,"ĠRaf":12588,"Ġbirthday":12589,"Ã½":12590,"ĠFinancial":12591,"ĠSisters":12592,"Mary":12593,"Foot":12594,"ĠTrump":12595,"ĠLiberty":12596,"ĠMull":12597,"Ġkilometers":12598,"Ġsamples":12599,"Min":12600,"ĠHeaven":12601,"appeared":12602,"ĠLakes":12603,"Democratic":12604,"fa":12605,"uchy":12606,"ĠInterstate":12607,"Ġtouchdowns":12608,"even":12609,"ĠWildlife":12610,"Ġoptions":12611,"Ġmorph":12612,"ĠMaz":12613,"ĠBag":12614,"andra":12615,"Ġorange":12616,"Ġexposure":12617,"Ġforwards":12618,"Ġeconomics":12619,"Mex":12620,"ĠLeader":12621,"Ġinfluences":12622,"ĠAllan":12623,"ĠDominican":12624,"atics":12625,"atem":12626,"Ġmit":12627,"Ġtale":12628,"ĠThai":12629,"ĠWings":12630,"ische":12631,"ĠStevens":12632,"ĠAdventures":12633,"Ġendangered":12634,"airo":12635,"Ġerror":12636,"agasc":12637,"Ġapproached":12638,"ĠBelgrade":12639,"Ġfasc":12640,"ĠRemix":12641,"Ġabilities":12642,"Ġplain":12643,"Ġindustries":12644,"ĠPlayStation":12645,"Ġtape":12646,"Ġgrows":12647,"Ġcircle":12648,"Ġ87":12649,"Form":12650,"erek":12651,"osophical":12652,"ĠWarsaw":12653,"ĠIraqi":12654,"ĠBak":12655,"Ġallies":12656,"itary":12657,"Ġoutbreak":12658,"ĠShop":12659,"izard":12660,"Ð²":12661,"ĠResources":12662,"horn":12663,"ĠGhana":12664,"Ġstrengthen":12665,"des":12666,"ĠBelfast":12667,"Ġ89":12668,"Ġcavalry":12669,"forms":12670,"ÅĤaw":12671,"Ġcopper":12672,"ĠTravel":12673,"Ġkeyboard":12674,"itzer":12675,"ĠRevolutionary":12676,"hero":12677,"Ġalliance":12678,"Ġfulf":12679,"ups":12680,"atum":12681,"ĠPlat":12682,"Direct":12683,"ĠRah":12684,"Ġ84":12685,"ĠDistinguished":12686,"ĠFiction":12687,"irms":12688,"Ġtherapy":12689,"ifier":12690,"Av":12691,"Ġ1857":12692,"CAR":12693,"senal":12694,"ĠRelations":12695,"Ġinternet":12696,"olin":12697,"ificate":12698,"Ġexplains":12699,"zed":12700,"Ġpairs":12701,"Ġconsolid":12702,"arma":12703,"uxiliary":12704,"Ġprox":12705,"Ġnam":12706,"Ġpredecessor":12707,"Ġverse":12708,"erne":12709,"ĠCavalry":12710,"join":12711,"ĠOscar":12712,"Ġsubsc":12713,"Ġworn":12714,"about":12715,"rica":12716,"south":12717,"ĠAj":12718,"Ġpandemic":12719,"Ñĥ":12720,"ĠMiguel":12721,"idi":12722,"byter":12723,"iago":12724,"Ġdifficulties":12725,"ĠMade":12726,"Ġprices":12727,"Ġrevers":12728,"oyage":12729,"Ġevolved":12730,"Ġaggregate":12731,"Ġdeemed":12732,"Ġpromin":12733,"Ġpermitted":12734,"Round":12735,"Po":12736,"ĠTir":12737,"reated":12738,"omorph":12739,"icken":12740,"ĠLook":12741,"attered":12742,"ĠDurham":12743,"Ġrifle":12744,"ĠReading":12745,"Ġfib":12746,"Ġformula":12747,"Ġphrase":12748,"ĠSF":12749,"ĠLegend":12750,"ĠHerald":12751,"Ġunless":12752,"si":12753,"tees":12754,"ĠSchol":12755,"ĠMaurice":12756,"azi":12757,"ĠSaw":12758,"Ġrum":12759,"arms":12760,"abwe":12761,"ĠPiet":12762,"ĠVolunte":12763,"eno":12764,"Ġfeelings":12765,"ĠFurthermore":12766,"Ġ83":12767,"Ġprosp":12768,"Ġtemples":12769,"Ġdecide":12770,"Ġguarant":12771,"ĠCampus":12772,"Ġveteran":12773,"Ġdemonstrated":12774,"ĠLie":12775,"ĠRonald":12776,"Ġpetition":12777,"ĠValent":12778,"Ġpap":12779,"Ġcondem":12780,"Ġdescendants":12781,"iatric":12782,"Ġ86":12783,"Swedish":12784,"otto":12785,"ĠBras":12786,"borg":12787,"Ã©m":12788,"âĪĴ":12789,"Ġradical":12790,"Ġbone":12791,"Ġefficient":12792,"Smith":12793,"Ġteeth":12794,"Game":12795,"Ġbattery":12796,"UN":12797,"diocese":12798,"ĠSpider":12799,"ĠPaulo":12800,"Ġphotographer":12801,"Ġeligible":12802,"his":12803,"ĠWu":12804,"isha":12805,"Ġpharm":12806,"arians":12807,"ĠLot":12808,"ocals":12809,"Ġsyndrome":12810,"Ġna":12811,"Schools":12812,"Ġ94":12813,"Ġpulled":12814,"Ġhope":12815,"esa":12816,"ĠMerit":12817,"ĠHir":12818,"record":12819,"through":12820,"Ġlooks":12821,"Ġresignation":12822,"ĠHindi":12823,"ĠNine":12824,"Ġvolleyball":12825,"Ġslowly":12826,"ĠRoth":12827,"Ġcomparison":12828,"ĠHaven":12829,"ĠSebast":12830,"Good":12831,"Ġ1848":12832,"ĠExped":12833,"Ġcontrols":12834,"Chicago":12835,"Ġcarrier":12836,"Ġhence":12837,"ĠGas":12838,"ĠProvincial":12839,"Ġhttps":12840,"Ġpitchers":12841,"Ġspeaker":12842,"insky":12843,"Ġpermanently":12844,"ĠAndrÃ©":12845,"atinum":12846,"compass":12847,"Ġlegacy":12848,"Ġneutral":12849,"Ġtimber":12850,"sm":12851,"ĠArmed":12852,"berto":12853,"ĠAbu":12854,"Off":12855,"Ext":12856,"ĠDivisiÃ³n":12857,"Ġspecimens":12858,"Ġcharacteristic":12859,"Ġcommentary":12860,"zig":12861,"umbent":12862,"oyle":12863,"cor":12864,"Ġaffect":12865,"ĠSalvador":12866,"Mur":12867,"Ġibn":12868,"imates":12869,"ĠLak":12870,"âĢ¢":12871,"Est":12872,"ogg":12873,"Ġdiscontinued":12874,"ĠMario":12875,"Ġprogrammes":12876,"ĠSex":12877,"ĠEllis":12878,"ME":12879,"GC":12880,"ĠAch":12881,"intendo":12882,"Route":12883,"ĠRice":12884,"Ġlegislative":12885,"ipeg":12886,"rh":12887,"RL":12888,"py":12889,"Ġacademy":12890,"ĠHamburg":12891,"ĠCompetition":12892,"elly":12893,"Ġcollective":12894,"ployment":12895,"imbabwe":12896,"Ġriders":12897,"Ġcollaps":12898,"fred":12899,"Ġoutdoor":12900,"Ġexclusive":12901,"Ġ1859":12902,"immer":12903,"ĠSony":12904,"oser":12905,"okes":12906,"Ġfighters":12907,"district":12908,"ĠFuj":12909,"osevelt":12910,"Ġfinance":12911,"Ġfiles":12912,"ĠHopkins":12913,"cestershire":12914,"leston":12915,"icia":12916,"bin":12917,"ĠRush":12918,"ĠVent":12919,"Ġtelling":12920,"Ġvoters":12921,"ensen":12922,"ĠForum":12923,"rators":12924,"Ġinhib":12925,"ĠDeuts":12926,"Ġvel":12927,"ĠAgriculture":12928,"oces":12929,"ccffcc":12930,"ĠIF":12931,"pes":12932,"Ġprove":12933,"Ġlayout":12934,"turn":12935,"lew":12936,"Polish":12937,"UCN":12938,"inee":12939,"ĠBailey":12940,"omes":12941,"ĠFilms":12942,"Ġdiscovers":12943,"Ġconstituencies":12944,"Ġministry":12945,"common":12946,"ĠQuest":12947,"Ġdifficulty":12948,"Like":12949,"nolds":12950,"OP":12951,"ĠWhere":12952,"Ġprotests":12953,"ĠAircraft":12954,"Ġcollapse":12955,"Ġgeomet":12956,"ĠFranco":12957,"ĠAub":12958,"Ġworst":12959,"ĠWatch":12960,"ĠThose":12961,"ĠHero":12962,"Ġpeer":12963,"IF":12964,"ĠCauc":12965,"ustrated":12966,"isons":12967,"ieve":12968,"Ġwaiting":12969,"Ġgal":12970,"ĠChi":12971,"ĠHenderson":12972,"ĠCF":12973,"Ġhospitals":12974,"Ġgrandson":12975,"ĠJacques":12976,"essed":12977,"Ġchallenges":12978,"Carl":12979,"igi":12980,"ĠObserv":12981,"ĠWorth":12982,"Ġfootage":12983,"Cr":12984,"Win":12985,"opus":12986,"\":":12987,"Mo":12988,"iability":12989,"eapolis":12990,"Ġbasin":12991,"Ġruler":12992,"ĠESPN":12993,"Ġcomfort":12994,"ĠFu":12995,"ĠRhin":12996,"ĠScientific":12997,"ĠSchw":12998,"ĠKarn":12999,"ĠStrike":13000,"apest":13001,"ĠShanghai":13002,"rah":13003,"Ġvariation":13004,"600":13005,"ĠBradford":13006,"Ġjury":13007,"Fred":13008,"Ġregul":13009,"Ter":13010,"cott":13011,"Ġremark":13012,"Ġunions":13013,"Ġdeck":13014,"ĠFranz":13015,"Ġthanks":13016,"Ġhyd":13017,"Ġcru":13018,"oded":13019,"umer":13020,"Ġremoval":13021,"ä¸":13022,"Ġpor":13023,"Ġticket":13024,"Ġcommunist":13025,"Brazilian":13026,"ĠSudan":13027,"ĠRaw":13028,"Ġparticipating":13029,"Ġvariable":13030,"ĠJerem":13031,"Cor":13032,"ĠNewport":13033,"ĠColin":13034,"ĠPrison":13035,"ĠWhe":13036,"Ġdepict":13037,"ĠXX":13038,"Ġapproaches":13039,"Ġload":13040,"Swiss":13041,"FFFFFF":13042,"âĢĿ.":13043,"Ġinspiration":13044,"Ġenemies":13045,"GS":13046,"Ġrecalled":13047,"ĠPhillies":13048,"icking":13049,"Ġbombing":13050,"Ġrice":13051,"Through":13052,"Ġaccommodate":13053,"Ġdisaster":13054,"ĠPent":13055,"Ġblind":13056,"Ġcitizen":13057,"Ġraising":13058,"Ġlistings":13059,"ĠLoren":13060,"Ġhamlet":13061,"Ġsuspension":13062,"Ġtargets":13063,"ĠDoug":13064,"Ġdors":13065,"Ġpoison":13066,"ĠDund":13067,"Ġgoalkeeper":13068,"ĠLancashire":13069,"ĠAberde":13070,"ĠPink":13071,"itro":13072,"Ġflash":13073,"Ġtackles":13074,"Ġupdated":13075,"orum":13076,"ĠThunder":13077,"ĠAltern":13078,"eded":13079,"Ġhistorically":13080,"Ġspeakers":13081,"ĠTrin":13082,"ĠCowboys":13083,"ĠNeed":13084,"1911":13085,"Ġenrolled":13086,"Step":13087,"restrial":13088,"Ġenthus":13089,"mir":13090,"ĠThorn":13091,"Water":13092,"Ġdocumented":13093,"Ġrevival":13094,"Ġsiege":13095,"Ġbars":13096,"ĠDuncan":13097,"empl":13098,"ĠAbdul":13099,"ĠArd":13100,"sterious":13101,"ĠSimilar":13102,"Ġimprovements":13103,"ĠFourth":13104,"ullah":13105,"Ġthinking":13106,"Ġbaron":13107,"Ġnarrative":13108,"Special":13109,"Ġhypothes":13110,"Legacy":13111,"ĠInterview":13112,"Ġrelevant":13113,"Ġcompound":13114,"Ġcooperation":13115,"Ġexhibit":13116,"ĠGuards":13117,"Ġabsol":13118,"ĠBatman":13119,"rates":13120,"ensions":13121,"Ġessentially":13122,"that":13123,"ĠKas":13124,"Ġexplan":13125,"Ġgear":13126,"ĠMobile":13127,"oting":13128,"ĠGiovanni":13129,"Association":13130,"ĠHous":13131,"beat":13132,"ĠShortly":13133,"ashes":13134,"ĠConcert":13135,"roid":13136,"ĠLucas":13137,"amy":13138,"Ġdecorated":13139,"ĠCombat":13140,"ĠHispan":13141,"ĠEventually":13142,"ĠCommerce":13143,"Ġguitarists":13144,"ĠCzechosl":13145,"ÅĻ":13146,"Ġconven":13147,"ĠChiefs":13148,"Ġbell":13149,"ĠGlou":13150,"ĠHolmes":13151,"Ġrecruited":13152,"Stat":13153,"ĠOtto":13154,"Ġinformed":13155,"Ġtechnologies":13156,"ĠVII":13157,"rave":13158,"Ġperspective":13159,"Ġinstallation":13160,"Ġimprisoned":13161,"Sem":13162,"Ġtum":13163,"itan":13164,"Ġfabric":13165,"Ġmidfielder":13166,"Ġast":13167,"ĠPrinceton":13168,"ints":13169,"Ġtermin":13170,"rage":13171,"Ġfert":13172,"Ġshield":13173,"Ġdelayed":13174,"Ġthrew":13175,"Ġchemistry":13176,"isan":13177,"ĠPublications":13178,"ĠPrague":13179,"Ġmeasured":13180,"ĠManitoba":13181,"ĠHiro":13182,"Ġchrom":13183,"ĠEditor":13184,"ĠCinema":13185,"ĠFat":13186,"ĠSussex":13187,"fast":13188,"Ġmoral":13189,"Ġextends":13190,"Ġvolunteers":13191,"Ġgran":13192,"ĠCome":13193,"Ġfavorite":13194,"Ġartwork":13195,"cock":13196,"Ġattacking":13197,"ĠCrist":13198,"lez":13199,"iev":13200,"ĠPalestine":13201,"arin":13202,"ĠKash":13203,"Ġfilming":13204,"ambers":13205,"Ġadministered":13206,"speaking":13207,"Ġacres":13208,"Ġgross":13209,"Ġreferring":13210,"ĠLithuania":13211,"Ġparishes":13212,"phab":13213,"rapped":13214,"ĠPalm":13215,"ĠKazakh":13216,"onduct":13217,"ĠLeft":13218,"Ġpicks":13219,"ĠShield":13220,"Rem":13221,"ĠAirlines":13222,"ĠArmstrong":13223,"That":13224,"Ġtributary":13225,"Prior":13226,"SL":13227,"Ġdemands":13228,"ĠMarl":13229,"ĠChad":13230,"oil":13231,"igue":13232,"agram":13233,"agascar":13234,"Ġradar":13235,"speed":13236,"ĠEpiscopal":13237,"Ġrecipients":13238,"ĠSaxony":13239,"Catholic":13240,"isle":13241,"ĠBelarus":13242,"Ġ1830":13243,"ĠTab":13244,"isting":13245,"Ġdistinction":13246,"Ġathlete":13247,"urus":13248,"Ġenh":13249,"800":13250,"amation":13251,"Ġphosph":13252,"Ships":13253,"inery":13254,"ĠWestminster":13255,"Ġcompetitors":13256,"ĠDy":13257,"non":13258,"ĠSoci":13259,"ĠPorts":13260,"ĠLA":13261,"Ġaccel":13262,"Ġtox":13263,"iffe":13264,"encia":13265,"Ġarrive":13266,"Ġabund":13267,"Ġarchaeological":13268,"Ġstandings":13269,"Ġcompositions":13270,"Ġwinds":13271,"Ġtact":13272,"angular":13273,"Ġdramatic":13274,"Ġanchor":13275,"Ġtenth":13276,"Ġ91":13277,"fight":13278,"Ġcyl":13279,"ĠIndies":13280,"ĠXV":13281,"Ġdeter":13282,"Ġrig":13283,"Ġconfused":13284,"Ġsure":13285,"ĠDob":13286,"Ġreducing":13287,"Ġansw":13288,"aping":13289,"quet":13290,"arted":13291,"Ġflex":13292,"ĠMets":13293,"clesiast":13294,"Ġartificial":13295,"Ġpredominantly":13296,"Ġshorter":13297,"Ġcoalition":13298,"Coll":13299,"lando":13300,"Ġrelay":13301,"ĠGrande":13302,"Ġvirtual":13303,"ĠNg":13304,"Ġrelating":13305,"ĠUntil":13306,"ĠAna":13307,"Ġaccompany":13308,"More":13309,"Ġfer":13310,"Ġgraphics":13311,"ĠPiano":13312,"Ġfundamental":13313,"Mult":13314,"ĠSou":13315,"ĠBark":13316,"anyon":13317,"lymouth":13318,"ĠMotors":13319,"Ġprosecut":13320,"Matt":13321,"itudes":13322,"Ġcomedian":13323,"Ġhelicopter":13324,"Ġsitting":13325,"ylan":13326,"bey":13327,"ĠIT":13328,"Ġsupplied":13329,"Ġcoinc":13330,"Ġwasn":13331,"ĠCatholics":13332,"Ġinstitute":13333,"onny":13334,"Ġoblig":13335,"Ġwarfare":13336,"ÃĹ":13337,"rary":13338,"ĠComedy":13339,"Ġencompass":13340,"lla":13341,"Ġreceiver":13342,"colm":13343,"ĠGothic":13344,"ĠSey":13345,"ĠFinals":13346,"Ġcompounds":13347,"Ġratings":13348,"Ġdisorder":13349,"á¸":13350,"Ġmilk":13351,"ĠOz":13352,"Argentine":13353,"ĠUrugu":13354,"ocent":13355,"ĠSafety":13356,"Ġpianist":13357,"Att":13358,"shore":13359,"Ġmouse":13360,"Ġatmosphere":13361,"Ġwidow":13362,"ifax":13363,"Ġcoins":13364,"onaut":13365,"Ġthriller":13366,"ĠLiu":13367,"ĠWarri":13368,"ĠTanz":13369,"Ġbreaks":13370,"icycle":13371,"Ġbench":13372,"ĠCorp":13373,"apa":13374,"Ġkings":13375,"egovina":13376,"Ġbelt":13377,"Ġemphasis":13378,"Ġbypass":13379,"ĠSof":13380,"ĠPhilosophy":13381,"umph":13382,"Ġpresenter":13383,"ĠBundes":13384,"Ġdisturb":13385,"ĠBenedict":13386,"urated":13387,"Ġshrub":13388,"Ġorganic":13389,"ĠLisa":13390,"Ġtested":13391,"Jud":13392,"Modern":13393,"asse":13394,"ĠJustin":13395,"Broad":13396,"ĠJung":13397,"ĠCN":13398,"Ġtourism":13399,"Ġneighboring":13400,"ĠIsh":13401,"ĠâĢł":13402,"Ġconsistent":13403,"ÈĽ":13404,"Place":13405,"ĠBlake":13406,"ĠLutheran":13407,"ĠHod":13408,"ĠManila":13409,"Ġcolumns":13410,"alks":13411,"elo":13412,"Ġexactly":13413,"Fac":13414,"mount":13415,"Ġinterpre":13416,"Ġmemor":13417,"Ġrevol":13418,"ĠWriters":13419,"erts":13420,"Ġwarri":13421,"Ġliv":13422,"Ġ1800":13423,"Ġsick":13424,"âĢĿ,":13425,"Ġfeud":13426,"Pe":13427,"Ġentreprene":13428,"Ġapartments":13429,"ĠAdvanced":13430,"Ġfailing":13431,"Ġalien":13432,"Ġgray":13433,"ĠVisc":13434,"Ġfame":13435,"Wil":13436,"ĠLoc":13437,"ĠFul":13438,"ogical":13439,"ĠBreak":13440,"inf":13441,"Ġstreams":13442,"ÃŁe":13443,"ĠKol":13444,"bank":13445,"NFL":13446,"etary":13447,"Ġregulation":13448,"Ġheading":13449,"ĠCameron":13450,"Ġnearest":13451,"ĠNas":13452,"ndez":13453,"ieties":13454,"ĠIdaho":13455,"Ġtherm":13456,"Ġgift":13457,"Ġcollaborated":13458,"Sec":13459,"ĠGibson":13460,"Ġmainstream":13461,"ĠMoney":13462,"Sat":13463,"arts":13464,"Ġvow":13465,"ĠCanterbury":13466,"Ġdefender":13467,"ĠMechan":13468,"lived":13469,"sup":13470,"alan":13471,"ĠKor":13472,"Ġeventual":13473,"Mer":13474,"Ġ115":13475,"ĠMetal":13476,"inas":13477,"hurst":13478,"ĠDim":13479,"Ġoverl":13480,"boat":13481,"Ġsculptor":13482,"ĠExpedition":13483,"Ġdrinking":13484,"gence":13485,"Ġdefended":13486,"Ġsimultaneously":13487,"Ġcanton":13488,"ĠWins":13489,"Ġprocedure":13490,"inia":13491,"athi":13492,"Canada":13493,"Î½":13494,"gebra":13495,"ĠGrammy":13496,"ĠAN":13497,"Brien":13498,"made":13499,"Ġplastic":13500,"Ġchorus":13501,"imensional":13502,"Ġyard":13503,"Ġdollars":13504,"handed":13505,"Ġvegetation":13506,"Ġdialect":13507,"Ġunderwent":13508,"Ġcomprises":13509,"ĠHus":13510,"iba":13511,"ĠMLB":13512,"pher":13513,"Ġprev":13514,"OW":13515,"eon":13516,"Ġmonthly":13517,"ĠCitiz":13518,"oney":13519,"ĠRoosevelt":13520,"Ġtheories":13521,"ĠRaiders":13522,"unners":13523,"Ġretro":13524,"Ġfairly":13525,"Ġtelephone":13526,"ourney":13527,"iblical":13528,"ĠThor":13529,"rand":13530,"Ġindoor":13531,"iscal":13532,"ĠKingston":13533,"forced":13534,"ĠMontenegro":13535,"ĠReform":13536,"ĠWarriors":13537,"ĠSlav":13538,"Ġzero":13539,"Ġracial":13540,"Ġtrustees":13541,"Administ":13542,"ĠSolomon":13543,"ĠArchae":13544,"ĠFraser":13545,"Ġeditors":13546,"ĠTriple":13547,"Ġstake":13548,"ĠVil":13549,"ĠHood":13550,"Ġbatting":13551,"Ġportions":13552,"Ġimmigration":13553,"elen":13554,"ĠEngineer":13555,"Ġmanip":13556,"ĠTheory":13557,"ĠAmendment":13558,"ĠTake":13559,"Ġthreats":13560,"oya":13561,"ĠJulian":13562,"ĠFinally":13563,"ici":13564,"andro":13565,"Ġtransit":13566,"Ġvoices":13567,"Ġposter":13568,"Wood":13569,"Ġtaxes":13570,"ĠRi":13571,"ĠRut":13572,"ĠDatabase":13573,"ĠHull":13574,"usa":13575,"Ġframework":13576,"ĠEns":13577,"Ġhighways":13578,"ĠVale":13579,"ĠCardiff":13580,"Ġsocieties":13581,"ĠPicture":13582,"ĠMoh":13583,"ĠFun":13584,"Ġplacing":13585,"ĠCrus":13586,"Ġbatted":13587,"irates":13588,"ĠEdmund":13589,"Ġmemoir":13590,"Ġsaxophone":13591,"MD":13592,"Ġcounsel":13593,"Ġghost":13594,"ilda":13595,"Ġseemed":13596,"Ġarena":13597,"Ġresource":13598,"Ġobjective":13599,"Mah":13600,"ados":13601,"ĠRica":13602,"cludes":13603,"ĠSuff":13604,"ĠCyr":13605,"eps":13606,"Techn":13607,"ĠDig":13608,"Ġsupplement":13609,"ĠGerald":13610,"adia":13611,"Ġjudg":13612,"President":13613,"orey":13614,"Arthur":13615,"ecraft":13616,"ĠVietnamese":13617,"urrect":13618,"ĠEmmy":13619,"Ġglac":13620,"utta":13621,"Ġvoiced":13622,"Mike":13623,"oux":13624,"ĠSimpson":13625,"Amendment":13626,"Ġguards":13627,"Ġcasualties":13628,"Ġangle":13629,"Fort":13630,"Ba":13631,"Ġgrave":13632,"Ġpoverty":13633,"Ġmemb":13634,"holders":13635,"ĠMcN":13636,"Liber":13637,"Ġrenowned":13638,"ĠMarx":13639,"Ġconsumption":13640,"Ġpy":13641,"Ġdiplomatic":13642,"astrop":13643,"stract":13644,"Ġsimul":13645,"Ġmanages":13646,"Ġknee":13647,"iggs":13648,"abi":13649,"Ġlegislature":13650,"Ġhappy":13651,"ĠKiss":13652,"aji":13653,"Ġdefending":13654,"iking":13655,"Ġresol":13656,"Ġassociations":13657,"Ġneighbouring":13658,"ĠPreston":13659,"ĠKenneth":13660,"Ġrivals":13661,"forest":13662,"founder":13663,"Ġchess":13664,"Ġimpossible":13665,"ĠDouble":13666,"ÏĦ":13667,"Ġindepend":13668,"Ġpresents":13669,"inced":13670,"ĠFighting":13671,"ĠCust":13672,"Wind":13673,"Ġbehaviour":13674,"Ġassum":13675,"Ġuniverse":13676,"phan":13677,"Ġsemif":13678,"Ġtriple":13679,"ĠMarcus":13680,"ĠLok":13681,"leigh":13682,"ĠRichardson":13683,"Ġvinyl":13684,"ĠJets":13685,"ĠSloven":13686,"ĠVoiv":13687,"uisine":13688,"Ġqueen":13689,"Ul":13690,"ĠAur":13691,"ĠJak":13692,"Pac":13693,"ĠClif":13694,"ĠIndex":13695,"built":13696,"Ġcomments":13697,"Ġtalks":13698,"Design":13699,"Fre":13700,"KA":13701,"tail":13702,"intendent":13703,"SB":13704,"Ġfiring":13705,"Ġtoll":13706,"ĠWithout":13707,"ĠLaboratory":13708,"Ġbotan":13709,"ango":13710,"ĠAL":13711,"ĠMarines":13712,"archive":13713,"ĠDoll":13714,"ĠRank":13715,"anca":13716,"ĠUniverse":13717,"ĠRetrieved":13718,"ku":13719,"Several":13720,"%).":13721,"ighthouse":13722,"ĠAntar":13723,"ĠLouise":13724,"overed":13725,"Ã©g":13726,"aines":13727,"ĠAnat":13728,"Ġamounts":13729,"Ġforty":13730,"ĠHitler":13731,"Ġholiday":13732,"ĠDale":13733,"ĠEff":13734,"Ġpond":13735,"Ġmainland":13736,"ischer":13737,"Ã¡r":13738,"Ġ1854":13739,"à®":13740,"istle":13741,"inted":13742,"Ġdogs":13743,"ĠPlaza":13744,"Ġprototype":13745,"Ġstolen":13746,"esch":13747,"vy":13748,"Ġpushed":13749,"ĠSantiago":13750,"Ġtraveling":13751,"Ġcow":13752,"Playing":13753,"Ġpub":13754,"ĠEstate":13755,"ĠInitially":13756,"aiden":13757,"onde":13758,"Ġconscious":13759,"stadt":13760,"idance":13761,"Ġdetail":13762,"Ġfreight":13763,"Ġnamely":13764,"Ġnumbered":13765,"legraph":13766,"Ġarchitects":13767,"Ġcelebration":13768,"DR":13769,"agua":13770,"1908":13771,"Ġsharing":13772,"Ġcontributing":13773,"Ġautomatic":13774,"stanbul":13775,"Ġcoffee":13776,"Ġ1855":13777,"ĠHerzegovina":13778,"lov":13779,"ĠPowell":13780,"!!":13781,"dorf":13782,"anz":13783,"edge":13784,"Ġcodes":13785,"ĠStafford":13786,"habilit":13787,"Dis":13788,"bian":13789,"ĠNotre":13790,"Ġcolonies":13791,"ĠPorter":13792,"ĠSurrey":13793,"ĠOst":13794,"CP":13795,"ĠWinners":13796,"makers":13797,"ĠBran":13798,"ĠKem":13799,"Ġrefugees":13800,"cfc":13801,"ĠCav":13802,"ĠAchie":13803,"Ġprinting":13804,"Ġafternoon":13805,"Ġsending":13806,"ĠShore":13807,"Ġ1858":13808,"Republican":13809,"Mammals":13810,"Ġtone":13811,"ĠPor":13812,"TT":13813,"Ġworker":13814,"HP":13815,"Ġconvinced":13816,"Ġdrain":13817,"ĠNortheast":13818,"ĠGlass":13819,"Ġtheatrical":13820,"Ġairfield":13821,"Ġmolecular":13822,"Ġdrove":13823,"ĠBavaria":13824,"Ġlocality":13825,"Ġhandle":13826,"ĠEngineers":13827,"ĠPhD":13828,"Ġexplicit":13829,"ĠAmbassador":13830,"Ġfifty":13831,"Ġkills":13832,"Ã¤r":13833,"stock":13834,"ĠSpect":13835,"ĠCros":13836,"group":13837,"Ġoperators":13838,"ĠSenators":13839,"mal":13840,"Ġelabor":13841,"Ġmissile":13842,"Open":13843,"Ġciting":13844,"Ġexplain":13845,"Ġinput":13846,"Mat":13847,"ommission":13848,"Ġfeeling":13849,"Ġprogressive":13850,"eor":13851,"ĠBloom":13852,"ĠStatistics":13853,"Ġinstruction":13854,"bler":13855,"ecker":13856,"à¥":13857,"ogne":13858,"ĠMorrison":13859,"imer":13860,"Ġsciences":13861,"onte":13862,"Ġsoph":13863,"ĠOmaha":13864,"ĠLouisville":13865,"Ġputting":13866,"ouns":13867,"Ġimprovement":13868,"Ġfallen":13869,"ĠGaelic":13870,"Ġmaintaining":13871,"icz":13872,"ceph":13873,"Ġroster":13874,"Ġvaluable":13875,"building":13876,"ĠReserv":13877,"Ġempire":13878,"Ġretain":13879,"Ġinteraction":13880,"ĠRobertson":13881,"Ġferry":13882,"Ġbears":13883,"Del":13884,"Ġlib":13885,"ĠMadagascar":13886,"ĠReynolds":13887,"ĠAhmed":13888,"ĠEthiopia":13889,"ĠArms":13890,"city":13891,"football":13892,"Ġaccum":13893,"Ġcontracts":13894,"Ġfraud":13895,"Ġtrouble":13896,"Home":13897,"Ġov":13898,"ĠLords":13899,"Ġstere":13900,"Greek":13901,"ĠHaving":13902,"quin":13903,"ĠInstitut":13904,"ĠMalta":13905,"ĠWednes":13906,"Ġcutting":13907,"Ġcivilians":13908,"Ġfung":13909,"Ġastronom":13910,"ĠWend":13911,"Ġdevelopments":13912,"Ġempty":13913,"ĠSons":13914,"Ġdisplays":13915,"Ber":13916,"ĠSap":13917,"ĠKi":13918,"Victor":13919,"Ġfisher":13920,"ingo":13921,"Ġautob":13922,"ĠCarroll":13923,"ĠMÃ©":13924,"Ġbeaten":13925,"ĠCurtis":13926,"ei":13927,"ĠGand":13928,"Ġindicating":13929,"Ġtip":13930,"ĠClaud":13931,"Ġnationally":13932,"held":13933,"ych":13934,"rox":13935,"Ġasking":13936,"Ġprisoner":13937,"ĠRodrig":13938,"ĠShadow":13939,"Ġjoins":13940,"Overview":13941,"ocumentary":13942,"Ġhole":13943,"ĠApollo":13944,"awi":13945,"')":13946,"Ġaspect":13947,"Ġforth":13948,"ĠMorocco":13949,"ĠPolitics":13950,"Ġfaces":13951,"inemat":13952,"IDS":13953,"ĠCS":13954,"ĠMom":13955,"arium":13956,"Ġlights":13957,"ĠRochester":13958,"Ġfamiliar":13959,"Ġhonours":13960,"arius":13961,"ĠKre":13962,"ĠMiles":13963,"clesiastical":13964,"Wel":13965,"cz":13966,"stable":13967,"bery":13968,"rowing":13969,"onne":13970,"Ġcad":13971,"Ġ125":13972,"Ġdepression":13973,"ĠMis":13974,"othe":13975,"Ġthereby":13976,"ĠHeath":13977,"Ġverte":13978,"Ġcomputers":13979,"Hungarian":13980,"ĠHarm":13981,"uttle":13982,"ĠCann":13983,"Ġbrew":13984,"Ġbills":13985,"Bi":13986,"ĠBrussels":13987,"ĠKind":13988,"ĠTransl":13989,"Ġwilling":13990,"Ġaware":13991,"Population":13992,"anch":13993,"regular":13994,"Ġ1856":13995,"byterian":13996,"Rh":13997,"ĠAF":13998,"Ġtowers":13999,"fbb":14000,"Fin":14001,"ĠRailways":14002,"Ġefficiency":14003,"quiry":14004,"ĠNatal":14005,"Ġassessment":14006,"ĠIUCN":14007,"Ġexhibitions":14008,"Ñı":14009,"Ġsteal":14010,"pit":14011,"Ġexperiments":14012,"Ġconcepts":14013,"ĠCanyon":14014,"word":14015,"ĠBurton":14016,"ogo":14017,"odeship":14018,"Ġsegments":14019,"Ġbare":14020,"ĠPublishers":14021,"Ġposthum":14022,"ĠTwenty":14023,"Ġphilosopher":14024,"Social":14025,"ocaust":14026,"ennium":14027,"ilion":14028,"Ġchapters":14029,"Regular":14030,"ĠWool":14031,"manuel":14032,"Ray":14033,"ĠLodge":14034,"Ġmotorcycle":14035,"Ġthirteen":14036,"Ġsignals":14037,"uca":14038,"Ġflour":14039,"Ġphilanthrop":14040,"ĠAFC":14041,"Ġtoler":14042,"ĠJin":14043,"eneath":14044,"Ġstored":14045,"ĠMonth":14046,"amar":14047,"Ġadministrator":14048,"Ġborrow":14049,"iston":14050,"Ġliver":14051,"ĠMinneapolis":14052,"ĠZimbabwe":14053,"Ġflower":14054,"ĠEg":14055,"Ġconsumer":14056,"ĠCu":14057,"ĠHerm":14058,"ĠPlanning":14059,"ĠFrankfurt":14060,"Ġ('":14061,"inde":14062,"ĠMoses":14063,"ĠGene":14064,"Ġprepare":14065,"Ġlocomotive":14066,"books":14067,"Ġgraduation":14068,"ĠFernando":14069,"ĠWit":14070,"Daniel":14071,"Ġmanuscript":14072,"Ġopens":14073,"Ġinhabited":14074,"Ġanaly":14075,"avery":14076,"ĠGrammar":14077,"ondo":14078,"fordshire":14079,"Ġperformers":14080,"avian":14081,"ĠĠĠĊ":14082,"Ġreaders":14083,"Ġsurvivors":14084,"etown":14085,"Ġsword":14086,"Ġask":14087,"Ġjew":14088,"Ġlineup":14089,"ĠAlbums":14090,"Ġcurriculum":14091,"Gre":14092,"essa":14093,"ĠLiberation":14094,"ĠLif":14095,"ĠPlate":14096,"ellers":14097,"Ġsharp":14098,"aws":14099,"ĠKaren":14100,"ettes":14101,"Tourist":14102,"Ġmissionary":14103,"Ġtube":14104,"Ġ105":14105,"ĠGP":14106,"Ġrestrictions":14107,"Work":14108,"Ġcraft":14109,"Ã¯":14110,"ĠEye":14111,"Ġfounders":14112,"Ġpsychology":14113,"ĠChelsea":14114,"House":14115,"MT":14116,"Ġpackage":14117,"Ġgraphic":14118,"iffs":14119,"Brown":14120,"Ġcogn":14121,"Ġlearns":14122,"ĠRhe":14123,"ategory":14124,"rific":14125,"ĠEyes":14126,"ĠHeadquarters":14127,"Tex":14128,"ĠCly":14129,"Ġoverlo":14130,"Team":14131,"Ġcanon":14132,"ĠEdgar":14133,"Ġgathered":14134,"ĠNaples":14135,"Ġhardware":14136,"ĠWinnipeg":14137,"Ġsweet":14138,"irie":14139,"ĠTrue":14140,"Ġawareness":14141,"umble":14142,"ĠReich":14143,"ĠLearning":14144,"ĠAA":14145,"Ġrunway":14146,"munition":14147,"Footnotes":14148,"ĠVeter":14149,"ergus":14150,"Ġrelatives":14151,"Ġcruis":14152,"Ġrelegation":14153,"ellows":14154,"wind":14155,"Ġinfection":14156,"avi":14157,"kinson":14158,"ĠGren":14159,"eo":14160,"atories":14161,"five":14162,"Ġvariations":14163,"Ġsoutheastern":14164,"ĠAdventure":14165,"Ġlad":14166,"Ġspecialist":14167,"Ġprefer":14168,"Ġwarning":14169,"unted":14170,"Ġproof":14171,"woman":14172,"rosse":14173,"ĠPresent":14174,"ĠAny":14175,"Ġemotional":14176,"Ġpill":14177,"ecca":14178,"ĠVid":14179,"ĠResp":14180,"Ġrebellion":14181,"Ġstationed":14182,"ĠCord":14183,"ĠGibb":14184,"html":14185,"oco":14186,"Ġunp":14187,"Cultural":14188,"Ġachievements":14189,"ĠBasil":14190,"ĠBot":14191,"ĠGÃ¶":14192,"Ġsuccession":14193,"ãĢ":14194,"chief":14195,"foundland":14196,"Ġunincorporated":14197,"ĠVoivodeship":14198,"oline":14199,"Ġmentions":14200,"Ġ),":14201,"Ġrepro":14202,"hart":14203,"Ġtill":14204,"Ġentity":14205,"Ġhanded":14206,"Ġforcing":14207,"ĠÃĸ":14208,"Ġdivorced":14209,"Ġdict":14210,"inks":14211,"Ġbinding":14212,"eni":14213,"Ġconfront":14214,"Ġ\"[":14215,"áĥ":14216,"ĠScreen":14217,"Ġpayment":14218,"ĠAboriginal":14219,"HF":14220,"hra":14221,"ĠContest":14222,"cul":14223,"Ġvaried":14224,"Ġfemin":14225,"Ġextending":14226,"inters":14227,"ĠLey":14228,"Ġ1853":14229,"Ġdialogue":14230,"Ġsustained":14231,"entieth":14232,"atorial":14233,"ĠHes":14234,"Ġshifted":14235,"alin":14236,"Ġintern":14237,"ĠDum":14238,"ĠCort":14239,"ĠRural":14240,"ĠBarr":14241,"Ġoxygen":14242,"Ġrenovation":14243,"ĠRab":14244,"Ġash":14245,"ĠRecording":14246,"ĠHass":14247,"Ġwish":14248,"ampire":14249,"Ġcrashed":14250,"DI":14251,"olan":14252,"ĠIndonesian":14253,"assis":14254,"Ha":14255,"Ġtissue":14256,"hey":14257,"ĠDas":14258,"Georg":14259,"Ġfastest":14260,"Ġambassador":14261,"ĠSent":14262,"ĠFra":14263,"ĠPlymouth":14264,"Ġgenerals":14265,"Ġgap":14266,"Ġowns":14267,"Ġraid":14268,"ĠAdrian":14269,"ĠRachel":14270,"Ġairline":14271,"Ġbrings":14272,"Ġfarms":14273,"Ġremembered":14274,"ĠPos":14275,"Ġwidth":14276,"1909":14277,"Ġreceptor":14278,"Individual":14279,"Ġcolleagues":14280,"Ġpreserve":14281,"umbai":14282,"Ġboards":14283,"ĠBil":14284,"ayette":14285,"onal":14286,"rove":14287,"Ġfourteen":14288,"Belg":14289,"Serb":14290,"alties":14291,"Sen":14292,"ĠChange":14293,"ateral":14294,"ahu":14295,"Î¹":14296,"Ġhandling":14297,"ĠAhmad":14298,"listed":14299,"ĠMemphis":14300,"ĠAmateur":14301,"Ġtrio":14302,"fol":14303,"ĠFemale":14304,"ĠEve":14305,"Ġflank":14306,"ĠStakes":14307,"Ġlaboratory":14308,"Ġprocedures":14309,"Ġsurrender":14310,"Ġapprec":14311,"Ġ1851":14312,"ĠMob":14313,"ĠWant":14314,"eu":14315,"gae":14316,"Ġ1852":14317,"ĠBryan":14318,"Ġupgraded":14319,"Ġmanual":14320,"Ġvariants":14321,"zyme":14322,"adh":14323,"pton":14324,"ĠGuatem":14325,"Ġfewer":14326,"Ġdestination":14327,"Ġexamination":14328,"Ġing":14329,"ĠPoll":14330,"India":14331,"Time":14332,"ĠAnders":14333,"Ġskill":14334,"Asian":14335,"hausen":14336,"Ġpatent":14337,"dinand":14338,"RE":14339,"lag":14340,"Ġwore":14341,"Ġpresentation":14342,"rev":14343,"Ġ<":14344,"grim":14345,"enhagen":14346,"orient":14347,"Ġreward":14348,"Ġallegedly":14349,"antom":14350,"Ġdisappeared":14351,"ĠProper":14352,"Ġmurders":14353,"Ġcuts":14354,"Steve":14355,"Ġrevenge":14356,"Jean":14357,"ometown":14358,"ĠWA":14359,"produced":14360,"Scot":14361,"Ġattraction":14362,"ĠElliott":14363,"ĠVladimir":14364,"Ġlawsuit":14365,"ĠAgainst":14366,"Ġprofessionals":14367,"ĠCB":14368,"Chief":14369,"Ġquiet":14370,"icity":14371,"Ġstatements":14372,"Ġengagement":14373,"author":14374,"Ġlobby":14375,"Ġreserves":14376,"ĠKumar":14377,"ĠEugene":14378,"Ġsovereign":14379,"Ġho":14380,"Ġseverely":14381,"Ġfaster":14382,"Ġhorizont":14383,"phabet":14384,"ĠDayton":14385,"Publications":14386,"ĠGam":14387,"oping":14388,"ĠWik":14389,"astics":14390,"ĠSacram":14391,"Ġdivorce":14392,"Australia":14393,"mology":14394,"ĠFen":14395,"ĠVall":14396,"Ġordinary":14397,"Ġruins":14398,"Ġundergraduate":14399,"Ġsituations":14400,"ĠThir":14401,
[...]
